<unk>	0
▁you	-3.26096
▁i	-3.31
▁the	-3.58694
▁s	-3.87474
▁to	-3.89329
▁a	-3.92522
▁it	-4.02948
s	-4.06734
▁t	-4.2924
▁that	-4.39069
▁and	-4.39501
▁of	-4.58931
▁what	-4.64192
▁me	-4.71709
▁in	-4.72659
▁we	-4.75996
▁is	-4.80569
▁he	-4.92507
▁this	-4.93622
▁m	-5.00123
▁on	-5.0435
▁for	-5.04402
▁your	-5.04956
▁my	-5.06218
▁no	-5.11084
▁do	-5.12141
▁re	-5.13106
▁don	-5.15088
▁have	-5.16816
▁be	-5.21531
ing	-5.21824
▁not	-5.23159
▁are	-5.25076
▁know	-5.25428
▁was	-5.27459
▁can	-5.2794
▁	-5.32144
▁all	-5.36666
▁with	-5.36757
▁so	-5.44705
▁but	-5.47496
▁just	-5.47994
▁here	-5.49086
▁get	-5.49401
ed	-5.50324
▁ll	-5.5162
▁there	-5.55833
▁they	-5.58168
▁like	-5.59562
y	-5.60193
▁go	-5.61037
▁up	-5.65262
▁right	-5.66052
▁she	-5.66064
▁out	-5.70353
▁about	-5.75069
▁if	-5.77102
▁him	-5.77895
▁come	-5.80216
▁at	-5.80219
▁one	-5.80827
▁oh	-5.82136
▁how	-5.85593
▁now	-5.8652
▁got	-5.86791
▁her	-5.92928
▁yeah	-5.93013
▁ve	-5.94855
▁want	-5.95743
▁well	-6.02053
▁good	-6.03843
▁think	-6.04111
▁see	-6.05583
▁let	-6.06246
▁who	-6.08818
▁did	-6.13437
▁why	-6.13623
▁will	-6.14031
▁his	-6.2106
▁d	-6.22605
▁from	-6.22902
▁back	-6.24675
▁yes	-6.26637
▁time	-6.26852
d	-6.26921
▁gonna	-6.2712
▁look	-6.27216
▁man	-6.32023
▁when	-6.32139
▁us	-6.33577
▁okay	-6.33818
▁where	-6.34615
▁an	-6.36194
▁take	-6.36937
▁as	-6.37079
▁going	-6.38402
▁tell	-6.4202
▁some	-6.43647
▁or	-6.43891
▁them	-6.44164
▁hey	-6.45003
▁say	-6.45338
▁then	-6.48688
▁had	-6.49214
▁were	-6.49348
▁would	-6.49527
▁been	-6.50147
▁really	-6.52693
▁our	-6.53513
▁could	-6.56602
e	-6.56623
▁down	-6.57458
▁something	-6.59267
▁didn	-6.62121
▁make	-6.64686
▁too	-6.65387
▁way	-6.6687
▁by	-6.67279
▁little	-6.69147
ly	-6.69202
▁never	-6.6956
▁over	-6.71537
▁need	-6.72401
▁more	-6.7305
▁give	-6.76278
▁off	-6.7687
▁love	-6.79101
▁has	-6.80419
▁mean	-6.82601
▁should	-6.8347
▁am	-6.83839
▁sorry	-6.84192
▁very	-6.84523
▁only	-6.84975
▁two	-6.88698
▁said	-6.90434
▁please	-6.91271
▁people	-6.91442
▁because	-6.91631
▁god	-6.93491
▁help	-6.96293
▁thing	-6.98403
▁doing	-6.99191
▁sure	-7.00685
▁any	-7.02244
▁thank	-7.02722
▁much	-7.0401
▁even	-7.04735
▁these	-7.09016
▁call	-7.09709
▁work	-7.11562
▁life	-7.11607
▁still	-7.12662
▁uh	-7.13052
▁day	-7.13718
▁night	-7.14183
▁find	-7.15874
▁nothing	-7.16083
▁great	-7.16317
a	-7.16347
▁wait	-7.16472
▁anything	-7.16968
▁home	-7.16984
▁stop	-7.176
▁talk	-7.18385
▁mr	-7.18773
▁put	-7.19214
▁first	-7.19355
▁won	-7.19398
▁maybe	-7.20319
▁last	-7.21581
▁again	-7.21586
▁into	-7.2194
▁thought	-7.23746
▁sir	-7.24033
▁girl	-7.24454
▁before	-7.26677
▁away	-7.26997
▁new	-7.27023
▁must	-7.2824
▁keep	-7.28712
▁other	-7.28846
▁their	-7.28853
▁big	-7.29034
▁long	-7.31753
▁those	-7.31773
▁than	-7.32177
▁better	-7.32857
▁told	-7.33735
▁old	-7.34618
▁guy	-7.3579
▁shit	-7.35808
▁ever	-7.35839
▁name	-7.37403
▁leave	-7.37536
▁fucking	-7.38305
▁always	-7.38635
▁guys	-7.391
▁after	-7.39521
▁fuck	-7.39825
▁around	-7.40485
▁believe	-7.40583
▁ok	-7.40797
▁everything	-7.40829
▁nice	-7.41787
o	-7.42363
▁car	-7.42366
▁doesn	-7.43081
▁does	-7.43472
▁things	-7.43503
▁money	-7.45038
es	-7.45643
▁feel	-7.46279
▁place	-7.47604
▁remember	-7.47938
▁years	-7.48887
▁thanks	-7.49016
▁listen	-7.50066
▁kill	-7.50422
▁hi	-7.50974
▁fine	-7.51929
▁isn	-7.52571
▁father	-7.52703
▁l	-7.52724
▁hear	-7.52783
▁three	-7.53207
er	-7.53751
▁every	-7.54619
▁stay	-7.54721
▁bad	-7.54892
▁hello	-7.5544
▁wrong	-7.57369
▁gotta	-7.57831
▁made	-7.60699
▁kind	-7.60889
▁understand	-7.61043
▁minute	-7.61116
▁hell	-7.61874
▁wanna	-7.62948
▁lot	-7.63745
▁left	-7.64316
n	-7.64575
ie	-7.64657
▁own	-7.6648
▁dead	-7.66612
▁1	-7.66662
▁coming	-7.6678
▁may	-7.66896
▁world	-7.67594
▁ask	-7.67741
▁someone	-7.67798
▁which	-7.67905
▁house	-7.67907
▁boy	-7.6792
▁wanted	-7.67937
▁enough	-7.68822
▁baby	-7.68824
▁dad	-7.69479
▁try	-7.70245
▁show	-7.70951
▁talking	-7.71641
▁care	-7.71901
▁problem	-7.72008
▁real	-7.72791
▁woman	-7.73111
▁came	-7.73254
▁mother	-7.73348
▁mind	-7.73515
▁next	-7.73579
▁another	-7.7364
▁happened	-7.73847
▁through	-7.73875
▁son	-7.73878
▁done	-7.74288
▁friend	-7.74589
▁huh	-7.74747
▁today	-7.75681
▁else	-7.75815
▁course	-7.76568
t	-7.77
▁hard	-7.7754
▁move	-7.79172
▁hold	-7.79444
▁start	-7.806
▁looking	-7.80779
▁wasn	-7.81908
▁went	-7.82653
▁best	-7.8352
▁head	-7.83558
▁yourself	-7.83921
▁same	-7.84198
▁might	-7.84255
▁being	-7.84659
▁together	-7.86333
▁found	-7.86702
▁morning	-7.87086
▁brother	-7.87189
▁die	-7.87869
on	-7.87986
▁room	-7.88558
▁live	-7.88694
▁guess	-7.89058
▁getting	-7.89077
▁wife	-7.89078
▁ready	-7.89974
▁many	-7.90396
▁bring	-7.93382
▁seen	-7.9376
▁job	-7.94224
▁ain	-7.95097
ies	-7.95681
▁open	-7.957
▁matter	-7.96147
▁saw	-7.96225
▁idea	-7.96357
▁trying	-7.96496
▁play	-7.9669
▁heard	-7.97177
▁happy	-7.98754
▁excuse	-7.98791
▁tonight	-7.99529
▁wouldn	-7.99777
▁second	-7.99798
▁most	-8.00219
▁mom	-8.00691
▁miss	-8.01754
▁knew	-8.01977
▁run	-8.02309
▁already	-8.02458
▁dog	-8.02598
▁00	-8.02844
▁once	-8.03282
▁pretty	-8.0332
▁ha	-8.03838
▁end	-8.03874
▁meet	-8.0443
▁men	-8.04535
▁use	-8.04654
▁school	-8.04712
▁damn	-8.04824
▁turn	-8.04843
▁family	-8.04854
▁without	-8.05236
▁week	-8.05657
▁days	-8.06147
▁2	-8.06411
▁watch	-8.06618
▁tomorrow	-8.06717
▁while	-8.0678
▁called	-8.06948
▁shut	-8.0736
▁door	-8.07444
▁hope	-8.07661
▁o	-8.07766
▁haven	-8.08251
▁face	-8.08917
▁lost	-8.09522
▁took	-8.09553
▁friends	-8.09911
▁worry	-8.10364
▁yet	-8.10561
▁bye	-8.11148
▁heart	-8.11364
▁myself	-8.11494
▁whole	-8.1158
▁fire	-8.11678
▁five	-8.1226
▁drink	-8.12607
▁year	-8.13503
▁couldn	-8.14148
▁close	-8.14472
▁cause	-8.15031
▁used	-8.15525
▁check	-8.15935
▁gone	-8.15942
▁such	-8.1612
▁business	-8.16475
▁killed	-8.16537
▁ass	-8.17149
▁ago	-8.17333
▁eat	-8.17784
▁saying	-8.17958
▁sound	-8.18381
▁since	-8.18938
▁sit	-8.19007
▁hand	-8.1964
▁stuff	-8.20404
▁kid	-8.20549
▁water	-8.20565
▁actually	-8.20848
▁phone	-8.20947
▁bit	-8.20967
▁change	-8.21088
▁everyone	-8.21123
▁hurt	-8.21132
▁under	-8.21161
▁says	-8.21253
▁later	-8.21472
▁um	-8.21581
▁both	-8.21683
▁pay	-8.21684
▁easy	-8.2195
lone	-8.22016
▁everybody	-8.22071
▁em	-8.22499
▁c	-8.2268
▁music	-8.23084
▁four	-8.2309
▁thinking	-8.23225
▁deal	-8.23428
▁somebody	-8.23679
▁late	-8.23759
▁true	-8.23871
▁few	-8.24071
▁forget	-8.24857
▁hit	-8.25703
▁anyone	-8.26754
▁e	-8.27393
▁beautiful	-8.28025
▁anyway	-8.28367
▁looks	-8.28601
▁wants	-8.28912
▁point	-8.29727
▁until	-8.30285
▁case	-8.30499
▁part	-8.30568
▁wish	-8.31367
▁police	-8.32083
▁cut	-8.3245
▁each	-8.32518
man	-8.33383
▁mine	-8.3345
▁ah	-8.33662
▁soon	-8.33828
▁read	-8.34305
▁ma	-8.3445
▁sleep	-8.34686
▁hate	-8.34959
▁happen	-8.34992
▁half	-8.3506
▁fight	-8.35362
▁having	-8.35884
▁high	-8.36015
i	-8.36793
▁crazy	-8.36913
▁doctor	-8.37184
▁whatever	-8.37459
▁probably	-8.3748
▁eyes	-8.37698
▁side	-8.38117
▁kids	-8.38531
▁inside	-8.3856
▁supposed	-8.38757
▁nobody	-8.39077
▁aren	-8.39814
▁3	-8.40374
us	-8.40663
▁game	-8.40799
l	-8.4122
▁jack	-8.41553
▁buy	-8.41682
▁young	-8.41725
▁number	-8.41797
▁gun	-8.41961
▁word	-8.42042
▁trust	-8.42121
▁exactly	-8.42382
▁death	-8.42788
▁far	-8.42849
▁boys	-8.43148
▁break	-8.43328
▁jesus	-8.43828
r	-8.43944
▁stupid	-8.44005
▁body	-8.44678
▁different	-8.45125
▁also	-8.45263
▁honey	-8.45327
▁bitch	-8.45752
▁women	-8.45978
▁afraid	-8.4607
▁shot	-8.46352
▁fun	-8.46356
▁hours	-8.4642
▁person	-8.46518
▁question	-8.46992
▁gave	-8.47273
▁answer	-8.47653
▁john	-8.47819
▁sister	-8.48035
▁cool	-8.48232
▁light	-8.49284
▁order	-8.49553
▁story	-8.49739
▁war	-8.50361
▁speak	-8.5074
▁line	-8.511
▁b	-8.51125
▁stand	-8.51145
▁reason	-8.51204
▁walk	-8.51484
▁makes	-8.51501
▁important	-8.5158
▁asked	-8.51643
▁save	-8.51888
▁chance	-8.51961
▁whoa	-8.5256
▁taking	-8.53019
▁rest	-8.53951
▁six	-8.53973
▁working	-8.5437
▁full	-8.54419
▁set	-8.54736
▁party	-8.54915
▁power	-8.54923
▁husband	-8.55159
▁free	-8.55512
▁married	-8.56251
▁welcome	-8.56283
▁town	-8.56582
▁waiting	-8.56778
▁funny	-8.56886
▁making	-8.57164
▁hands	-8.57299
▁plan	-8.57421
▁perfect	-8.57567
▁hmm	-8.57681
▁f	-8.58022
▁goes	-8.58066
▁moment	-8.58417
▁behind	-8.58418
▁least	-8.58558
▁pick	-8.58698
▁ya	-8.58952
▁child	-8.59421
▁red	-8.59579
▁daddy	-8.59672
▁truth	-8.59944
▁blood	-8.60098
▁finish	-8.60453
▁means	-8.60613
▁clear	-8.6063
▁5	-8.6075
▁serious	-8.60829
▁times	-8.61416
▁couple	-8.61917
▁black	-8.61978
▁daughter	-8.62403
▁mrs	-8.62422
able	-8.62434
▁10	-8.62715
▁book	-8.63102
▁almost	-8.63197
th	-8.63542
▁special	-8.64584
▁though	-8.64829
▁shoot	-8.64886
▁shall	-8.65309
▁met	-8.65477
▁against	-8.65897
▁hot	-8.66292
▁between	-8.66295
▁anymore	-8.66668
▁captain	-8.66695
▁hang	-8.67443
▁dr	-8.67603
▁pull	-8.67674
▁sweet	-8.67796
▁drive	-8.67974
▁bed	-8.68072
▁touch	-8.68396
▁lose	-8.68417
▁hair	-8.68852
▁fall	-8.69701
▁y	-8.69928
▁trouble	-8.69978
▁000	-8.7001
▁president	-8.70102
▁ahead	-8.70173
▁promise	-8.70198
▁charl	-8.70256
▁tried	-8.70529
▁lt	-8.70612
▁died	-8.7128
▁anybody	-8.7146
▁alive	-8.71766
▁quite	-8.72081
▁front	-8.72349
ness	-8.72414
▁office	-8.72556
▁un	-8.72598
▁sing	-8.72699
▁ten	-8.72718
▁hurry	-8.72731
▁telling	-8.73176
▁air	-8.73181
▁30	-8.73232
▁ship	-8.73821
▁feeling	-8.74006
ity	-8.74049
▁playing	-8.74401
▁top	-8.74667
▁piece	-8.7469
▁food	-8.74811
▁return	-8.75171
▁20	-8.75345
▁01	-8.75438
▁fact	-8.76084
▁write	-8.76628
▁started	-8.77248
▁movie	-8.77503
▁control	-8.77573
▁p	-8.77747
▁lie	-8.7811
▁brought	-8.78138
you	-8.78341
▁either	-8.78374
▁white	-8.78397
▁send	-8.78456
▁quick	-8.78497
▁4	-8.78765
▁n	-8.78934
▁knows	-8.78937
▁team	-8.79006
al	-8.79318
▁comes	-8.79475
▁city	-8.79857
▁children	-8.81428
▁shouldn	-8.81627
▁dinner	-8.81698
▁small	-8.81746
h	-8.81905
▁count	-8.81925
▁bastard	-8.81942
▁seems	-8.81989
▁outside	-8.82153
▁able	-8.82205
▁hour	-8.82318
▁ring	-8.82478
▁human	-8.8296
▁chief	-8.83079
▁sometimes	-8.83243
▁rule	-8.83384
is	-8.83844
▁scared	-8.83853
▁voice	-8.84226
▁lord	-8.84431
▁catch	-8.84566
▁laughing	-8.84854
▁kiss	-8.84897
▁dream	-8.85757
▁lady	-8.85771
▁months	-8.8587
▁wow	-8.85882
▁bet	-8.85934
▁news	-8.86059
▁dear	-8.8618
▁luck	-8.8618
▁past	-8.86879
▁star	-8.87037
▁careful	-8.87071
▁sex	-8.87132
▁sick	-8.87143
▁law	-8.87399
▁sort	-8.88177
▁become	-8.88486
▁till	-8.88584
▁cry	-8.887
▁living	-8.89025
▁king	-8.89098
▁secret	-8.89447
▁along	-8.90235
▁ooh	-8.90381
en	-8.90503
▁lives	-8.90625
▁himself	-8.90648
▁de	-8.90904
▁ladies	-8.91113
▁goddamn	-8.91516
▁safe	-8.91932
▁sign	-8.92697
▁song	-8.92965
▁fast	-8.93086
▁scream	-8.93218
ne	-8.93434
▁dance	-8.9352
▁test	-8.93527
▁sense	-8.93633
▁parents	-8.93675
▁christmas	-8.93684
▁cold	-8.93773
▁fly	-8.93774
▁cannot	-8.94138
▁beat	-8.94249
▁perhaps	-8.94313
▁country	-8.94522
▁running	-8.94669
▁mm	-8.94746
▁leaving	-8.95382
▁rock	-8.95787
▁company	-8.96017
▁leg	-8.96163
▁gets	-8.96268
▁lucky	-8.96422
▁million	-8.96529
▁enjoy	-8.96573
▁officer	-8.96584
▁street	-8.96835
▁class	-8.97417
▁christ	-8.97462
▁win	-8.97514
▁wake	-8.98164
▁date	-8.98372
▁boss	-8.98405
▁earth	-8.98646
▁explain	-8.98735
est	-8.98778
▁tv	-8.98953
▁learn	-8.99155
▁poor	-8.99975
▁fish	-9.00008
▁words	-9.00058
▁seven	-9.00108
▁sell	-9.00244
▁la	-9.00293
▁u	-9.00559
▁paper	-9.00673
▁glad	-9.00934
▁state	-9.01244
▁taken	-9.01349
▁smell	-9.01476
▁r	-9.01509
▁happens	-9.01596
▁asking	-9.01628
▁follow	-9.01991
▁feet	-9.02462
▁short	-9.02668
▁stick	-9.02739
▁seem	-9.03029
ton	-9.0307
▁needs	-9.03198
▁0	-9.03206
▁sent	-9.03218
m	-9.03227
▁hospital	-9.03336
▁murder	-9.03605
▁kidd	-9.03969
▁alright	-9.0397
▁straight	-9.0404
▁peter	-9.0406
▁picture	-9.04333
▁sun	-9.04375
▁8	-9.04597
▁wear	-9.04828
▁drop	-9.04958
▁gentlemen	-9.05065
▁calm	-9.05316
▁blue	-9.05346
in	-9.05388
▁50	-9.05496
▁ball	-9.05767
▁rid	-9.05875
▁throw	-9.06208
▁report	-9.06234
▁strong	-9.06295
▁soul	-9.06319
▁budd	-9.06431
▁meeting	-9.06565
▁worth	-9.066
▁mad	-9.06948
▁pass	-9.07142
▁calling	-9.07433
▁smart	-9.07455
▁expect	-9.07613
▁park	-9.07714
▁box	-9.07724
▁yo	-9.07994
▁ii	-9.08
▁somewhere	-9.08136
▁j	-9.08502
▁coffee	-9.08634
▁frank	-9.08717
▁k	-9.08807
▁weren	-9.08906
▁gold	-9.09034
▁figure	-9.09197
▁blow	-9.09353
▁quiet	-9.09669
▁paul	-9.0977
▁ride	-9.10095
▁busy	-9.10206
▁wonder	-9.10417
▁fix	-9.10676
▁mouth	-9.10679
▁possible	-9.10722
▁g	-9.10922
▁finally	-9.11088
▁general	-9.11169
▁eye	-9.11668
▁w	-9.11762
▁strange	-9.11815
▁choice	-9.11919
▁present	-9.11936
▁15	-9.12023
▁relax	-9.12551
▁mistake	-9.13041
▁act	-9.13075
▁loved	-9.13634
▁angel	-9.14163
▁round	-9.14171
▁system	-9.14619
▁deep	-9.15061
▁honest	-9.15223
▁less	-9.15265
▁none	-9.15306
▁bag	-9.1539
▁honor	-9.15468
▁bar	-9.15504
▁eight	-9.15531
▁nick	-9.15633
▁clean	-9.1575
▁sea	-9.15849
▁fuckin	-9.15849
▁wonderful	-9.16142
▁forgive	-9.16517
▁evening	-9.16554
0	-9.16875
▁felt	-9.16921
▁age	-9.17054
▁early	-9.17074
▁bob	-9.17091
▁uncle	-9.17181
▁future	-9.17202
▁land	-9.17373
▁respect	-9.17418
▁moving	-9.1748
▁master	-9.17536
▁step	-9.17838
▁9	-9.18391
▁happening	-9.1849
▁court	-9.1897
▁marry	-9.19009
▁tree	-9.194
▁others	-9.19446
▁birthday	-9.199
▁bill	-9.20031
▁grow	-9.20222
where	-9.20421
▁fault	-9.20445
▁continues	-9.20523
▁ray	-9.2054
▁fat	-9.208
▁weapon	-9.20856
▁questions	-9.20916
▁machine	-9.20987
▁greg	-9.21204
ce	-9.21312
▁worked	-9.21343
▁sara	-9.21354
▁doin	-9.21419
▁jimmy	-9.21612
▁unless	-9.2205
▁looked	-9.22112
▁pain	-9.22361
▁killer	-9.22475
▁h	-9.22507
▁lead	-9.22645
▁ho	-9.2266
▁road	-9.2277
▁aah	-9.22781
▁club	-9.23084
▁rich	-9.23188
▁dark	-9.23399
▁turned	-9.23479
▁longer	-9.23739
▁share	-9.23917
▁bobby	-9.23959
▁known	-9.2399
▁slow	-9.24214
▁changed	-9.2425
▁visit	-9.24448
▁forever	-9.24496
le	-9.2456
▁month	-9.24692
▁speaking	-9.24838
▁giving	-9.24862
▁tired	-9.24904
▁wedding	-9.24904
▁idiot	-9.24936
▁cover	-9.24943
▁glass	-9.24944
▁charge	-9.25165
▁imagine	-9.25301
▁seat	-9.25374
▁dude	-9.25681
▁br	-9.2569
▁push	-9.25808
▁record	-9.2604
▁harry	-9.26054
▁yesterday	-9.26223
▁fool	-9.26227
▁gasp	-9.26256
▁accept	-9.26978
▁worried	-9.27153
▁agent	-9.27231
▁19	-9.27278
▁tom	-9.27438
▁tony	-9.27457
▁attack	-9.27495
▁michael	-9.27516
▁offer	-9.27559
▁hoo	-9.27617
▁james	-9.28345
▁near	-9.28594
▁destroy	-9.28781
▁green	-9.28906
▁born	-9.29113
▁rather	-9.29142
▁situation	-9.29182
an	-9.29388
▁stone	-9.29476
▁sam	-9.29525
▁absolutely	-9.29624
▁grand	-9.29727
▁works	-9.29897
▁suit	-9.29915
▁jump	-9.29929
▁film	-9.29968
▁wall	-9.29995
▁sake	-9.30021
▁roll	-9.30094
chinese	-9.30469
▁takes	-9.30484
▁laugh	-9.30838
▁fear	-9.30861
▁scene	-9.31026
▁ground	-9.31084
▁knock	-9.31091
▁message	-9.3115
▁radio	-9.31301
▁weird	-9.31328
▁ice	-9.314
▁quit	-9.31494
▁lunch	-9.31651
▁join	-9.31726
▁college	-9.3186
▁floor	-9.31868
▁student	-9.31897
▁watching	-9.32161
▁clothes	-9.32222
▁thousand	-9.32228
▁ow	-9.32286
▁asshole	-9.3234
▁table	-9.32459
▁george	-9.32598
▁da	-9.32613
▁goodbye	-9.32967
▁12	-9.33231
▁goin	-9.33472
ic	-9.33511
▁handle	-9.33621
▁arm	-9.33647
▁protect	-9.33813
▁spend	-9.34102
▁jim	-9.34176
▁plane	-9.34509
▁coach	-9.34518
▁york	-9.34529
▁dress	-9.34558
▁worse	-9.34731
st	-9.34763
▁french	-9.34991
▁american	-9.35118
▁henry	-9.35295
▁fair	-9.35473
▁sad	-9.35507
▁dollar	-9.35753
▁island	-9.35794
▁simple	-9.35813
▁train	-9.35886
na	-9.35937
▁broke	-9.36465
▁hole	-9.36642
▁boat	-9.3672
▁terrible	-9.37044
▁meant	-9.37056
▁mess	-9.37292
▁brain	-9.37335
▁bank	-9.3736
▁totally	-9.37589
▁mmm	-9.37807
▁completely	-9.38083
▁boyfriend	-9.38173
▁caught	-9.38539
▁planet	-9.38659
▁ran	-9.38697
ion	-9.38697
▁window	-9.38812
▁information	-9.38824
▁lying	-9.38827
▁anywhere	-9.39
▁girlfriend	-9.39015
▁except	-9.39041
▁max	-9.39051
▁holy	-9.39224
▁animal	-9.39329
▁dangerous	-9.39414
▁david	-9.40003
▁steal	-9.40173
▁groan	-9.40342
▁hundred	-9.40451
▁seeing	-9.40493
▁hide	-9.40574
▁given	-9.40644
▁peace	-9.40682
go	-9.40771
▁kept	-9.40922
▁chuckle	-9.41107
▁pilot	-9.41291
▁attention	-9.41418
▁bought	-9.41852
▁building	-9.41957
▁amazing	-9.42028
▁tommy	-9.42028
▁dick	-9.42294
▁missing	-9.42325
▁mary	-9.42543
▁lovely	-9.42625
▁forgot	-9.42779
▁pleasure	-9.42876
▁warm	-9.42985
▁notice	-9.43229
▁surprise	-9.4325
▁evil	-9.4349
▁san	-9.436
▁sitting	-9.43636
▁swear	-9.4385
▁service	-9.4388
▁kick	-9.44246
▁store	-9.44377
▁decided	-9.44384
▁field	-9.44451
▁hasn	-9.44489
▁cop	-9.44542
▁bullshit	-9.44779
▁heaven	-9.44818
▁gift	-9.44833
▁tape	-9.45067
▁chicken	-9.45262
▁letter	-9.45264
▁definitely	-9.45335
▁cat	-9.45395
▁missed	-9.45396
▁carl	-9.45517
▁accident	-9.45676
▁burn	-9.45684
security	-9.45942
▁during	-9.45956
▁relationship	-9.46121
▁force	-9.46145
▁truck	-9.46401
▁condition	-9.46561
ney	-9.46562
▁card	-9.46639
▁teach	-9.4678
▁mate	-9.46829
▁hungry	-9.46974
▁spirit	-9.47179
▁russian	-9.47195
▁bother	-9.47219
▁mama	-9.47325
▁ticket	-9.47744
▁horse	-9.47798
▁lay	-9.4817
▁station	-9.48273
▁interested	-9.4845
▁fell	-9.48474
▁match	-9.48518
▁wilson	-9.4852
▁killing	-9.4863
▁joke	-9.48787
▁tough	-9.48892
▁key	-9.48908
▁pack	-9.48931
▁list	-9.48987
ine	-9.48998
ous	-9.4902
less	-9.49095
▁breath	-9.49426
▁rain	-9.4972
▁normal	-9.49736
▁talked	-9.4985
▁decision	-9.49922
▁trip	-9.50178
▁enem	-9.502
▁wood	-9.50281
▁tea	-9.50394
▁lock	-9.50478
▁feed	-9.50542
▁fit	-9.50594
▁beer	-9.50656
▁suppose	-9.50698
▁hank	-9.50732
▁owe	-9.51009
▁patrick	-9.51029
▁needed	-9.51056
▁proud	-9.51113
land	-9.51121
▁drunk	-9.51236
▁sammy	-9.51312
▁press	-9.51336
▁band	-9.5154
▁40	-9.51682
▁apartment	-9.51697
▁interesting	-9.51724
▁japan	-9.51747
▁smoke	-9.51785
▁certainly	-9.51817
▁certain	-9.52019
▁afternoon	-9.52321
▁art	-9.52412
▁victim	-9.52413
illy	-9.52451
▁shop	-9.52647
▁computer	-9.52956
▁area	-9.53105
▁hotel	-9.53148
▁pants	-9.53151
▁dogs	-9.53387
▁level	-9.53473
▁middle	-9.53582
▁smile	-9.53614
ary	-9.53745
▁position	-9.53768
▁reading	-9.53815
▁grace	-9.54148
▁contact	-9.54233
▁twice	-9.54243
▁broken	-9.5431
▁fucked	-9.54367
▁personal	-9.54438
▁suspect	-9.54438
▁major	-9.5474
▁wind	-9.54863
▁double	-9.55181
▁third	-9.55201
▁block	-9.55202
▁drugs	-9.55246
▁appreciate	-9.55271
▁german	-9.55361
▁begin	-9.55364
▁instead	-9.55726
▁dying	-9.55955
▁teacher	-9.5597
▁realize	-9.5609
▁maximu	-9.56154
▁bloody	-9.56157
ance	-9.56183
▁single	-9.56281
▁south	-9.56287
▁agree	-9.56349
▁soft	-9.56573
▁carry	-9.56635
▁grab	-9.56745
▁create	-9.56822
▁difference	-9.56849
▁paid	-9.56885
▁form	-9.56929
k	-9.56977
▁stuck	-9.57171
▁low	-9.57299
▁fighting	-9.57426
▁fella	-9.57513
▁deserve	-9.57596
▁favor	-9.57651
ese	-9.57777
▁mark	-9.5787
▁cute	-9.57949
▁army	-9.58014
or	-9.58129
▁freak	-9.58155
▁gay	-9.58338
▁across	-9.58379
to	-9.58514
▁commander	-9.58653
▁soldier	-9.58748
▁van	-9.58765
▁cops	-9.58858
▁lived	-9.5892
▁bus	-9.59283
▁guard	-9.59366
▁group	-9.59542
▁space	-9.59607
▁standing	-9.59706
▁private	-9.59708
▁nine	-9.59793
▁disappear	-9.59796
▁professor	-9.5991
▁forward	-9.60036
▁especially	-9.60144
▁pray	-9.60713
▁darling	-9.60752
▁besides	-9.60805
▁english	-9.60877
▁keys	-9.61028
▁lawyer	-9.61198
▁exist	-9.61436
▁self	-9.61491
▁wrote	-9.61518
▁flight	-9.62169
▁histor	-9.62228
▁summer	-9.62342
▁books	-9.62357
▁treat	-9.62692
▁cross	-9.62746
▁emperor	-9.6281
▁crap	-9.62875
▁reach	-9.62877
▁suck	-9.62935
▁camera	-9.62945
▁board	-9.63155
▁25	-9.63291
it	-9.63306
▁foot	-9.63348
▁tight	-9.63391
▁action	-9.63459
▁continue	-9.63485
ment	-9.63569
▁motherfucker	-9.63626
▁wearing	-9.63778
▁crime	-9.63993
▁church	-9.64055
▁kim	-9.64112
▁account	-9.64276
2	-9.64287
▁taste	-9.64287
▁100	-9.6434
▁unit	-9.64355
▁crowd	-9.6436
▁america	-9.64381
▁wine	-9.64653
▁screw	-9.64699
▁miles	-9.64714
▁stole	-9.64842
▁moved	-9.65117
▁congratulations	-9.65204
ting	-9.65376
▁eric	-9.65388
▁sleeping	-9.65426
▁fill	-9.65496
▁named	-9.65698
▁difficult	-9.65807
▁daniel	-9.65817
5	-9.65864
▁impossibl	-9.65938
▁crew	-9.65955
▁fresh	-9.66108
▁public	-9.66368
▁entire	-9.66408
▁whether	-9.66482
▁village	-9.66668
▁nose	-9.6669
▁mission	-9.66703
▁complete	-9.6681
▁sunday	-9.6684
▁memory	-9.66853
▁price	-9.66942
▁doubt	-9.6707
▁remain	-9.67105
▁pant	-9.67168
▁shh	-9.67634
▁spent	-9.67656
▁jail	-9.67706
▁beach	-9.67772
▁cook	-9.67819
▁prison	-9.67824
▁cup	-9.67969
▁patient	-9.68218
▁dreams	-9.68277
▁rome	-9.68348
▁risk	-9.68376
▁file	-9.68525
▁appear	-9.68625
▁nervous	-9.68631
▁ex	-9.68699
▁walking	-9.68772
▁natural	-9.68849
▁loves	-9.68865
▁neither	-9.68949
▁search	-9.68954
▁liked	-9.68983
▁writing	-9.69178
▁cindy	-9.69183
▁decide	-9.69776
▁stopped	-9.70238
▁upset	-9.70254
▁laughs	-9.70327
▁shoes	-9.70403
▁v	-9.70691
▁dare	-9.70846
▁marriage	-9.70885
▁cars	-9.70955
re	-9.71074
▁cash	-9.71212
▁ohh	-9.71269
ry	-9.71367
▁final	-9.71495
▁crack	-9.71719
▁calls	-9.72011
▁cost	-9.72102
▁victor	-9.72224
▁waste	-9.72347
▁mum	-9.72348
▁obviously	-9.72472
▁correct	-9.72664
▁support	-9.72696
▁devil	-9.7275
▁eh	-9.72785
▁survive	-9.72871
▁extra	-9.73065
▁command	-9.73092
▁feels	-9.73137
▁shirt	-9.73139
▁mommy	-9.73147
▁page	-9.73169
▁copy	-9.73287
▁partner	-9.73388
▁size	-9.7341
▁blame	-9.73607
▁upon	-9.73698
▁within	-9.73779
▁became	-9.73927
▁judge	-9.73958
▁mickey	-9.74024
▁driving	-9.74197
▁pretend	-9.7433
▁winner	-9.74482
▁singing	-9.74552
▁admit	-9.74582
▁whose	-9.74651
▁pete	-9.74788
▁arms	-9.74876
▁detective	-9.74981
▁richie	-9.7502
ty	-9.75071
▁london	-9.75093
▁twenty	-9.75207
▁nuts	-9.75234
▁whoo	-9.75499
▁client	-9.75717
▁raise	-9.75752
▁address	-9.75832
▁worst	-9.75833
▁prove	-9.76418
▁dumb	-9.76485
▁eating	-9.7651
▁jean	-9.76523
▁grunt	-9.7654
▁naked	-9.76588
▁billy	-9.76793
▁bullet	-9.76852
▁pressure	-9.76931
▁x	-9.7702
▁evidence	-9.7704
▁score	-9.77459
▁11	-9.77556
▁chan	-9.77728
▁north	-9.77742
▁juice	-9.7776
▁wash	-9.77894
▁west	-9.7808
▁robert	-9.78216
▁beep	-9.78463
▁grandma	-9.78537
▁listening	-9.78541
▁mon	-9.78553
▁outta	-9.78633
▁al	-9.79009
▁pal	-9.79157
▁heavy	-9.79319
▁plant	-9.79405
▁thomas	-9.79432
▁li	-9.79465
▁strike	-9.79651
▁bear	-9.79819
▁experience	-9.80039
▁trade	-9.80042
▁camp	-9.80069
▁duty	-9.8032
▁closer	-9.8034
▁joe	-9.80346
▁magic	-9.80433
▁milk	-9.80441
▁clock	-9.80446
▁choose	-9.8068
▁type	-9.80691
▁promised	-9.80723
▁chair	-9.80902
▁figured	-9.80976
▁mention	-9.81063
▁escape	-9.81087
▁states	-9.81159
▁co	-9.81253
▁wound	-9.81301
▁speed	-9.81406
▁picked	-9.8155
▁18	-9.81615
▁paris	-9.81662
▁hero	-9.81767
▁jeff	-9.81981
▁river	-9.82021
▁faith	-9.82041
▁using	-9.82107
▁14	-9.82178
▁holding	-9.82187
▁pictures	-9.82243
▁neck	-9.82248
▁bigger	-9.82334
ourselves	-9.8235
eth	-9.8253
▁angry	-9.82732
▁blind	-9.82741
▁fail	-9.8276
▁battle	-9.82809
▁often	-9.82899
son	-9.82922
▁dirty	-9.83147
▁sigh	-9.83149
▁hat	-9.83291
▁joey	-9.83417
▁bell	-9.83436
▁ugly	-9.83471
▁losing	-9.8348
▁wild	-9.83664
▁cell	-9.8389
▁chocolate	-9.83988
▁involved	-9.84256
▁asleep	-9.84279
▁meat	-9.84292
▁games	-9.84318
▁television	-9.84334
▁shouting	-9.8434
▁consider	-9.8496
▁cheat	-9.84997
▁moon	-9.8501
▁trick	-9.8503
▁folks	-9.85056
▁character	-9.85193
▁deliver	-9.85218
▁favorite	-9.85273
▁hire	-9.85344
▁hadn	-9.85377
▁sugar	-9.85396
▁race	-9.85523
▁drug	-9.85855
▁staying	-9.86073
▁cousin	-9.86087
ighs	-9.86157
▁er	-9.86173
▁passed	-9.86397
▁orders	-9.86502
▁apart	-9.866
▁usual	-9.86624
4	-9.86656
▁guilty	-9.86698
▁aunt	-9.87088
▁pig	-9.87264
▁24	-9.87317
▁sweetie	-9.87326
▁lots	-9.87396
▁restaurant	-9.87549
▁crash	-9.87634
▁eve	-9.87687
▁bird	-9.87704
▁prince	-9.8771
1	-9.87912
▁east	-9.8793
▁gotten	-9.87947
▁lights	-9.87951
▁leader	-9.87974
▁spot	-9.87974
▁flying	-9.88283
▁pop	-9.88369
▁suddenly	-9.8846
▁13	-9.88483
▁colonel	-9.88645
▁firm	-9.88817
▁el	-9.88973
▁empty	-9.89229
▁government	-9.89362
age	-9.89504
▁selma	-9.89506
▁skin	-9.89517
▁beg	-9.89535
▁faster	-9.89563
▁monster	-9.89752
▁bottle	-9.89885
▁beauty	-9.89908
▁pie	-9.90012
▁male	-9.90069
▁fingers	-9.90112
▁stock	-9.90202
▁piss	-9.90289
▁queen	-9.90295
emergency	-9.90441
side	-9.90573
▁cheering	-9.90652
▁stage	-9.90774
▁breathe	-9.90871
▁dan	-9.90921
▁lift	-9.90936
▁video	-9.91013
▁huge	-9.91177
▁football	-9.91305
▁code	-9.91407
by	-9.91506
x	-9.91525
▁navy	-9.91571
▁thinks	-9.91634
▁kitchen	-9.91738
▁plann	-9.91833
▁breakfast	-9.91872
▁ben	-9.91879
▁lover	-9.91995
8	-9.92037
▁bomb	-9.9212
▁hid	-9.92182
▁track	-9.92206
ation	-9.92231
▁mail	-9.92304
▁defense	-9.9241
▁allow	-9.92632
ful	-9.92716
rcy	-9.92746
g	-9.92861
▁contract	-9.9293
▁friday	-9.92948
▁serve	-9.93072
▁learned	-9.93092
▁weight	-9.93151
▁stolen	-9.93174
▁themselves	-9.9322
▁cake	-9.9327
▁color	-9.93271
▁teeth	-9.93295
▁incredibl	-9.93315
▁balls	-9.93426
▁energy	-9.93561
▁local	-9.93622
▁annie	-9.93673
▁suggest	-9.93683
▁base	-9.93686
▁market	-9.93708
▁herself	-9.94167
▁sword	-9.94169
▁operation	-9.94172
dancing	-9.94202
▁main	-9.9449
▁beginning	-9.94584
▁jersey	-9.94866
men	-9.94869
▁common	-9.94885
▁checked	-9.94906
stairs	-9.94909
▁shooting	-9.95104
▁gas	-9.95111
▁excited	-9.95128
▁otherwise	-9.95208
▁princess	-9.95375
▁draw	-9.95398
▁simply	-9.95553
▁nothin	-9.95806
▁cookie	-9.95851
▁bucks	-9.95893
▁director	-9.95909
▁kevin	-9.95971
▁criminal	-9.95978
▁200	-9.9606
▁taught	-9.96107
▁sky	-9.96137
▁arrest	-9.96479
▁yelling	-9.96617
▁spoke	-9.96662
▁bunch	-9.96677
▁load	-9.96716
▁bathroom	-9.96738
3	-9.96843
▁spell	-9.9692
▁crichton	-9.97089
▁jane	-9.97131
▁issue	-9.97143
▁ridiculous	-9.9716
p	-9.97164
▁rose	-9.97401
▁however	-9.97614
▁national	-9.97735
▁above	-9.97872
▁feelings	-9.9795
ism	-9.98004
▁throat	-9.98084
▁beyond	-9.98087
▁danger	-9.98153
▁kelly	-9.98214
▁greatest	-9.98217
▁lieutenant	-9.98224
▁bridge	-9.98226
▁study	-9.98319
ers	-9.98447
▁remind	-9.98658
▁innocent	-9.98658
▁walked	-9.98736
▁allowed	-9.98804
▁bottom	-9.98821
▁depend	-9.98958
▁sold	-9.98977
▁travel	-9.9901
apparently	-9.99092
▁dump	-9.99166
▁prepare	-9.99176
▁famous	-9.99178
▁farm	-9.99235
▁phil	-9.99299
▁pocket	-9.99546
▁further	-9.99588
way	-9.99618
▁saturday	-9.99662
▁locked	-9.99666
▁driver	-9.99669
ley	-9.99674
▁settle	-9.99799
▁wondering	-9.99958
▁itself	-10.0001
▁karen	-10.001
ard	-10.002
▁cigarette	-10.0046
▁ali	-10.0061
▁term	-10.0064
▁buffy	-10.0071
the	-10.0075
▁written	-10.0085
▁apologize	-10.0087
▁loud	-10.01
▁interview	-10.0108
▁united	-10.015
aved	-10.0161
▁johnn	-10.0163
▁practice	-10.0175
ory	-10.0179
▁mike	-10.0188
▁add	-10.0193
▁sweetheart	-10.0193
▁interest	-10.0196
▁chuck	-10.02
town	-10.0211
ng	-10.0248
▁acting	-10.025
▁china	-10.025
pregnant	-10.0252
▁weekend	-10.0253
u	-10.0262
▁powerful	-10.0265
▁played	-10.0266
▁lookin	-10.0271
▁hanging	-10.0273
▁21	-10.028
▁weather	-10.0285
▁writer	-10.0286
▁monsieur	-10.0304
▁rescue	-10.0308
mmediately	-10.0311
▁excellent	-10.0312
▁ones	-10.0313
▁dry	-10.0321
▁build	-10.0335
▁lesson	-10.0336
▁signal	-10.0341
▁super	-10.0358
▁santa	-10.0358
▁cos	-10.036
▁bright	-10.0373
▁saving	-10.0379
▁mars	-10.038
▁whisper	-10.0395
▁cream	-10.0413
▁approach	-10.0418
▁stories	-10.0427
▁smok	-10.0439
▁grunts	-10.0445
▁sergeant	-10.0455
▁missile	-10.0463
▁fan	-10.0469
▁snow	-10.0471
▁grade	-10.0476
▁dressed	-10.0491
▁500	-10.0519
▁ro	-10.0523
▁ruin	-10.0531
▁horribl	-10.0541
▁heat	-10.0545
▁credit	-10.0561
▁creature	-10.0563
▁flowers	-10.0569
▁insane	-10.057
um	-10.0583
▁rings	-10.0589
▁jerk	-10.059
▁mac	-10.06
▁chattering	-10.0614
▁shame	-10.0616
▁eggs	-10.0639
▁engine	-10.0663
c	-10.0666
▁opportunit	-10.0672
▁target	-10.0678
▁shower	-10.0682
▁large	-10.0682
▁talent	-10.0688
▁madame	-10.0713
▁fate	-10.0719
▁le	-10.0732
▁kuzco	-10.0732
ve	-10.0733
▁weak	-10.0737
▁understoo	-10.0744
▁held	-10.0757
▁washing	-10.0759
▁professional	-10.0761
▁zero	-10.0764
▁painting	-10.0767
▁result	-10.0772
▁quarter	-10.0772
▁percent	-10.0772
▁rush	-10.079
▁loose	-10.0816
▁gives	-10.0817
gotten	-10.0841
▁nature	-10.0851
▁seemed	-10.0858
▁happi	-10.086
time	-10.0861
▁damage	-10.0864
cy	-10.0872
▁skip	-10.0876
▁horn	-10.089
▁original	-10.0914
▁biggest	-10.0922
▁season	-10.0934
▁luke	-10.0938
▁release	-10.0949
▁cale	-10.097
▁plus	-10.0986
▁yep	-10.1002
▁nearly	-10.1005
▁project	-10.1008
▁comin	-10.1039
▁suffer	-10.1052
▁purpose	-10.1058
▁turns	-10.1068
▁corner	-10.1069
▁moya	-10.107
▁adam	-10.1075
▁warn	-10.1079
▁due	-10.1097
▁russell	-10.1098
▁whore	-10.11
▁sin	-10.1112
▁bedroom	-10.1115
▁career	-10.1118
▁player	-10.1128
▁prisoner	-10.115
▁nor	-10.1151
▁plate	-10.1177
▁fortune	-10.1191
▁harm	-10.1203
▁shake	-10.1211
▁print	-10.1217
▁butt	-10.1221
▁knife	-10.1221
▁brian	-10.1222
▁swing	-10.1223
w	-10.1236
▁program	-10.1238
▁bite	-10.1245
▁airport	-10.1246
▁recognize	-10.1259
▁repeat	-10.1264
▁truly	-10.1271
▁noise	-10.1277
▁opinion	-10.1278
▁chica	-10.1279
▁fake	-10.1294
▁alarm	-10.1315
▁cheese	-10.1328
▁medical	-10.1339
▁bodie	-10.1341
putting	-10.1342
▁official	-10.1344
▁mountain	-10.135
▁stars	-10.1353
▁scare	-10.1357
▁lonely	-10.1363
▁virgin	-10.1364
el	-10.1375
9	-10.1377
▁rent	-10.1384
▁pikey	-10.1398
▁somehow	-10.1399
▁allen	-10.1402
▁tongue	-10.1411
▁gal	-10.1411
▁egg	-10.1414
▁request	-10.1425
▁dewe	-10.1439
▁surprised	-10.1442
▁conversation	-10.1443
▁hearing	-10.1449
▁rise	-10.1451
▁awful	-10.1466
▁concern	-10.1469
▁talkin	-10.1473
▁whoever	-10.1481
▁lately	-10.1494
▁william	-10.1496
▁na	-10.1497
▁cheap	-10.1513
▁spread	-10.1513
▁belong	-10.1514
▁22	-10.1519
▁merry	-10.1525
▁earlier	-10.1529
▁freedom	-10.1529
▁cards	-10.1533
▁fantastic	-10.1537
▁ls	-10.1539
▁vote	-10.1539
▁carter	-10.1543
ny	-10.1547
▁bike	-10.1558
▁rachel	-10.1563
▁research	-10.1565
▁witness	-10.1574
▁starts	-10.1597
▁onto	-10.1598
me	-10.1599
▁event	-10.1603
▁bori	-10.1604
▁clone	-10.1607
▁built	-10.1614
▁tie	-10.1621
▁alex	-10.1622
▁yu	-10.163
▁fry	-10.1633
▁chip	-10.1665
▁priest	-10.1667
▁discover	-10.1668
▁ifyou	-10.1676
▁dropped	-10.1682
▁nurse	-10.1699
▁cow	-10.1705
▁strength	-10.1707
▁universe	-10.1717
▁bang	-10.1724
▁nation	-10.1731
▁sight	-10.1734
▁following	-10.174
▁path	-10.1762
▁mood	-10.1776
▁turning	-10.1786
▁gang	-10.179
▁according	-10.1793
▁threw	-10.1803
▁usuall	-10.1807
▁helping	-10.1808
▁discuss	-10.1827
▁finger	-10.1839
▁lf	-10.1846
▁stink	-10.1848
▁yell	-10.1858
▁square	-10.1868
▁nail	-10.1869
▁bringing	-10.1878
▁total	-10.1889
▁responsible	-10.1917
▁particular	-10.1934
▁gate	-10.1939
▁aye	-10.1939
▁center	-10.1949
▁ross	-10.1949
fbi	-10.1959
▁grown	-10.1959
▁style	-10.1961
▁josh	-10.197
▁poison	-10.1978
▁department	-10.1979
▁health	-10.1979
▁showed	-10.1979
▁arrived	-10.1986
▁brave	-10.1987
▁among	-10.1991
zzy	-10.1995
la	-10.1995
▁storm	-10.2002
▁fucker	-10.2005
▁hall	-10.2014
▁guns	-10.2014
▁toilet	-10.2022
▁senator	-10.2032
▁trial	-10.2033
▁keeps	-10.2034
▁demon	-10.205
▁rough	-10.2068
▁whom	-10.2084
▁divorce	-10.209
▁kinda	-10.2103
▁dentist	-10.2103
▁indistinct	-10.2105
▁genius	-10.2112
▁tiny	-10.2114
▁roof	-10.2118
▁shock	-10.2122
▁dean	-10.2123
▁thirty	-10.213
▁responsibilit	-10.2148
▁headed	-10.2152
▁funeral	-10.2157
▁agreed	-10.2158
▁dust	-10.2169
▁lee	-10.218
work	-10.2198
▁view	-10.2211
▁loser	-10.2219
▁teddy	-10.222
▁expensive	-10.2221
plenty	-10.2225
▁prepared	-10.2227
▁although	-10.2229
▁jones	-10.2232
▁hook	-10.2232
▁spare	-10.2236
▁stomach	-10.2238
lept	-10.2239
▁heads	-10.2245
▁jealous	-10.2249
b	-10.225
▁process	-10.226
ozz	-10.2263
▁marcus	-10.2275
▁shift	-10.2276
▁disgusting	-10.2294
▁jo	-10.2297
▁aware	-10.2298
just	-10.2319
secretary	-10.232
▁france	-10.2322
▁map	-10.2324
▁chuckl	-10.2333
▁cheers	-10.2339
▁several	-10.2339
▁tank	-10.2352
▁anna	-10.2355
▁mirror	-10.2366
▁lies	-10.2373
▁aw	-10.238
▁split	-10.2392
▁regret	-10.2393
▁pool	-10.24
▁older	-10.2415
et	-10.2421
▁freeze	-10.2439
▁artist	-10.2452
rene	-10.2455
▁hoping	-10.246
▁hm	-10.2465
▁seek	-10.2473
▁brilliant	-10.2477
▁aeryn	-10.2477
▁penny	-10.2485
▁somethin	-10.2485
▁comfortabl	-10.2485
▁enter	-10.2487
▁climb	-10.2493
▁sexual	-10.2495
▁sneak	-10.2503
▁brown	-10.2509
▁desire	-10.2527
▁titan	-10.2536
▁speech	-10.2538
▁jinx	-10.2543
▁celebrate	-10.2562
▁direction	-10.2563
▁vision	-10.2572
▁grandpa	-10.258
▁language	-10.258
ish	-10.2601
▁lab	-10.2602
▁pills	-10.2604
▁expert	-10.2608
▁introduce	-10.261
▁advance	-10.2627
▁cheer	-10.2628
▁jacket	-10.2641
▁customer	-10.2646
▁memori	-10.2653
▁familiar	-10.2658
▁example	-10.2665
▁doc	-10.2668
▁pizza	-10.2668
▁affair	-10.2674
▁linda	-10.2688
▁scary	-10.2692
▁squeak	-10.2694
▁fourth	-10.2697
ia	-10.2706
▁flesh	-10.2713
▁romantic	-10.2713
▁soviet	-10.2722
▁meal	-10.2722
▁rat	-10.2726
▁destin	-10.2731
▁mo	-10.2739
▁tooth	-10.2741
▁tigger	-10.2744
▁possibly	-10.275
▁opening	-10.2759
▁insurance	-10.276
▁cough	-10.2771
▁shoulder	-10.2774
▁ofthe	-10.2782
▁pre	-10.2793
▁photograph	-10.2798
▁bread	-10.28
▁shape	-10.2804
▁eddie	-10.2808
▁hut	-10.2821
▁wet	-10.2825
▁unfortunate	-10.2827
▁sacrifice	-10.2828
▁lenn	-10.2832
▁post	-10.2838
▁female	-10.2856
▁military	-10.2856
▁actor	-10.2884
▁pump	-10.2886
ta	-10.2888
▁indeed	-10.2905
▁paying	-10.2914
▁martin	-10.2929
▁tip	-10.2931
▁focus	-10.2934
▁swim	-10.2942
▁natali	-10.2948
▁xen	-10.2954
▁garden	-10.2954
▁senior	-10.2963
ford	-10.2966
▁murdered	-10.2977
▁neighbor	-10.2982
▁knee	-10.299
▁design	-10.3001
▁gettin	-10.3008
▁screwed	-10.301
▁magazine	-10.3012
00	-10.3016
▁necessary	-10.3022
▁diamond	-10.3022
▁physical	-10.3036
▁century	-10.3042
board	-10.3045
▁steve	-10.3048
▁sheriff	-10.3052
▁manager	-10.3054
▁ear	-10.3056
▁switch	-10.3058
nvited	-10.3061
▁california	-10.3081
▁abandon	-10.31
▁breaking	-10.3105
▁loss	-10.312
hopping	-10.3127
▁willing	-10.3128
▁skull	-10.3131
▁stranger	-10.3132
▁shadow	-10.314
farb	-10.3151
▁effect	-10.3181
▁proper	-10.3181
▁honour	-10.3182
▁suicide	-10.3184
▁pot	-10.3185
▁tit	-10.3199
▁elizabeth	-10.32
▁meaning	-10.3208
▁italian	-10.3225
▁model	-10.3227
▁pure	-10.3227
▁suh	-10.3228
▁holiday	-10.323
▁grew	-10.3241
▁majest	-10.3273
▁training	-10.3273
▁st	-10.3278
ett	-10.3279
▁bow	-10.3279
▁slave	-10.3283
▁larr	-10.3285
▁hill	-10.3289
▁afford	-10.3302
▁shows	-10.3307
▁waited	-10.3311
▁higher	-10.3311
▁desert	-10.3321
▁buried	-10.3321
▁degree	-10.3322
▁wheel	-10.3337
▁tripp	-10.3338
▁pair	-10.3342
▁golf	-10.3343
▁range	-10.3378
coming	-10.3379
▁witch	-10.3384
▁expecting	-10.3388
▁fifty	-10.3392
ville	-10.3392
▁brick	-10.3394
▁crush	-10.3399
▁charles	-10.3403
▁clue	-10.3404
▁ghost	-10.341
▁cunt	-10.3412
▁ginger	-10.3412
▁paint	-10.3414
▁drove	-10.3423
▁rope	-10.3423
▁permissio	-10.3433
▁license	-10.3434
▁23	-10.3445
▁respond	-10.3447
▁yellow	-10.3453
erry	-10.3454
▁bleeding	-10.3457
▁elliot	-10.3464
▁anti	-10.3469
▁spring	-10.3474
▁subject	-10.3474
▁prefer	-10.3488
▁babe	-10.3507
▁picking	-10.3529
▁social	-10.3534
▁wing	-10.3538
▁wise	-10.3549
▁fredd	-10.3551
▁chris	-10.3556
▁dig	-10.3567
▁ought	-10.3574
▁pam	-10.3575
▁lou	-10.3577
▁momma	-10.3578
▁whenever	-10.359
▁medicine	-10.3598
▁pen	-10.3607
▁miracle	-10.3608
▁names	-10.3619
▁recover	-10.363
▁lower	-10.3631
▁rare	-10.3634
▁mister	-10.3636
▁refuse	-10.3644
▁coin	-10.3646
▁routine	-10.3661
▁pounds	-10.3669
▁legal	-10.3674
▁bookie	-10.3679
▁investigation	-10.3685
▁success	-10.3689
▁avoid	-10.37
▁desk	-10.3702
▁access	-10.3706
▁grave	-10.3723
▁nightmare	-10.3723
▁jas	-10.373
▁plays	-10.3733
▁ears	-10.3735
▁candy	-10.3735
▁snake	-10.3746
▁favour	-10.3755
▁gorge	-10.3767
▁ill	-10.3778
▁claim	-10.3778
▁stayed	-10.3782
▁march	-10.379
▁assume	-10.379
▁easier	-10.3797
▁prayer	-10.3805
▁blew	-10.3818
▁skinn	-10.3826
▁kenny	-10.3841
▁amen	-10.3844
▁warning	-10.3847
▁bath	-10.3847
▁jeez	-10.385
▁zhaan	-10.385
▁rub	-10.3851
▁swallow	-10.3862
▁justice	-10.3865
no	-10.3871
▁lines	-10.3871
▁silence	-10.3872
▁pardon	-10.3873
▁robber	-10.3881
▁sharp	-10.3884
▁barely	-10.3889
▁skill	-10.3904
▁collect	-10.3912
▁45	-10.392
hood	-10.3925
▁screen	-10.3927
▁rabbit	-10.3928
▁alan	-10.3949
▁personally	-10.3956
▁dat	-10.3961
▁whistle	-10.3963
▁soup	-10.3966
▁thursday	-10.3968
▁handsome	-10.397
▁mulder	-10.3979
▁ocean	-10.3993
▁heh	-10.3997
▁caesar	-10.4001
▁35	-10.4001
▁fi	-10.4002
place	-10.401
house	-10.401
▁monday	-10.4012
▁slowly	-10.4018
▁sexy	-10.402
▁sudden	-10.4021
▁assistant	-10.4023
▁value	-10.403
▁creep	-10.4036
▁thin	-10.4046
▁sending	-10.4046
▁safet	-10.4057
▁per	-10.4068
▁numbers	-10.4073
▁image	-10.4077
▁regular	-10.4083
▁bark	-10.4085
▁ancient	-10.4088
▁positive	-10.4088
▁sentence	-10.4093
▁signed	-10.4096
▁rolling	-10.4109
▁advice	-10.411
▁option	-10.411
lena	-10.4118
▁th	-10.412
▁science	-10.4121
▁university	-10.4123
ally	-10.4129
▁jam	-10.4129
▁clever	-10.4133
▁stan	-10.4136
▁doors	-10.4138
▁covered	-10.4139
▁punish	-10.4144
▁luc	-10.4157
▁unbelievabl	-10.4164
water	-10.4165
▁argo	-10.4166
▁england	-10.4176
▁gene	-10.4182
alone	-10.419
▁grinch	-10.4193
▁deck	-10.4201
▁proof	-10.4201
your	-10.4205
▁pro	-10.4208
▁sweat	-10.4212
▁birth	-10.4216
ah	-10.4243
▁hunt	-10.4247
▁sidney	-10.4254
▁awake	-10.4254
▁excit	-10.4255
▁flash	-10.4258
▁cast	-10.4267
▁mu	-10.4268
▁confuse	-10.4276
▁shine	-10.4286
▁fed	-10.4295
ive	-10.4296
▁edge	-10.43
▁appointment	-10.4309
▁societ	-10.4309
▁kronk	-10.432
▁cap	-10.4324
▁retire	-10.4336
eries	-10.4339
▁wh	-10.4343
▁pissed	-10.4343
▁ate	-10.4345
▁48	-10.436
▁bate	-10.4362
▁statement	-10.4381
▁towards	-10.4383
monica	-10.4387
▁dealing	-10.4389
▁tyro	-10.4392
▁ln	-10.4393
▁attitude	-10.4394
▁alien	-10.4399
▁pour	-10.4399
▁easily	-10.441
▁tear	-10.4413
▁chest	-10.4417
▁threat	-10.4419
▁debt	-10.4426
▁thoughts	-10.4428
▁diver	-10.4431
▁chandler	-10.4432
▁toast	-10.4434
▁28	-10.4444
▁sally	-10.4451
▁downstairs	-10.4455
▁tour	-10.4456
▁belt	-10.4461
▁pussy	-10.4464
▁bay	-10.4477
▁gerry	-10.4479
▁kip	-10.448
▁wave	-10.4484
▁ends	-10.4489
▁note	-10.4489
▁vacation	-10.45
▁political	-10.4502
z	-10.4511
▁nerve	-10.4513
ar	-10.4518
▁row	-10.452
▁concerned	-10.452
▁touched	-10.4529
▁heading	-10.4538
▁moan	-10.4542
▁negative	-10.4547
▁coat	-10.455
▁blast	-10.4553
junuh	-10.4556
▁fellow	-10.456
▁technolog	-10.456
▁roy	-10.4562
▁perform	-10.4563
▁doug	-10.4563
▁di	-10.4564
▁sid	-10.4566
▁tone	-10.4567
▁cather	-10.4588
▁bust	-10.4591
laid	-10.4592
▁guest	-10.4594
▁uniform	-10.4604
▁secure	-10.4605
▁susan	-10.4624
▁obvious	-10.4626
▁eagle	-10.4626
▁richard	-10.4627
▁dive	-10.4633
▁tail	-10.4635
▁fuel	-10.4638
▁cares	-10.4644
▁staff	-10.4648
ey	-10.4692
▁monkey	-10.4693
▁invite	-10.4704
▁jerry	-10.4704
▁challenge	-10.4715
▁trash	-10.4719
▁tradition	-10.4726
▁pleased	-10.4749
▁letters	-10.4752
▁ruined	-10.4756
▁earn	-10.4761
▁sat	-10.4762
▁competition	-10.4766
▁pathetic	-10.4766
▁seal	-10.4776
▁sooner	-10.4776
▁coke	-10.4778
▁bone	-10.4783
and	-10.4788
▁lips	-10.4791
▁punch	-10.4803
▁schedule	-10.4805
▁arrested	-10.4809
▁healthy	-10.4818
▁treasure	-10.4819
▁papa	-10.4819
▁realized	-10.482
▁roger	-10.4848
▁jake	-10.4848
▁crown	-10.485
▁delmar	-10.4883
▁palace	-10.4884
▁bro	-10.489
▁forty	-10.4892
▁audience	-10.4892
▁circle	-10.4895
▁trigger	-10.4895
▁julia	-10.4897
▁sub	-10.4898
▁manage	-10.49
▁object	-10.4906
▁mayor	-10.4909
▁ra	-10.4909
▁horses	-10.4909
▁separate	-10.4931
▁caravan	-10.4931
▁tall	-10.4937
▁based	-10.4944
▁telephone	-10.4944
▁eun	-10.4952
▁knowledge	-10.4954
▁amount	-10.4959
▁attempt	-10.496
▁raised	-10.4966
▁joking	-10.4967
▁manner	-10.4973
▁illegal	-10.4978
▁received	-10.4988
▁memph	-10.4992
▁clearly	-10.5
▁syd	-10.5009
▁aim	-10.502
as	-10.5036
▁fighter	-10.5036
▁ahh	-10.5037
▁taxi	-10.5038
▁cancel	-10.5043
▁cure	-10.5049
▁courage	-10.5049
▁doll	-10.5051
▁drag	-10.5052
▁gimme	-10.5062
▁gentleman	-10.5064
▁slip	-10.507
▁ch	-10.5077
▁grad	-10.5085
▁pigs	-10.5087
▁chian	-10.509
▁glor	-10.5094
▁birds	-10.5095
▁dawn	-10.5111
complicated	-10.5114
▁chow	-10.5136
▁narrat	-10.5144
▁fancy	-10.5148
▁fred	-10.5161
▁32	-10.5173
▁bowl	-10.5174
▁chester	-10.5175
▁unusual	-10.5183
▁surface	-10.5188
▁resist	-10.5196
▁smooth	-10.5196
▁castle	-10.5199
▁rip	-10.5218
▁russ	-10.5223
▁pound	-10.5234
▁below	-10.5238
▁finding	-10.5244
▁develop	-10.5244
▁hung	-10.5245
▁click	-10.5245
▁80	-10.5249
▁avi	-10.5251
▁madam	-10.5253
▁popular	-10.5257
▁distance	-10.5258
▁edward	-10.5258
▁script	-10.5259
▁photo	-10.5259
▁role	-10.5261
▁followed	-10.5264
▁borrow	-10.527
pe	-10.5271
▁babie	-10.5283
▁oil	-10.5284
▁fox	-10.5294
om	-10.5306
▁agreement	-10.5308
▁protection	-10.5309
▁300	-10.5311
▁murderer	-10.5316
▁inspector	-10.5332
▁walter	-10.5332
▁indian	-10.535
▁thy	-10.5359
▁generation	-10.5362
▁reward	-10.5369
▁forced	-10.537
▁pink	-10.5377
▁bless	-10.538
▁donna	-10.538
▁guarantee	-10.5381
▁stood	-10.5394
▁atmosphere	-10.5395
▁trace	-10.5409
▁tuesday	-10.543
▁marion	-10.5435
▁brand	-10.5436
▁nonsens	-10.5446
▁jesse	-10.5446
▁forces	-10.5448
▁cod	-10.5455
▁junior	-10.5456
▁propert	-10.5469
▁chain	-10.5492
▁odd	-10.5496
▁goal	-10.5499
▁concentrate	-10.5503
rselves	-10.5511
▁burning	-10.5515
▁screech	-10.5518
▁crab	-10.5525
▁roman	-10.5531
▁hart	-10.5539
▁cancer	-10.5548
▁giant	-10.5556
▁maria	-10.557
▁prize	-10.5582
▁alert	-10.5582
▁kong	-10.5584
▁wolf	-10.5586
▁demand	-10.5589
te	-10.5592
▁flower	-10.5594
▁hon	-10.5597
▁remove	-10.5605
▁sebastian	-10.5607
▁solve	-10.5611
▁ne	-10.5617
▁loving	-10.5621
▁saint	-10.563
▁polic	-10.564
▁grass	-10.564
▁embarrass	-10.5641
▁brains	-10.5645
▁hop	-10.5651
▁fashion	-10.5659
▁pulse	-10.5664
▁link	-10.5664
▁sensitive	-10.5665
▁mass	-10.567
▁betray	-10.5672
▁nasty	-10.5684
▁defend	-10.5699
▁kicked	-10.5716
▁replace	-10.5734
▁governor	-10.5735
▁lack	-10.5736
▁badly	-10.5744
▁gale	-10.5748
▁technical	-10.575
▁owner	-10.5752
laughter	-10.5754
▁31	-10.5762
▁sherman	-10.5763
▁scull	-10.5763
ted	-10.5767
▁flow	-10.577
▁gee	-10.5773
▁ouch	-10.5774
▁bride	-10.5774
well	-10.5775
▁younger	-10.5782
▁confess	-10.5789
▁launch	-10.579
▁caused	-10.5792
▁lane	-10.5803
▁hearts	-10.5809
▁doctors	-10.581
▁cab	-10.5811
▁liar	-10.5812
▁pee	-10.5817
▁attorney	-10.5825
▁bo	-10.5829
▁mi	-10.5831
▁ways	-10.5832
▁cuba	-10.5832
▁44	-10.5839
▁boring	-10.5844
▁cruel	-10.5847
▁moron	-10.5848
▁member	-10.5853
▁joint	-10.586
▁solution	-10.5866
▁chi	-10.5868
▁period	-10.5873
▁vampire	-10.5877
▁midnight	-10.5877
▁violet	-10.5878
▁site	-10.5879
aggie	-10.588
▁bump	-10.589
▁defeat	-10.5891
▁golden	-10.5899
▁twin	-10.5903
▁dragon	-10.5909
do	-10.5913
▁robot	-10.593
▁advantage	-10.593
▁ships	-10.5937
▁aya	-10.5938
▁device	-10.5943
▁basically	-10.5943
▁winning	-10.5947
ll	-10.5949
▁ashame	-10.595
▁prick	-10.5958
▁affect	-10.5963
▁incident	-10.5973
▁interrupt	-10.5983
▁fought	-10.5983
▁malcolm	-10.5995
▁circumstance	-10.5996
▁temple	-10.5997
▁coward	-10.5997
▁direct	-10.6
▁nah	-10.6001
▁studio	-10.6007
▁beating	-10.6008
▁dirt	-10.6008
▁shout	-10.6014
▁torture	-10.6014
dick	-10.6018
▁disease	-10.6022
▁eaten	-10.6024
▁twist	-10.6026
▁sand	-10.6045
▁pace	-10.6049
▁squad	-10.6052
▁louis	-10.6057
▁decent	-10.6066
ball	-10.6069
▁aid	-10.6073
▁drown	-10.6075
▁alice	-10.6077
▁mill	-10.6079
▁letting	-10.6085
▁bugs	-10.6089
▁unlike	-10.609
sh	-10.609
▁belongs	-10.609
▁ko	-10.6092
▁librar	-10.6093
▁leo	-10.6097
▁slut	-10.61
▁twelve	-10.6102
▁randall	-10.6115
▁woke	-10.612
▁buzz	-10.6137
that	-10.6148
▁connection	-10.6156
▁exercise	-10.6167
▁including	-10.6169
▁reservation	-10.6169
▁stress	-10.6171
▁mental	-10.6174
▁material	-10.6175
▁pity	-10.6179
eventually	-10.6179
down	-10.6183
▁moral	-10.6184
▁package	-10.6201
▁lindsa	-10.6204
ling	-10.6208
▁becomes	-10.6215
▁flat	-10.6227
▁community	-10.6239
▁vian	-10.6246
▁jewish	-10.6251
▁boom	-10.6251
▁revenge	-10.6264
▁33	-10.6265
▁hug	-10.6267
▁limit	-10.6276
▁carrying	-10.6283
▁represent	-10.6292
▁janni	-10.6305
my	-10.6316
▁tires	-10.632
▁hong	-10.6321
▁iron	-10.6341
▁friendship	-10.6343
▁phoeb	-10.6359
▁dozen	-10.6361
▁showing	-10.6385
▁connor	-10.6387
▁29	-10.6395
▁yard	-10.6397
▁silent	-10.64
▁current	-10.64
▁wherever	-10.6418
▁wide	-10.6421
▁changing	-10.6426
▁engaged	-10.6436
▁fairy	-10.6437
▁mentioned	-10.6438
▁complain	-10.6449
▁hail	-10.6452
▁chick	-10.6453
▁details	-10.6463
▁woods	-10.6467
▁champagne	-10.6469
▁spy	-10.6476
▁impressive	-10.6486
▁maid	-10.6497
▁insist	-10.6499
▁90	-10.65
▁ba	-10.6507
▁runs	-10.6512
▁darkness	-10.6518
▁34	-10.6529
▁marquis	-10.6541
▁scar	-10.6544
▁grandfather	-10.6553
▁punk	-10.6554
▁ja	-10.6556
▁coast	-10.6557
rice	-10.6557
▁simon	-10.6561
▁transfer	-10.6566
▁raymond	-10.6567
▁murph	-10.6567
▁extremely	-10.6572
▁pulling	-10.6577
▁marty	-10.6581
▁engineer	-10.6581
▁forest	-10.6593
▁equal	-10.6596
▁spit	-10.6598
▁host	-10.6599
▁sniff	-10.6603
▁thunder	-10.6609
▁ken	-10.6623
▁treatment	-10.6625
▁bury	-10.6629
▁thief	-10.6637
▁fruit	-10.6638
▁bing	-10.6646
▁passing	-10.6647
▁cock	-10.6649
▁blessed	-10.6654
ada	-10.6658
▁rude	-10.6663
▁honk	-10.671
bility	-10.6718
▁recall	-10.6719
▁angels	-10.6725
▁charm	-10.6728
▁wire	-10.6736
▁gracie	-10.6738
▁oz	-10.6756
▁lads	-10.6757
▁shin	-10.6758
▁knocking	-10.676
▁chop	-10.6761
▁transport	-10.6763
▁uhh	-10.6766
▁marshall	-10.6766
▁members	-10.6767
▁root	-10.6773
▁diet	-10.6779
▁poem	-10.678
▁toros	-10.6786
▁metal	-10.6796
▁led	-10.6801
▁hunter	-10.6808
▁channel	-10.681
▁impress	-10.6811
▁describe	-10.6812
▁pitch	-10.6816
▁commod	-10.6822
▁sunshine	-10.6823
ger	-10.6834
▁throwing	-10.6835
▁rate	-10.6835
elling	-10.6844
▁boo	-10.6846
▁reputation	-10.6851
▁sunny	-10.6852
▁instinct	-10.6854
refore	-10.686
▁stake	-10.6861
▁council	-10.6864
▁growl	-10.6865
▁possibilit	-10.6867
▁gifts	-10.6874
▁vessel	-10.6879
▁siren	-10.6883
▁dave	-10.6883
▁heal	-10.6885
▁winter	-10.6895
▁chosen	-10.6898
▁plain	-10.6909
▁lake	-10.6918
ner	-10.6919
seriously	-10.6919
▁precious	-10.6923
▁ignore	-10.6936
▁tyler	-10.6938
io	-10.694
▁bones	-10.6942
▁sometime	-10.6942
▁rev	-10.6952
▁activit	-10.6952
▁blowing	-10.6956
▁lo	-10.696
▁bored	-10.6961
▁reached	-10.6966
▁otto	-10.6972
▁provide	-10.6975
▁silver	-10.6982
▁con	-10.6982
▁panic	-10.6983
▁served	-10.6995
▁adult	-10.6995
▁leonard	-10.6998
▁bags	-10.7005
▁museum	-10.701
▁min	-10.7012
▁z	-10.7016
▁lion	-10.7016
▁alcohol	-10.7024
▁pipe	-10.7026
ha	-10.7027
▁rick	-10.703
▁rocky	-10.7031
▁thick	-10.7037
▁underwear	-10.704
▁anger	-10.7046
▁progress	-10.7053
▁culture	-10.7057
▁shoe	-10.7067
▁performance	-10.707
▁deny	-10.7072
▁net	-10.7077
▁bound	-10.7079
▁steady	-10.7087
▁guests	-10.7096
▁neighborhood	-10.7099
▁someday	-10.7105
▁falco	-10.7106
▁rhode	-10.7118
▁mixed	-10.712
▁emotion	-10.713
▁movement	-10.7143
▁union	-10.715
▁comfort	-10.7152
▁boost	-10.7162
▁personalit	-10.7171
▁caroline	-10.7174
▁aside	-10.7177
▁burned	-10.7179
▁exact	-10.7191
ship	-10.7192
▁spending	-10.7193
▁mountains	-10.7195
▁su	-10.7201
▁signs	-10.7204
▁factor	-10.7204
▁damned	-10.7211
▁faggot	-10.7225
▁grateful	-10.723
▁florida	-10.7232
▁denny	-10.7235
▁dough	-10.7243
▁kathy	-10.7259
▁sale	-10.7272
▁comte	-10.7277
▁kingdom	-10.7278
▁bud	-10.7297
▁crawl	-10.7307
▁grandmother	-10.7307
▁thankyou	-10.7335
▁po	-10.7336
▁seats	-10.7339
▁producer	-10.734
▁gain	-10.7341
anouk	-10.7353
▁05	-10.7385
kyle	-10.7392
▁gosh	-10.7405
rmed	-10.7409
▁corpse	-10.7411
alyn	-10.7414
▁location	-10.7415
▁product	-10.7415
▁button	-10.7417
▁meter	-10.7419
▁brake	-10.7423
▁pattern	-10.7429
▁regard	-10.743
▁guards	-10.7431
▁buck	-10.7432
▁alpha	-10.7439
▁arrive	-10.7441
▁photos	-10.7441
ck	-10.7448
▁miller	-10.745
▁malen	-10.7451
▁legend	-10.7459
▁smith	-10.7462
▁sports	-10.7465
▁suffering	-10.7469
up	-10.7474
▁shield	-10.7474
▁motion	-10.7475
▁blade	-10.7476
ality	-10.7481
▁exchange	-10.7482
▁curious	-10.749
▁closing	-10.7492
▁tiger	-10.7497
▁walls	-10.7501
▁sol	-10.7505
ian	-10.7512
▁rile	-10.7512
▁spin	-10.7513
▁curse	-10.7523
▁chat	-10.7526
▁kitt	-10.7533
▁400	-10.7535
▁standard	-10.7538
▁disappointed	-10.7539
▁presenc	-10.754
▁teal	-10.7542
▁anytime	-10.7553
▁sandwich	-10.7556
▁notes	-10.7559
▁whit	-10.7563
poken	-10.7564
▁experiment	-10.7565
▁highness	-10.7569
ence	-10.757
▁tied	-10.7578
▁chase	-10.7581
▁garbage	-10.7582
▁cleaning	-10.7585
▁empire	-10.7598
▁kate	-10.7602
▁tunnel	-10.7613
▁attend	-10.7617
▁data	-10.7626
▁stab	-10.7627
▁lifetime	-10.7633
▁thinkin	-10.7636
▁sue	-10.765
▁royal	-10.7665
▁europe	-10.7674
▁lily	-10.7686
▁habit	-10.7703
▁tryin	-10.7704
▁tattoo	-10.7707
▁species	-10.7708
ember	-10.771
▁rud	-10.771
▁violence	-10.7723
▁float	-10.7724
▁eleven	-10.7726
▁foreign	-10.7732
ler	-10.7734
▁route	-10.7735
▁guide	-10.7737
▁fir	-10.7738
▁outfit	-10.7741
▁chill	-10.7741
▁central	-10.7754
▁cowboy	-10.7755
▁exit	-10.7756
▁49	-10.7758
▁port	-10.776
▁val	-10.7767
▁stopping	-10.7771
wood	-10.7775
▁novel	-10.7779
ily	-10.7779
▁spoil	-10.7782
▁mystery	-10.7786
▁kissing	-10.7792
▁rocks	-10.7794
▁tube	-10.7801
▁leak	-10.7811
ast	-10.7813
▁trap	-10.7815
▁wayne	-10.7817
▁hollywood	-10.7817
▁applause	-10.7834
▁tears	-10.7847
▁widow	-10.7849
▁procedure	-10.7849
▁emotional	-10.7864
▁crossed	-10.7865
▁behave	-10.7866
oise	-10.7867
▁humans	-10.7868
▁trapped	-10.7871
hem	-10.7879
▁iike	-10.7895
▁billion	-10.7902
▁tale	-10.7903
▁beast	-10.7904
▁africa	-10.7909
▁relative	-10.7921
more	-10.7923
▁journey	-10.793
▁plastic	-10.7945
▁lisa	-10.7948
▁loan	-10.7954
▁mostly	-10.7954
▁demons	-10.7963
▁slight	-10.7966
▁border	-10.798
gher	-10.7988
like	-10.7993
▁delicious	-10.7993
▁baker	-10.7993
rucker	-10.7998
▁mix	-10.8001
▁cheung	-10.801
▁turkey	-10.8013
▁pappy	-10.8027
ko	-10.8027
▁cheerleader	-10.8033
▁sadako	-10.8042
▁continuum	-10.8042
▁bat	-10.8045
▁mile	-10.8051
▁flag	-10.8053
▁response	-10.8058
▁colour	-10.8059
tty	-10.8061
▁dancer	-10.8068
▁warrant	-10.8075
▁mid	-10.8089
▁potato	-10.8091
committed	-10.8093
▁streets	-10.8095
▁thrill	-10.8095
▁chicks	-10.8095
▁solid	-10.8097
▁reckon	-10.8107
▁embarrassing	-10.8107
▁mask	-10.8115
▁motor	-10.8116
▁escaped	-10.8127
ummy	-10.8135
▁commercial	-10.814
▁gyps	-10.8142
▁measure	-10.8145
rold	-10.8146
▁dies	-10.8152
▁butter	-10.8159
line	-10.8163
▁minister	-10.8166
recently	-10.8183
▁effort	-10.8189
▁carried	-10.819
▁awesom	-10.8191
▁llama	-10.8193
▁average	-10.8195
rnon	-10.8197
▁42	-10.8204
▁falls	-10.8216
ist	-10.8218
▁constant	-10.8233
▁filth	-10.8239
▁pride	-10.8239
▁albin	-10.8239
▁players	-10.8247
▁aii	-10.8249
▁cave	-10.8249
▁strip	-10.8251
▁opens	-10.8252
▁madeleine	-10.8255
▁beloved	-10.8255
▁warrior	-10.8257
field	-10.8259
▁cliff	-10.8269
▁deaf	-10.827
transfunctioner	-10.8272
▁orange	-10.8273
▁attractive	-10.8277
▁insult	-10.8284
▁behavior	-10.8288
▁influence	-10.8295
▁ambassador	-10.8305
neill	-10.8321
▁intend	-10.8345
▁q	-10.8349
we	-10.835
▁opera	-10.835
▁matthew	-10.8355
▁towel	-10.8355
▁cart	-10.8363
▁false	-10.8372
▁argument	-10.8373
▁traffic	-10.8377
▁dial	-10.8379
▁hous	-10.8385
▁dealer	-10.8389
▁bets	-10.8389
enate	-10.8396
▁campaign	-10.8405
▁christian	-10.841
▁highway	-10.8412
▁cells	-10.8414
▁patch	-10.8415
▁afterward	-10.8415
▁pierce	-10.8423
▁scott	-10.8424
▁former	-10.8425
▁learning	-10.8428
▁frame	-10.8428
our	-10.8432
▁explosion	-10.8439
▁cotton	-10.8441
▁title	-10.8441
▁subtitles	-10.8443
▁vice	-10.8444
▁fans	-10.8445
▁wipe	-10.8448
▁jobs	-10.8451
▁worker	-10.8455
▁sail	-10.8456
▁reaction	-10.8459
neath	-10.8461
▁broad	-10.8471
▁blah	-10.8473
▁successful	-10.8476
▁confession	-10.8487
▁lil	-10.8487
▁catholic	-10.849
▁pa	-10.8491
▁broker	-10.8491
da	-10.8493
▁brief	-10.8504
▁prom	-10.851
▁transferr	-10.8516
▁voyage	-10.8524
▁gates	-10.8527
▁chlo	-10.853
▁ca	-10.853
▁lung	-10.8543
▁bull	-10.8548
▁est	-10.8554
▁bug	-10.8555
▁backward	-10.8562
am	-10.8573
▁rape	-10.8583
▁julie	-10.8592
▁eleanor	-10.8592
▁marie	-10.8604
▁hitting	-10.8608
▁exam	-10.8608
▁album	-10.8609
▁coincidence	-10.8609
▁drej	-10.8609
▁rumor	-10.861
▁ellen	-10.861
▁ambulance	-10.8611
▁boone	-10.8613
▁electric	-10.862
▁joy	-10.862
▁dawson	-10.8626
▁fifteen	-10.8626
▁religion	-10.8626
▁trained	-10.8627
▁harris	-10.863
▁stroke	-10.8633
at	-10.865
▁politics	-10.8658
▁colleague	-10.8661
▁fabulous	-10.8661
▁equipment	-10.8662
▁impression	-10.8666
▁films	-10.8673
▁leading	-10.8679
▁associate	-10.8684
▁salad	-10.8684
▁shell	-10.8692
▁element	-10.8695
ka	-10.8701
▁hip	-10.8703
▁express	-10.8711
▁miserable	-10.8714
▁en	-10.8714
▁rob	-10.8715
▁gail	-10.8722
▁blows	-10.8728
▁farmer	-10.8734
lody	-10.8736
▁sheet	-10.8738
ius	-10.8739
▁areyou	-10.8744
▁guts	-10.8746
▁terrific	-10.875
▁require	-10.875
▁ranger	-10.8752
▁chin	-10.8762
▁scan	-10.8766
ier	-10.8768
▁virus	-10.8769
▁passion	-10.877
▁poetr	-10.8771
▁starv	-10.8773
▁considering	-10.8775
▁faces	-10.8784
▁committee	-10.8784
▁mustn	-10.8786
▁bible	-10.8786
▁terri	-10.8798
▁pageant	-10.8802
▁breasts	-10.8816
▁unknown	-10.8818
▁powers	-10.8826
▁chose	-10.8831
▁campsite	-10.8835
▁production	-10.8837
▁fund	-10.8842
▁tick	-10.8845
▁garage	-10.8853
▁grant	-10.8862
kul	-10.8864
▁gross	-10.8871
▁homicide	-10.8888
▁explanation	-10.8888
▁uld	-10.8897
▁capable	-10.8899
▁foryou	-10.8901
▁matt	-10.8905
▁threaten	-10.8905
▁mist	-10.8907
▁swimming	-10.8923
▁scratch	-10.8925
▁cage	-10.8934
▁08	-10.8936
▁statu	-10.8936
▁remembered	-10.8938
▁clon	-10.8944
▁section	-10.8946
▁non	-10.8949
▁jackson	-10.895
▁tap	-10.8954
▁delivery	-10.8956
▁mysterious	-10.8959
▁task	-10.8975
▁chef	-10.8976
▁education	-10.8986
▁38	-10.8989
▁nuclear	-10.8995
▁hidden	-10.8995
bbing	-10.8997
▁string	-10.9002
ur	-10.9009
zma	-10.9015
▁valley	-10.9016
▁sport	-10.9017
▁symbol	-10.9022
began	-10.9024
▁raine	-10.904
be	-10.9041
▁goa	-10.9043
▁treated	-10.9047
▁maintain	-10.9048
▁newspaper	-10.9048
▁davis	-10.9054
▁volunteer	-10.9066
▁moments	-10.9069
herry	-10.907
▁nut	-10.9081
▁cum	-10.9093
▁touching	-10.9094
exico	-10.9095
lipped	-10.9096
▁studie	-10.9104
▁ordinary	-10.912
▁proceed	-10.912
▁satan	-10.9124
uana	-10.9129
▁citizen	-10.9132
▁charming	-10.9134
back	-10.9134
▁apple	-10.9135
▁oxygen	-10.9139
▁hans	-10.9156
▁servant	-10.9157
▁lousy	-10.9157
ber	-10.9159
▁receive	-10.9164
▁tu	-10.9196
▁raped	-10.9202
▁donny	-10.922
▁flip	-10.9223
▁gar	-10.9228
▁counter	-10.9228
▁concert	-10.9229
▁offense	-10.9229
▁sample	-10.9229
▁shark	-10.923
▁carrie	-10.9234
▁faint	-10.9235
▁whale	-10.924
▁visual	-10.9242
▁wednesday	-10.9247
light	-10.9249
▁actress	-10.9266
▁failure	-10.9266
▁guru	-10.9267
▁chamber	-10.9269
▁offering	-10.9272
▁penis	-10.9275
arla	-10.9279
▁argue	-10.9282
▁akima	-10.9284
▁wreck	-10.9295
▁millions	-10.9298
▁elevator	-10.9302
▁dope	-10.9316
▁directly	-10.932
▁apply	-10.9321
lyn	-10.9331
▁normally	-10.9336
▁article	-10.9339
▁authorit	-10.9339
▁commit	-10.934
▁couch	-10.9358
▁diving	-10.9361
▁yang	-10.9367
▁kidnappe	-10.9375
▁circus	-10.9376
ware	-10.9381
▁piano	-10.9395
▁fifth	-10.9395
▁painted	-10.9397
▁fence	-10.9409
▁bos	-10.9434
▁steven	-10.9447
▁guitar	-10.945
▁focker	-10.945
taly	-10.9452
il	-10.9453
▁shrink	-10.9469
▁modern	-10.947
▁remote	-10.9493
▁psycho	-10.9494
▁beth	-10.9505
▁maya	-10.9508
▁studying	-10.9517
▁pile	-10.9518
▁duck	-10.9518
▁jenn	-10.9521
▁nest	-10.9531
▁chant	-10.9532
▁angle	-10.9541
▁09	-10.9546
▁fur	-10.9547
▁arrange	-10.9554
▁cole	-10.9557
▁cleaned	-10.9558
▁messing	-10.9569
▁busted	-10.9573
▁unique	-10.9583
▁claire	-10.9589
▁bett	-10.9592
▁immortal	-10.9596
▁lesbian	-10.9601
ceremony	-10.9601
▁oliver	-10.9607
▁turk	-10.9612
out	-10.9617
▁dylan	-10.962
▁johns	-10.9622
▁considered	-10.9627
▁teaching	-10.9631
vy	-10.9633
▁snap	-10.9636
▁reveal	-10.9637
▁league	-10.964
▁52	-10.9649
dennis	-10.9658
▁tower	-10.966
▁pervert	-10.9662
tic	-10.9669
▁cycle	-10.9669
▁ka	-10.9671
▁pin	-10.9675
▁suitcase	-10.9677
▁punishment	-10.9678
ois	-10.9684
▁slide	-10.9692
ium	-10.9694
▁vehicle	-10.9696
▁chances	-10.9704
▁frankly	-10.9704
▁cutting	-10.9706
mon	-10.9713
▁cy	-10.972
▁woo	-10.972
▁jen	-10.9729
▁spanis	-10.9731
▁surrender	-10.9735
▁sunset	-10.9735
▁instrumental	-10.9736
▁doyou	-10.9737
▁attract	-10.9739
▁entirely	-10.9742
▁wore	-10.9746
▁toward	-10.9747
▁bend	-10.9748
▁individual	-10.9754
▁abby	-10.9764
▁wha	-10.9765
urke	-10.9768
▁griffin	-10.9773
▁assignment	-10.9775
▁closet	-10.9783
▁conference	-10.9793
▁admiral	-10.9793
▁mere	-10.9793
▁smash	-10.9796
▁taylor	-10.9796
▁collin	-10.9797
▁casino	-10.9812
▁capture	-10.9814
▁bout	-10.9815
▁ending	-10.9825
▁recent	-10.9825
▁purple	-10.9832
▁genetic	-10.9835
▁soda	-10.9844
▁superior	-10.9851
▁survival	-10.9851
▁pole	-10.9852
▁repair	-10.9859
▁apolog	-10.9861
▁ritual	-10.987
▁laws	-10.9872
▁quality	-10.9877
▁smil	-10.9888
▁popp	-10.9888
▁hack	-10.989
▁surger	-10.9891
▁arab	-10.9896
ron	-10.9902
▁jury	-10.9902
▁patrol	-10.9904
▁workin	-10.9905
▁comment	-10.991
gan	-10.9912
▁spaniard	-10.9929
ities	-10.9933
yama	-10.9936
▁musical	-10.9939
▁latest	-10.9944
▁intelligent	-10.9948
▁international	-10.9948
▁convince	-10.9948
▁distract	-10.9948
▁roar	-10.995
▁sec	-10.9955
▁connected	-10.9957
▁injur	-10.9958
▁joined	-10.9966
▁survivor	-10.997
▁dreaming	-10.9971
▁04	-10.9978
▁petey	-10.9978
▁urgent	-10.9988
▁congress	-10.9988
▁mistress	-10.9988
▁glove	-10.9988
▁basement	-10.999
▁sire	-10.9991
▁bum	-10.9995
▁desperate	-10.9997
▁shelter	-11.0008
▁jessica	-11.0009
▁windows	-11.001
what	-11.0015
▁03	-11.0019
▁junk	-11.0022
rs	-11.0025
▁useful	-11.0025
▁steps	-11.0026
▁succeed	-11.0028
ability	-11.003
▁react	-11.0032
▁55	-11.0032
▁parade	-11.0034
▁bollocks	-11.0034
▁boot	-11.0038
▁managed	-11.0044
▁jin	-11.0045
▁singer	-11.0045
▁tiggers	-11.0046
▁assault	-11.0048
▁headache	-11.0048
▁fist	-11.0049
british	-11.005
▁inch	-11.005
▁threatened	-11.0052
▁version	-11.0052
▁weir	-11.0055
▁vega	-11.0055
▁sack	-11.0059
▁sean	-11.006
▁tricks	-11.0062
▁instrument	-11.0065
lois	-11.0069
▁nights	-11.0079
▁lean	-11.008
▁wicked	-11.0083
▁paradise	-11.0088
▁fever	-11.0088
▁minor	-11.0093
▁mighty	-11.0104
▁chew	-11.0109
▁detail	-11.0117
▁bond	-11.012
▁intention	-11.0121
▁shy	-11.0123
▁signature	-11.0126
▁assure	-11.0137
▁gear	-11.0138
▁hunting	-11.0138
▁convinced	-11.0146
▁humor	-11.0147
▁del	-11.0149
▁friendly	-11.015
▁favourite	-11.016
▁shak	-11.0163
▁frighten	-11.0163
▁horror	-11.0167
▁christie	-11.0168
pacha	-11.017
▁51	-11.0176
▁struggle	-11.0178
▁cloth	-11.0186
▁sabrina	-11.0187
▁doofy	-11.0187
cordia	-11.0187
▁feeding	-11.0189
of	-11.0194
▁02	-11.0197
▁wings	-11.0203
▁fascinat	-11.0206
▁williams	-11.0206
▁audition	-11.0207
▁basic	-11.0207
▁wail	-11.0209
▁mobile	-11.0209
▁chopper	-11.0211
▁marshal	-11.0225
▁accomplish	-11.0226
▁goddess	-11.0227
▁properly	-11.0232
▁jill	-11.0238
▁crunch	-11.0247
▁dolphin	-11.0267
▁gangster	-11.0268
▁theater	-11.0275
▁marks	-11.0279
▁squeal	-11.0281
▁nige	-11.0283
ntelligence	-11.0296
▁barry	-11.0298
▁bounce	-11.0306
▁deed	-11.0324
▁erro	-11.0324
▁knox	-11.0329
▁whack	-11.0331
▁announce	-11.0336
▁earl	-11.0344
▁helen	-11.0347
▁suspicious	-11.0349
▁searching	-11.035
▁nigger	-11.0351
ture	-11.0354
▁mortal	-11.0358
ev	-11.0358
rapy	-11.0362
▁champion	-11.0363
nd	-11.0365
▁ryan	-11.038
▁belly	-11.0382
▁ryge	-11.0383
▁nelson	-11.039
▁peacekeeper	-11.039
▁surrounded	-11.0399
▁zone	-11.0404
cha	-11.0413
▁selfish	-11.0413
▁wal	-11.0415
▁jennif	-11.0419
▁released	-11.0421
▁virginia	-11.0421
▁loop	-11.0426
▁flew	-11.0431
▁duncan	-11.0431
▁unhapp	-11.0431
ial	-11.0431
▁bare	-11.0433
▁gero	-11.0433
▁rank	-11.0437
▁liz	-11.0449
▁melt	-11.0453
▁thou	-11.0454
▁appearance	-11.0455
▁salt	-11.0465
▁hits	-11.0467
▁likely	-11.0473
▁wallet	-11.0475
▁fetch	-11.0486
▁francis	-11.049
▁kicking	-11.0491
▁identit	-11.0498
▁cris	-11.0502
▁drawing	-11.0509
▁charity	-11.0517
▁jews	-11.052
▁bald	-11.0527
▁federal	-11.0535
▁embrace	-11.0536
▁baseball	-11.0536
▁struck	-11.0537
▁reverse	-11.0542
▁log	-11.0556
▁tune	-11.0556
▁fu	-11.0558
▁effective	-11.0558
▁everyday	-11.056
ter	-11.0562
▁ju	-11.0562
▁boots	-11.0568
▁medication	-11.0569
▁parts	-11.0569
▁custom	-11.057
▁auto	-11.0572
▁engagement	-11.0576
▁pat	-11.0578
ichi	-11.0578
▁burst	-11.0578
his	-11.0582
▁gum	-11.0584
▁math	-11.0589
▁vic	-11.059
▁confirm	-11.0598
ong	-11.0601
▁dam	-11.0605
ayday	-11.0621
▁javi	-11.0624
▁fianc	-11.0624
▁brush	-11.0625
ra	-11.0635
▁salute	-11.0635
▁herr	-11.0636
▁judy	-11.0643
▁kelso	-11.065
▁mouse	-11.066
▁robin	-11.0663
ud	-11.0669
▁robbed	-11.0673
▁whimper	-11.0675
nimo	-11.0676
edex	-11.0681
▁rod	-11.0691
▁compare	-11.0696
▁serge	-11.0698
chev	-11.07
▁mall	-11.07
▁recommend	-11.0701
▁dessert	-11.0702
▁loyal	-11.0702
▁43	-11.0705
▁collar	-11.0706
▁announcer	-11.0707
▁hills	-11.0721
▁confirmed	-11.0723
▁comrade	-11.0723
ant	-11.0737
▁heck	-11.0744
▁permanent	-11.0745
▁balance	-11.0754
▁antoni	-11.0756
▁joseph	-11.0756
hane	-11.0761
▁custod	-11.0765
▁nephew	-11.0766
▁vegetable	-11.0766
▁gunshot	-11.0766
▁anonymous	-11.0772
▁wondered	-11.0775
▁removed	-11.0777
▁torrance	-11.0787
▁coffin	-11.0787
▁gentle	-11.0789
▁kath	-11.0792
▁ar	-11.0793
▁martial	-11.0793
chasing	-11.0794
▁han	-11.0795
▁await	-11.0811
▁breast	-11.0812
▁mc	-11.0813
one	-11.0817
ch	-11.0824
▁bi	-11.0832
▁source	-11.0836
▁antho	-11.0836
ace	-11.0839
▁jan	-11.0843
▁bak	-11.0844
with	-11.0846
▁jokes	-11.0847
rank	-11.0848
f	-11.0848
▁reporter	-11.0849
▁pierre	-11.0851
▁similar	-11.0851
▁thirst	-11.0851
▁necklace	-11.0851
▁aaron	-11.0852
▁precise	-11.0854
▁sailor	-11.086
▁noble	-11.086
▁hundreds	-11.086
▁witnesse	-11.0866
▁believ	-11.0867
ternity	-11.0868
▁ugh	-11.087
▁ease	-11.0875
▁donnell	-11.0881
▁include	-11.0884
▁pearl	-11.0888
▁shore	-11.0889
▁steam	-11.0893
▁anniversary	-11.0895
▁pepper	-11.0895
▁ingrid	-11.0896
▁gambl	-11.0898
▁tribe	-11.0901
▁hose	-11.0905
▁yee	-11.0906
▁whistl	-11.0908
▁compliment	-11.0917
▁laser	-11.0921
▁drawer	-11.0928
he	-11.093
▁corn	-11.0932
rsia	-11.0935
▁scientist	-11.0938
▁traitor	-11.094
▁blonde	-11.0944
▁disturb	-11.0951
▁bail	-11.0957
▁blank	-11.0959
▁bicycle	-11.0959
▁greek	-11.096
▁fuss	-11.0964
▁realise	-11.0966
▁gig	-11.097
▁permit	-11.0973
▁gibson	-11.0981
▁evan	-11.0982
gency	-11.0982
▁passport	-11.0982
▁nazi	-11.0982
▁oops	-11.0983
▁duke	-11.0983
▁cats	-11.0985
▁morgan	-11.0985
ble	-11.0992
▁severe	-11.0997
▁39	-11.1
▁ultimate	-11.1003
▁employee	-11.1003
▁ward	-11.1011
▁payment	-11.1018
▁tapes	-11.1018
ina	-11.1023
▁serial	-11.1025
▁barren	-11.1026
▁digg	-11.1028
▁propose	-11.1028
▁mistaken	-11.1028
ski	-11.1031
▁medal	-11.1032
▁flame	-11.1034
▁jacob	-11.1038
radiation	-11.1039
▁supplie	-11.1043
▁setting	-11.1046
▁leather	-11.1047
▁polish	-11.1048
▁humming	-11.1048
▁crai	-11.1053
▁internet	-11.1053
▁tastes	-11.1059
▁flush	-11.1064
▁clinic	-11.1067
▁margaret	-11.1069
▁defendant	-11.1069
▁laura	-11.1069
▁fried	-11.107
▁closes	-11.1085
nthia	-11.1085
▁88	-11.1088
▁wisdom	-11.1091
▁imagination	-11.1091
▁rehearsal	-11.1091
▁goddam	-11.1102
▁function	-11.1103
▁puff	-11.1105
▁sons	-11.1108
▁daily	-11.1115
▁skirt	-11.1116
▁temperature	-11.1118
▁sayin	-11.1125
▁tag	-11.113
▁odds	-11.1135
▁maureen	-11.1135
born	-11.1146
▁award	-11.1157
▁fulfill	-11.116
▁barn	-11.1165
▁guilt	-11.1167
▁pax	-11.1167
▁tries	-11.1167
▁pops	-11.117
▁declare	-11.1171
▁shaw	-11.1178
▁mud	-11.118
▁150	-11.1183
▁rm	-11.1184
▁beef	-11.1186
▁mel	-11.1189
▁amy	-11.1194
▁58	-11.1207
▁cloud	-11.121
▁vince	-11.1221
▁lamp	-11.1223
▁sausage	-11.1223
▁tricky	-11.1224
▁stands	-11.1227
▁stairs	-11.1232
▁gabriel	-11.1238
▁submarine	-11.1243
▁hagen	-11.125
▁review	-11.1267
▁basket	-11.1269
▁entered	-11.1274
▁asks	-11.1275
eless	-11.1303
▁muscle	-11.1313
▁admire	-11.1315
▁noodle	-11.1316
emily	-11.1319
▁lynch	-11.1326
▁russia	-11.1331
▁palm	-11.1337
▁steel	-11.1345
▁solar	-11.1355
▁obsess	-11.1357
▁potential	-11.1358
▁lend	-11.1359
▁blanket	-11.1359
▁bullwinkle	-11.1359
▁jewel	-11.136
▁fag	-11.136
▁scoff	-11.1363
▁len	-11.1364
▁document	-11.1366
▁fii	-11.1369
sen	-11.1381
▁lecture	-11.1388
▁revolution	-11.1388
▁capital	-11.1391
▁fisher	-11.1394
▁tak	-11.14
▁frog	-11.1401
▁peasant	-11.1404
▁visitor	-11.1414
▁lewis	-11.1426
▁pleasant	-11.1427
▁cried	-11.1428
▁tragic	-11.1435
▁squirrel	-11.1449
ied	-11.1458
mine	-11.1462
▁organ	-11.1463
▁pinch	-11.1468
▁syncord	-11.1472
▁collection	-11.1474
▁fee	-11.1476
▁ripped	-11.1478
▁beans	-11.1483
▁campbel	-11.1487
▁escort	-11.1495
▁communication	-11.1501
kyo	-11.151
▁consequence	-11.1518
▁drill	-11.1519
▁drama	-11.1519
▁bloke	-11.1541
▁lester	-11.1542
gun	-11.1546
▁massage	-11.1555
▁vi	-11.1557
▁tax	-11.1558
▁principle	-11.1564
▁stoke	-11.1564
▁sway	-11.1565
▁forth	-11.1575
▁albert	-11.1582
▁fez	-11.1585
▁beam	-11.1585
▁complex	-11.1587
▁praise	-11.1588
▁borrowed	-11.1592
▁chickens	-11.1597
▁principal	-11.16
▁wrap	-11.1607
drew	-11.1608
▁eternal	-11.161
▁retard	-11.161
▁cheek	-11.1611
dallas	-11.1611
▁pit	-11.1615
here	-11.1621
▁nova	-11.1638
▁yea	-11.1641
ut	-11.1645
▁bench	-11.1646
▁sweater	-11.1648
▁method	-11.1662
▁bowman	-11.1662
▁pod	-11.1666
▁polite	-11.1669
ya	-11.1669
ris	-11.1673
mmond	-11.1678
▁stare	-11.1678
▁division	-11.168
▁steer	-11.1682
▁messages	-11.1692
▁crystal	-11.1697
ad	-11.1697
▁wheels	-11.1699
▁fingerprint	-11.1703
▁acid	-11.1709
▁lap	-11.1712
▁crimes	-11.1716
▁sang	-11.1716
▁charged	-11.1721
▁aryan	-11.1726
▁tech	-11.1732
▁gravit	-11.1741
▁prevent	-11.175
▁marlin	-11.1753
ring	-11.1753
▁possess	-11.1758
▁dum	-11.1763
▁peanut	-11.1774
▁slipper	-11.1774
▁fade	-11.1776
▁sacred	-11.1777
▁ga	-11.1781
▁53	-11.1788
▁chad	-11.1793
this	-11.1794
▁rabbi	-11.1794
▁hood	-11.1795
▁laundry	-11.1797
▁increase	-11.1801
▁abbe	-11.1802
▁59	-11.1808
▁arts	-11.1813
▁restore	-11.1815
all	-11.1817
▁inform	-11.1828
▁author	-11.1835
▁begging	-11.1846
▁nam	-11.1846
▁sap	-11.1849
▁socks	-11.185
▁depress	-11.185
▁grann	-11.1854
▁worm	-11.1858
▁supply	-11.186
▁obey	-11.1877
not	-11.1878
▁41	-11.1883
ating	-11.1884
▁forgiven	-11.189
▁sorrow	-11.1893
▁proxim	-11.1894
▁waves	-11.1899
▁cafe	-11.1901
▁ee	-11.1905
▁centre	-11.1906
iest	-11.1916
▁plot	-11.1917
▁chantal	-11.1918
▁discipline	-11.1918
ro	-11.192
▁slam	-11.1928
▁freez	-11.1932
▁spray	-11.1934
▁che	-11.1939
▁broadcast	-11.194
▁motive	-11.1942
▁wax	-11.1943
▁fields	-11.1959
▁cease	-11.196
▁rats	-11.1961
▁specific	-11.1961
▁engines	-11.1962
▁families	-11.1964
▁weakness	-11.197
▁spiritual	-11.197
▁heel	-11.1973
▁philosoph	-11.1974
▁tend	-11.1975
▁skipper	-11.1976
▁johnson	-11.1978
▁ditch	-11.1982
▁benefit	-11.1988
▁negro	-11.1988
▁contest	-11.1988
▁boats	-11.1988
▁wrapped	-11.1989
▁99	-11.1991
▁suggestion	-11.1991
▁toke	-11.2
▁reminds	-11.2006
▁slice	-11.2013
▁yup	-11.2017
▁jar	-11.2017
▁granted	-11.2018
▁ann	-11.202
▁conflict	-11.2036
▁championship	-11.2036
▁arrangement	-11.2037
▁gabriell	-11.2044
▁cable	-11.206
▁occasion	-11.206
▁impact	-11.2061
▁lipstick	-11.2061
▁petty	-11.2061
▁brav	-11.2063
▁chemical	-11.2063
▁labor	-11.2069
artha	-11.2069
v	-11.2071
▁thrust	-11.2077
▁fold	-11.2077
▁relief	-11.2084
▁editor	-11.2085
▁expression	-11.2086
▁rage	-11.2091
▁candle	-11.2092
sworth	-11.2093
▁jani	-11.2095
▁massive	-11.2096
▁coma	-11.2097
▁publish	-11.2099
▁disaster	-11.2109
▁dismiss	-11.2109
▁envy	-11.2109
▁quarterback	-11.2109
▁chairman	-11.2119
▁prof	-11.212
▁select	-11.2132
▁brad	-11.2132
▁invitation	-11.2134
▁discussion	-11.2135
▁explode	-11.2147
▁conclusion	-11.2158
▁typical	-11.216
▁blessing	-11.2165
▁occurred	-11.217
▁madness	-11.2172
ixth	-11.218
▁carlo	-11.2181
▁harvey	-11.2182
▁objection	-11.2184
▁tracks	-11.2189
▁sales	-11.2196
▁gather	-11.2198
▁whoop	-11.22
▁conquer	-11.2205
▁bait	-11.2207
▁deput	-11.2208
▁foolish	-11.2209
▁daughters	-11.2211
▁squeeze	-11.2212
▁active	-11.2217
▁reported	-11.2232
▁terribl	-11.224
ized	-11.2241
▁adrian	-11.2244
▁delay	-11.2244
▁du	-11.2244
▁rhythm	-11.2247
▁approve	-11.2262
▁greater	-11.2265
▁hopeless	-11.2274
▁deni	-11.2276
▁joon	-11.228
▁technique	-11.2281
▁mitch	-11.2288
▁arn	-11.2288
▁nap	-11.229
▁partners	-11.2294
andra	-11.2295
onnie	-11.2304
▁instant	-11.2306
▁costume	-11.2306
▁sensor	-11.2307
▁spice	-11.2316
▁joining	-11.2326
▁texa	-11.2329
▁bonj	-11.2332
▁brenda	-11.2333
▁tragedy	-11.2334
▁gune	-11.2348
▁pub	-11.2355
▁prime	-11.2364
▁recording	-11.2368
away	-11.2373
▁absolute	-11.2373
▁stream	-11.2377
▁gamma	-11.238
niki	-11.2381
▁cam	-11.2384
▁doo	-11.2391
▁bender	-11.2392
▁determine	-11.2404
▁los	-11.2405
▁religious	-11.2406
▁nder	-11.2409
spite	-11.2411
▁lit	-11.2412
▁54	-11.242
▁merely	-11.2422
nn	-11.2426
▁deposit	-11.243
▁disguise	-11.2431
▁jungle	-11.2434
▁answered	-11.2437
▁waiter	-11.2441
▁bubble	-11.2453
▁gray	-11.2454
▁pirate	-11.2456
▁violent	-11.2456
▁cd	-11.2456
▁creative	-11.2458
▁timmy	-11.2458
▁libert	-11.2459
▁reject	-11.2462
▁wander	-11.2465
▁locker	-11.2471
▁thieve	-11.2471
▁remarkabl	-11.2476
▁invasion	-11.2481
▁feelin	-11.2482
▁backup	-11.2488
▁asses	-11.2499
▁makeup	-11.2502
▁hyde	-11.2506
▁soprano	-11.2507
▁jonathan	-11.2507
▁trunk	-11.2507
▁ego	-11.2508
dishes	-11.2512
▁enormous	-11.2519
▁roast	-11.252
▁josephin	-11.2523
▁narrow	-11.2532
▁commitment	-11.2533
▁wu	-11.254
▁bounc	-11.2541
▁pet	-11.2542
▁christophe	-11.2557
▁partie	-11.2558
▁troop	-11.2564
▁yards	-11.2569
▁lauri	-11.2574
▁facilit	-11.2576
▁aaah	-11.2584
▁cord	-11.2584
▁painful	-11.2584
▁brashear	-11.2584
▁shove	-11.2592
▁exhale	-11.2598
▁hatch	-11.2598
ran	-11.2598
▁extraordinar	-11.261
▁bon	-11.2611
▁tae	-11.2616
▁western	-11.2616
▁worship	-11.2627
ai	-11.2629
▁delta	-11.2629
▁cameras	-11.2631
▁organization	-11.2635
▁stretch	-11.2648
▁2000	-11.2649
▁jun	-11.2656
▁appeal	-11.266
▁orbit	-11.266
▁chapter	-11.266
▁possession	-11.266
▁folk	-11.2668
▁scale	-11.2671
▁background	-11.2678
▁bells	-11.2681
▁august	-11.2681
▁concept	-11.2684
▁copper	-11.2686
▁frozen	-11.2687
▁satisfie	-11.2687
▁instance	-11.2689
▁miser	-11.2698
▁mob	-11.2709
▁luis	-11.271
▁trail	-11.271
▁ancestor	-11.2711
▁fortunate	-11.2711
▁distant	-11.2711
▁confidence	-11.2712
▁kidnapping	-11.2712
red	-11.2715
▁atlantic	-11.2717
▁monkeys	-11.2717
▁counsel	-11.2717
nie	-11.2725
nt	-11.2735
▁fischer	-11.2737
▁dropping	-11.2738
▁silk	-11.2738
▁mercedes	-11.2739
lee	-11.274
▁achieve	-11.2746
▁fame	-11.2746
▁carol	-11.2752
rd	-11.2758
▁jordan	-11.2766
▁bart	-11.2767
▁tissue	-11.2768
▁casey	-11.2768
▁media	-11.277
▁peaceful	-11.2774
▁reserve	-11.2774
▁junkie	-11.2778
▁poo	-11.2788
▁calitri	-11.2789
▁valuable	-11.2789
▁yank	-11.2791
▁judgment	-11.2791
▁pill	-11.2803
▁upper	-11.2804
▁auntie	-11.2804
▁batter	-11.2805
▁invisibl	-11.2809
▁worrie	-11.2813
▁celebration	-11.2815
▁alternative	-11.2815
▁repet	-11.2815
▁trouser	-11.2816
▁niece	-11.2817
▁rack	-11.282
don	-11.2824
▁scheme	-11.2829
appy	-11.2834
▁mick	-11.2837
den	-11.2842
▁cabin	-11.2843
▁wive	-11.2847
▁tense	-11.2849
▁content	-11.2858
▁sandy	-11.2864
▁buzzing	-11.2868
▁feather	-11.2868
▁drain	-11.2869
▁guid	-11.2872
▁kron	-11.2874
▁phase	-11.2888
▁scout	-11.2894
▁magnificent	-11.2894
co	-11.2894
▁pu	-11.2898
▁sets	-11.2899
▁tan	-11.2911
▁uncomfortabl	-11.292
▁aggressive	-11.292
▁retreat	-11.2922
▁ror	-11.2923
▁ski	-11.2923
▁fax	-11.2926
▁unh	-11.2932
▁walks	-11.2936
▁lick	-11.2946
▁serving	-11.2949
ious	-11.2953
hannah	-11.2956
▁95	-11.2956
▁vincen	-11.2964
▁july	-11.2965
▁sta	-11.2966
▁assistance	-11.2974
▁georgia	-11.2975
▁privilege	-11.2977
▁bitter	-11.2978
▁conduct	-11.2978
▁mutter	-11.2981
▁nk	-11.2982
▁deb	-11.2987
▁spike	-11.2989
▁flatter	-11.2989
▁mari	-11.2991
▁sucker	-11.2991
▁beside	-11.2993
▁galaxy	-11.3
▁vlan	-11.3
▁investigat	-11.3004
▁pio	-11.3008
theless	-11.3009
▁hum	-11.3022
▁april	-11.3022
▁basketball	-11.3027
▁righteous	-11.303
▁richards	-11.3031
▁lame	-11.3033
▁pays	-11.3038
▁hammer	-11.3044
▁environment	-11.3045
ully	-11.3047
▁vow	-11.305
▁drift	-11.3052
▁establish	-11.3053
▁entrance	-11.3053
▁core	-11.3054
for	-11.3054
▁aliens	-11.3056
▁giggle	-11.3065
▁ignoran	-11.3069
▁pillow	-11.3071
▁fond	-11.3076
▁mornin	-11.308
▁smack	-11.308
▁rotten	-11.3081
▁clatter	-11.3081
▁makin	-11.3082
stronger	-11.3089
▁replacement	-11.3092
▁shooter	-11.3099
▁footsteps	-11.3107
▁steak	-11.3109
▁octo	-11.311
▁bra	-11.3115
bert	-11.3119
▁interfere	-11.3119
▁piggy	-11.3119
▁bann	-11.3119
▁aki	-11.312
▁lesl	-11.3131
▁assholes	-11.3133
▁vanish	-11.3135
▁register	-11.3135
▁slayer	-11.3136
que	-11.3136
▁ri	-11.3143
▁sink	-11.3155
▁bars	-11.3158
▁butcher	-11.3159
▁forensic	-11.3161
inog	-11.3167
▁practically	-11.3171
dium	-11.3172
▁statue	-11.3174
▁greed	-11.3179
▁throne	-11.3181
▁relat	-11.3182
▁gesture	-11.3188
▁financial	-11.3188
▁clara	-11.319
▁purse	-11.3195
▁poker	-11.3195
▁ham	-11.3196
▁easter	-11.3206
▁southern	-11.3209
▁commission	-11.3213
▁dee	-11.3213
▁experienced	-11.3215
▁bernard	-11.3215
▁stubborn	-11.3216
▁waters	-11.3218
ji	-11.322
▁alfred	-11.3221
▁anne	-11.3222
▁puppy	-11.3229
▁ofyou	-11.323
▁flood	-11.3231
▁bid	-11.3233
▁poet	-11.3237
rtier	-11.3242
▁generous	-11.3243
▁friedrich	-11.3243
▁motel	-11.3243
▁psychic	-11.3249
ryl	-11.3263
▁india	-11.3265
▁tiffan	-11.327
ano	-11.3276
▁cases	-11.3279
▁availab	-11.328
mano	-11.328
▁infect	-11.3282
▁slap	-11.3283
▁wins	-11.3291
▁teams	-11.3297
▁prescott	-11.3297
▁detect	-11.3299
▁profile	-11.3299
▁liver	-11.33
▁nicola	-11.33
▁dracul	-11.3301
▁authorities	-11.3303
▁involve	-11.3304
▁bomber	-11.3311
▁investigate	-11.3319
▁protocol	-11.3325
▁balloon	-11.3325
▁brig	-11.3331
▁dignit	-11.3332
ground	-11.3332
▁avail	-11.3333
▁contain	-11.3333
▁literal	-11.3337
▁rais	-11.3339
▁eighty	-11.334
▁cracker	-11.3341
▁michel	-11.3343
▁pork	-11.3347
▁alvin	-11.335
▁harbor	-11.3352
▁transmission	-11.3354
▁soap	-11.3361
▁reflect	-11.3366
▁manual	-11.3373
▁fiction	-11.3379
▁grabbed	-11.338
▁underneath	-11.3384
▁critical	-11.3385
▁torch	-11.3396
▁minimum	-11.3408
▁taelon	-11.3408
▁opposite	-11.3421
▁zoe	-11.3422
▁sept	-11.3427
▁industr	-11.3436
▁discount	-11.3436
▁stanley	-11.3436
▁foul	-11.3438
▁attached	-11.3446
▁dag	-11.3447
▁pos	-11.3449
▁thus	-11.3458
▁latin	-11.3461
▁addict	-11.3462
▁naughty	-11.3463
▁identify	-11.3463
▁column	-11.3464
▁pumpkin	-11.3464
▁humble	-11.3465
▁mario	-11.3467
▁minus	-11.3472
otte	-11.3475
▁nun	-11.3475
▁talks	-11.3477
dy	-11.3484
▁landing	-11.3487
▁muslim	-11.3491
▁civilian	-11.3492
▁geek	-11.3493
▁jung	-11.3494
▁profit	-11.3495
rnie	-11.3507
▁monitor	-11.3508
▁marine	-11.3509
greta	-11.3509
▁reyna	-11.3511
▁kills	-11.3512
▁goof	-11.3515
▁construction	-11.3519
▁nipple	-11.3519
▁disappearance	-11.3523
▁warehouse	-11.3524
▁mart	-11.3525
ge	-11.3525
▁graduate	-11.353
▁hooked	-11.353
cusi	-11.3535
▁armor	-11.3537
▁ghosts	-11.3538
▁ki	-11.3538
▁neighbour	-11.3547
▁soccer	-11.3547
arranged	-11.3548
▁magical	-11.355
▁rag	-11.3553
▁ransom	-11.3553
▁lola	-11.3554
▁bent	-11.3557
▁compromise	-11.3557
▁connect	-11.3562
▁sung	-11.3564
▁pere	-11.3565
▁operate	-11.3567
▁accus	-11.3571
▁vital	-11.3576
▁griss	-11.3581
rmande	-11.3585
how	-11.3594
▁passengers	-11.3597
▁ink	-11.3602
▁session	-11.3603
▁prostitute	-11.3604
▁ta	-11.3604
▁bruce	-11.3604
▁savannah	-11.3605
▁structure	-11.3606
▁surgeon	-11.3612
▁tha	-11.3617
▁minds	-11.3627
▁utter	-11.3634
▁riot	-11.3637
▁chao	-11.3637
▁ge	-11.3637
fire	-11.364
▁skipp	-11.3654
riel	-11.3656
un	-11.366
▁claudi	-11.366
▁bailey	-11.3661
▁ur	-11.3661
▁grac	-11.3662
▁choke	-11.3679
aren	-11.3682
▁treats	-11.3687
▁beard	-11.3688
▁butterfl	-11.3691
▁bold	-11.3698
▁intense	-11.3704
▁stable	-11.3708
▁gi	-11.3714
▁alley	-11.3714
can	-11.3714
▁motherfuckin	-11.3716
▁benjamin	-11.3717
▁executive	-11.3718
▁reception	-11.3718
▁gym	-11.3719
esla	-11.3719
room	-11.3725
▁battery	-11.3729
▁indicate	-11.373
▁scum	-11.3733
▁previous	-11.3733
▁gut	-11.3733
rwin	-11.3733
▁import	-11.3736
▁oi	-11.3736
▁timing	-11.3742
▁arse	-11.3743
▁aladar	-11.3746
▁painter	-11.3746
▁cries	-11.375
▁dis	-11.3751
▁800	-11.3751
▁jamm	-11.3756
chus	-11.3757
▁rocket	-11.3761
▁menu	-11.3769
▁irish	-11.3773
▁porn	-11.3774
▁grounds	-11.3774
▁amateur	-11.3775
▁vault	-11.3775
▁kresk	-11.3775
▁personnel	-11.3776
pain	-11.3777
▁rap	-11.3778
▁recognise	-11.378
▁charent	-11.3781
▁handed	-11.3782
▁dora	-11.3792
▁delight	-11.3795
▁june	-11.3795
▁whip	-11.3801
▁expand	-11.3804
▁stephen	-11.3804
▁julius	-11.3805
▁rumbling	-11.3806
▁clover	-11.3808
▁copie	-11.3816
▁cargo	-11.3821
▁adventure	-11.383
▁furni	-11.383
▁mosco	-11.3833
▁cemeter	-11.3833
▁robe	-11.3833
▁grain	-11.3837
▁knight	-11.3837
▁tim	-11.3837
▁cherry	-11.3842
▁lawyers	-11.3846
▁cles	-11.3847
▁powder	-11.3862
▁carpet	-11.3862
▁pok	-11.3863
▁confusing	-11.3863
▁passes	-11.3865
her	-11.3877
▁weigh	-11.3879
▁district	-11.3893
▁tool	-11.3906
▁sympath	-11.3907
▁forbidd	-11.3911
▁episode	-11.392
▁fork	-11.3922
▁harv	-11.3928
▁tender	-11.3932
▁invented	-11.3938
▁valeri	-11.3938
▁wealth	-11.3939
▁defence	-11.3949
▁appropriate	-11.3949
ke	-11.395
▁graduation	-11.3951
▁farewell	-11.3951
▁belief	-11.3952
▁boxer	-11.3957
ryce	-11.3958
▁sobb	-11.396
▁complaint	-11.3963
▁fa	-11.3967
▁brazil	-11.3978
▁straw	-11.3978
▁xander	-11.3978
▁network	-11.398
ou	-11.3981
▁hay	-11.3984
abelle	-11.3986
▁thumb	-11.3986
▁tire	-11.3988
anny	-11.3995
old	-11.3997
▁located	-11.4
▁eva	-11.4006
▁illusion	-11.4008
▁politician	-11.4008
▁scotch	-11.401
▁neal	-11.4014
▁imperial	-11.4017
▁observe	-11.4021
▁shown	-11.4025
▁communist	-11.4041
loyalty	-11.4041
▁luci	-11.4051
▁clouds	-11.4056
▁debb	-11.4058
▁heavi	-11.4063
▁rot	-11.4064
▁supreme	-11.4067
▁analysi	-11.4069
▁sultan	-11.407
▁claus	-11.4073
▁brun	-11.4074
ite	-11.4074
▁sal	-11.4075
▁handl	-11.4075
rdon	-11.4086
▁flirt	-11.4095
▁sauce	-11.4097
▁fantasy	-11.4097
▁annoying	-11.4098
▁helpless	-11.4102
▁duh	-11.4103
▁et	-11.4106
▁civil	-11.4111
▁divin	-11.4114
▁chug	-11.4116
tree	-11.4117
▁pond	-11.4118
▁disgrace	-11.4125
▁coyote	-11.4126
▁avenue	-11.4126
▁spark	-11.4128
▁reverend	-11.4128
▁european	-11.413
▁elvis	-11.4135
▁terror	-11.4137
▁actual	-11.4139
ick	-11.4143
▁dash	-11.4148
▁cyr	-11.4148
▁op	-11.4155
▁helicopter	-11.4156
▁centuri	-11.4156
▁budget	-11.4158
▁shave	-11.4158
▁buddies	-11.4164
▁electronic	-11.4165
▁citizens	-11.4167
▁harp	-11.4172
▁yun	-11.4176
▁yumi	-11.4177
▁informed	-11.4178
▁sjust	-11.4181
▁ye	-11.4181
▁communicate	-11.4182
▁cleve	-11.4184
▁directed	-11.4187
▁entertainment	-11.4187
▁faced	-11.4192
oufl	-11.4192
▁internal	-11.4194
▁mourn	-11.4204
▁spider	-11.4217
▁dong	-11.4218
lin	-11.4219
▁owen	-11.423
▁forbid	-11.4234
▁wit	-11.4238
▁nile	-11.424
▁surveill	-11.4246
▁unconscious	-11.4246
▁virtue	-11.4249
▁shotgun	-11.4249
▁caus	-11.4264
▁dish	-11.4265
nato	-11.427
▁kors	-11.4274
amiya	-11.4277
▁fridge	-11.4278
▁pause	-11.4283
▁marku	-11.4285
▁dearly	-11.4286
ew	-11.4287
▁franc	-11.429
▁priva	-11.4295
▁dragged	-11.4301
▁unfair	-11.4307
▁fascist	-11.4307
▁potter	-11.4307
self	-11.4308
▁weep	-11.4309
▁les	-11.4323
▁andrea	-11.4325
▁denis	-11.4326
asty	-11.4331
▁abuse	-11.4332
▁weary	-11.4333
▁cinema	-11.4338
▁satellite	-11.4338
▁banana	-11.4339
▁whirr	-11.4339
ure	-11.4347
▁jap	-11.4351
▁previously	-11.4351
▁laying	-11.4357
▁danced	-11.4362
fully	-11.4364
nice	-11.4364
▁hyun	-11.4367
▁helmet	-11.4368
▁dramatic	-11.4368
▁triad	-11.4371
▁debra	-11.4373
▁meanwhile	-11.4377
▁ramp	-11.4384
▁conscience	-11.4398
▁investment	-11.4399
▁estate	-11.44
▁breed	-11.4402
▁inter	-11.4407
▁fran	-11.4408
▁translate	-11.4409
▁badge	-11.441
▁gloria	-11.4415
▁combat	-11.4415
eung	-11.442
▁gustav	-11.4423
▁region	-11.4428
▁feast	-11.4429
▁homer	-11.443
▁erin	-11.4435
▁morris	-11.4438
▁sore	-11.4438
▁depth	-11.4443
▁comic	-11.4445
▁straighten	-11.4445
▁argu	-11.4451
▁kin	-11.4454
▁losers	-11.4454
▁pan	-11.4457
▁republic	-11.4458
▁strategy	-11.446
▁kit	-11.4461
▁predict	-11.4481
▁stiff	-11.4484
▁grip	-11.4487
▁hostage	-11.4492
▁meaningless	-11.4493
▁quietly	-11.4497
▁roommate	-11.4497
▁temper	-11.4503
▁kun	-11.4506
▁pale	-11.4509
▁giggl	-11.4512
▁entering	-11.4514
▁pabl	-11.4516
▁tweed	-11.452
▁theatre	-11.4522
▁inherit	-11.4522
▁candidate	-11.4522
▁franklin	-11.4523
▁torn	-11.4523
▁chains	-11.4526
roy	-11.4526
▁neil	-11.4528
▁barbecue	-11.4532
▁triple	-11.4538
▁wesley	-11.454
some	-11.4543
karan	-11.4547
▁bishop	-11.4553
▁samuel	-11.4553
▁decade	-11.4555
itte	-11.4556
▁shade	-11.4557
rasier	-11.4558
▁solo	-11.4563
▁wrestl	-11.4566
▁vent	-11.4569
▁halt	-11.4573
▁gladiator	-11.4584
▁brod	-11.4585
▁spinning	-11.4585
▁celebrating	-11.4585
▁relations	-11.4587
▁hitler	-11.4589
▁knot	-11.4592
▁chap	-11.4593
▁bass	-11.4597
▁goose	-11.4597
▁dime	-11.46
▁soil	-11.4601
▁83	-11.4605
▁ideal	-11.4608
▁sweep	-11.4608
▁cassi	-11.4609
▁classic	-11.461
▁lam	-11.4611
▁grief	-11.4615
▁lightn	-11.4615
▁lime	-11.4618
▁dull	-11.462
▁fearless	-11.4621
▁francisc	-11.4625
▁jade	-11.4637
▁display	-11.4638
▁tellin	-11.464
ified	-11.4641
▁wrist	-11.4646
▁hologram	-11.4646
▁maintenance	-11.4646
▁shatter	-11.4646
▁volume	-11.4647
▁valentine	-11.4655
▁notic	-11.4659
▁negotiate	-11.4661
▁toys	-11.4664
▁poster	-11.4667
▁tij	-11.4668
▁portrait	-11.4678
▁doorbell	-11.4678
▁mafia	-11.4679
territory	-11.4686
▁offend	-11.4689
▁rust	-11.469
▁anderson	-11.4692
▁instructions	-11.4695
▁mona	-11.4695
▁mount	-11.4697
▁sucking	-11.47
▁sim	-11.4707
▁ironic	-11.4708
▁snack	-11.4709
▁confirmation	-11.471
▁requires	-11.4715
▁zip	-11.4718
ak	-11.472
▁colon	-11.4728
▁sucked	-11.473
▁deeper	-11.4731
▁fo	-11.4732
▁vietnam	-11.4741
▁judith	-11.4742
▁inner	-11.4744
▁por	-11.4747
umbling	-11.476
worthless	-11.476
▁temporar	-11.4773
▁fraud	-11.4775
▁groom	-11.4782
▁lazy	-11.4782
▁tbe	-11.4785
▁harmon	-11.4787
▁subtle	-11.4788
▁airline	-11.4789
▁carbon	-11.4789
▁depart	-11.4805
▁tulip	-11.4805
▁adapt	-11.4805
▁waitress	-11.4806
ts	-11.4806
j	-11.4808
▁occur	-11.4808
▁african	-11.4814
half	-11.4818
▁rig	-11.4828
▁produce	-11.4833
▁monk	-11.4834
▁leer	-11.4834
▁awkward	-11.4836
▁brooklyn	-11.4836
▁pancake	-11.4837
▁lunatic	-11.4837
▁cocktail	-11.4837
▁grease	-11.4839
▁boston	-11.4839
beck	-11.4839
▁lad	-11.4844
▁terrorist	-11.4848
▁tude	-11.4851
ez	-11.4857
skies	-11.4863
▁creation	-11.4869
▁summon	-11.4869
▁barbar	-11.4879
▁cleaner	-11.4881
▁clown	-11.4891
▁koo	-11.4895
▁haircut	-11.4901
ans	-11.4901
▁institution	-11.4903
▁strictly	-11.491
▁exhausted	-11.4922
▁mature	-11.4924
▁raw	-11.493
▁queens	-11.4932
▁contestant	-11.4933
▁eli	-11.4937
▁kira	-11.4945
▁israel	-11.4955
▁protest	-11.4965
▁fowl	-11.4965
▁airplane	-11.4965
▁expense	-11.4966
▁shrimp	-11.4967
▁abb	-11.4978
▁hah	-11.499
▁heir	-11.4991
▁jet	-11.4997
▁height	-11.4997
▁description	-11.4998
▁dynamite	-11.4998
▁impulse	-11.4998
▁samantha	-11.4998
▁undercover	-11.4998
▁romance	-11.5008
▁kay	-11.5012
▁bee	-11.5013
▁destructio	-11.5013
▁limited	-11.5019
nee	-11.5019
▁accent	-11.503
▁mississippi	-11.503
▁curtain	-11.5031
▁pier	-11.5031
▁glorious	-11.5032
▁haunt	-11.5042
▁bai	-11.5044
berg	-11.5046
▁damm	-11.5049
▁journalist	-11.5049
▁cor	-11.5053
▁dana	-11.5054
▁bake	-11.5055
▁damaged	-11.5056
▁dale	-11.5056
▁unexpected	-11.5063
▁flavor	-11.5063
▁extend	-11.5064
▁inspiration	-11.5066
▁error	-11.5071
▁larger	-11.5072
▁pacific	-11.5074
job	-11.5078
▁journal	-11.508
▁campus	-11.5081
▁oyster	-11.5096
▁devote	-11.5096
▁scatter	-11.5096
▁harsh	-11.5097
▁condom	-11.5097
▁creating	-11.5098
▁lugg	-11.5101
▁goat	-11.5109
▁videotape	-11.512
▁millionaire	-11.5123
▁reform	-11.5124
▁chopp	-11.5125
▁champ	-11.5129
▁frequenc	-11.5129
▁combination	-11.5129
▁noon	-11.5131
▁jaw	-11.5135
▁crashed	-11.5136
▁sequence	-11.5137
▁speaker	-11.5138
▁allright	-11.5142
▁slaughter	-11.5147
▁louder	-11.5153
▁chatter	-11.5154
▁alter	-11.5154
rlin	-11.5155
ir	-11.5159
▁pope	-11.5161
▁gossip	-11.5162
▁pistol	-11.5162
▁grocer	-11.5162
▁preparing	-11.5162
▁82	-11.5162
uen	-11.5165
▁84	-11.5166
▁dix	-11.5173
▁drone	-11.5174
▁stev	-11.5175
▁disturbing	-11.5177
▁ping	-11.5178
▁assign	-11.5191
▁si	-11.5191
▁burden	-11.5195
▁plague	-11.5196
▁romeo	-11.5199
▁rib	-11.52
uary	-11.52
▁allerg	-11.52
▁entry	-11.5201
▁theft	-11.5212
▁cia	-11.5213
▁alliance	-11.5228
▁unload	-11.5229
▁85	-11.5229
▁election	-11.523
▁thai	-11.523
▁allah	-11.5239
ee	-11.5239
▁peach	-11.5241
roth	-11.5241
▁seventy	-11.5256
▁delicate	-11.5261
▁naomi	-11.5261
▁daph	-11.5262
▁uni	-11.5272
▁lighter	-11.5276
▁travell	-11.5278
▁stall	-11.5279
▁sh	-11.5281
injured	-11.5287
▁candles	-11.5295
▁vibe	-11.5295
▁offensive	-11.5296
▁suspicion	-11.5296
▁booze	-11.5296
▁bunny	-11.5296
▁elder	-11.5302
▁breeze	-11.5313
▁takin	-11.5317
life	-11.5319
▁lent	-11.5323
oln	-11.5325
▁lip	-11.5327
▁bears	-11.5341
▁hare	-11.5342
▁traditional	-11.5343
broad	-11.5345
apping	-11.5348
▁throughout	-11.5349
itz	-11.5353
▁recruit	-11.5354
▁winds	-11.5358
▁initial	-11.5362
▁whiskey	-11.5362
▁northern	-11.5362
▁lemon	-11.5363
elix	-11.5365
▁groove	-11.5365
▁disappoint	-11.5365
▁dock	-11.5371
▁shan	-11.5371
▁reader	-11.5372
▁grind	-11.5373
▁nj	-11.5375
▁awfully	-11.5378
▁stamp	-11.5381
▁endless	-11.5387
▁ranch	-11.5389
▁geez	-11.539
▁photographer	-11.5392
▁elephant	-11.5396
▁genuine	-11.5396
▁dreamed	-11.5402
▁nino	-11.5403
▁scent	-11.5405
▁wooden	-11.5406
▁samir	-11.5411
▁greet	-11.5413
▁pager	-11.5415
▁rivers	-11.5415
▁turki	-11.542
▁battles	-11.542
▁grid	-11.5424
▁behaviour	-11.543
▁semester	-11.543
▁muhamm	-11.543
▁bankrupt	-11.543
▁encounter	-11.5431
▁realised	-11.5431
▁hobby	-11.5431
▁muffin	-11.5432
▁handy	-11.5432
▁illness	-11.5435
▁louise	-11.5446
▁herb	-11.5448
▁prep	-11.545
▁worms	-11.5455
▁gai	-11.546
▁valeria	-11.5461
▁knuckle	-11.5464
▁scenario	-11.5464
▁hound	-11.5468
▁qu	-11.5469
▁wilma	-11.5475
▁shu	-11.5481
highest	-11.5487
▁whin	-11.5487
▁entertain	-11.5488
ible	-11.549
▁pad	-11.5494
▁hint	-11.5496
aid	-11.5496
▁sew	-11.5497
▁nicer	-11.5498
▁resident	-11.5498
▁zeke	-11.5498
▁native	-11.5502
▁jere	-11.5503
▁lawn	-11.5511
▁wak	-11.5514
xton	-11.5517
▁sticking	-11.5517
▁stew	-11.552
▁advertis	-11.5527
▁embass	-11.5532
▁contrary	-11.5532
▁violin	-11.5532
ison	-11.5535
▁rover	-11.5536
▁teenager	-11.5536
▁overnight	-11.5537
▁draft	-11.5538
hrush	-11.5539
▁meg	-11.5545
▁mode	-11.5547
▁extreme	-11.5555
▁clay	-11.5565
▁disorder	-11.5566
▁testimony	-11.5567
▁novak	-11.5568
▁dizzy	-11.557
▁tar	-11.557
▁pr	-11.5576
▁gwen	-11.558
▁intended	-11.558
▁poe	-11.5584
▁priorit	-11.5584
▁sincere	-11.5589
▁happier	-11.5589
▁grill	-11.5591
ma	-11.5593
▁snapp	-11.5594
▁tai	-11.56
▁trauma	-11.5601
vaughn	-11.5601
▁surprising	-11.5601
▁hostile	-11.5601
▁laine	-11.5601
▁curt	-11.5612
▁axe	-11.5612
donald	-11.5619
▁gil	-11.5632
▁approval	-11.5636
▁schre	-11.5636
▁aircraft	-11.5637
▁testify	-11.5638
while	-11.5643
▁zoo	-11.5647
▁cooperate	-11.565
tta	-11.5652
▁boarding	-11.5661
▁pimp	-11.567
▁ei	-11.567
▁regulation	-11.5671
▁stain	-11.5671
▁liquid	-11.5674
▁cha	-11.5674
▁rising	-11.5675
▁playin	-11.5676
▁bugger	-11.5679
▁rubber	-11.5679
▁grey	-11.5681
ca	-11.5691
▁patien	-11.5701
▁condolence	-11.5705
▁humiliate	-11.5705
▁torment	-11.5705
▁adjust	-11.5706
▁fak	-11.5708
▁development	-11.5708
id	-11.5727
▁tahiti	-11.574
tory	-11.5741
▁bacon	-11.5742
▁spill	-11.5742
▁advise	-11.5743
▁isabell	-11.5745
▁willow	-11.5754
▁eyed	-11.5754
▁ol	-11.5755
▁supper	-11.5758
▁surf	-11.5764
▁plato	-11.5766
▁fart	-11.5767
▁safer	-11.577
▁clan	-11.5772
▁dialogue	-11.5775
▁bruise	-11.5776
▁ninety	-11.5778
▁bucket	-11.578
▁darn	-11.5781
▁98	-11.5781
▁practical	-11.5783
▁envelope	-11.5783
▁assassin	-11.5784
▁boyfriends	-11.5788
head	-11.5789
hi	-11.5793
beaten	-11.5793
▁provided	-11.5795
▁gathered	-11.5797
▁kai	-11.5802
▁cooked	-11.5808
joel	-11.581
▁flour	-11.581
▁isaac	-11.581
▁residence	-11.5813
▁sides	-11.5813
▁accountant	-11.5813
▁amongst	-11.5814
▁lodge	-11.5814
▁vick	-11.5817
▁dann	-11.5832
▁profession	-11.5832
▁disco	-11.5833
▁relieve	-11.5835
▁ruth	-11.584
▁circuit	-11.5846
▁runnin	-11.5846
▁resistance	-11.5849
▁pip	-11.5855
▁meow	-11.5858
▁marco	-11.5863
▁hunger	-11.5867
▁hobb	-11.5868
▁chok	-11.5871
▁brutal	-11.5874
▁colored	-11.5876
▁cade	-11.5881
▁flea	-11.5881
▁girlfriends	-11.5883
▁remark	-11.5887
▁commissioner	-11.589
▁carrier	-11.5893
▁electrical	-11.5895
▁basi	-11.5895
▁keen	-11.5908
agement	-11.591
▁henri	-11.591
▁chery	-11.5913
▁summit	-11.5917
▁moonlight	-11.5918
▁hallway	-11.5919
▁blagge	-11.592
swore	-11.5921
▁appetite	-11.5931
▁stash	-11.5934
▁rebel	-11.5946
screaming	-11.5949
▁cur	-11.595
nethe	-11.5951
▁bachelor	-11.5952
▁bargain	-11.5952
▁cocksucker	-11.5953
▁quote	-11.5953
▁satisfy	-11.5953
sky	-11.5958
▁immediate	-11.596
▁spotted	-11.5966
sophie	-11.5977
over	-11.5978
ripping	-11.5986
▁perspective	-11.5988
▁febr	-11.5988
▁vomit	-11.5988
▁rubbish	-11.5989
▁craig	-11.599
▁wink	-11.599
▁ban	-11.5991
▁tons	-11.5992
▁tomato	-11.6
▁tested	-11.6003
piece	-11.6008
▁tray	-11.6013
▁nov	-11.6014
▁grows	-11.6018
▁una	-11.6019
ham	-11.6022
▁fugitive	-11.6025
ja	-11.6026
▁stark	-11.6032
stepped	-11.6034
▁splash	-11.6037
▁global	-11.6043
▁scrap	-11.6043
▁ador	-11.6048
ten	-11.6048
▁terrifi	-11.6048
▁hog	-11.6051
▁juic	-11.6052
▁flie	-11.6052
▁endure	-11.6056
▁beware	-11.6058
▁hurricane	-11.6061
▁kilo	-11.6064
▁static	-11.6064
▁stu	-11.6065
▁nd	-11.6071
▁rail	-11.6087
▁economic	-11.6089
harmless	-11.609
▁mexican	-11.6097
▁sixteen	-11.6097
▁trent	-11.6097
▁bodyguard	-11.6097
▁radar	-11.6099
▁independent	-11.61
▁sixty	-11.6101
▁atley	-11.6103
▁tension	-11.6104
▁formula	-11.6106
▁legion	-11.6108
▁brass	-11.6109
▁uses	-11.611
olyn	-11.6128
▁prey	-11.6128
▁tobacco	-11.6133
▁syrup	-11.6133
countries	-11.6133
▁outrageous	-11.6134
▁limb	-11.6136
▁generator	-11.6136
▁mankind	-11.6138
▁evacuate	-11.614
▁peak	-11.6142
▁lifting	-11.6147
▁runner	-11.6147
olved	-11.6148
▁exception	-11.6159
ullet	-11.6161
▁gina	-11.6164
▁estimate	-11.6165
▁reliabl	-11.6167
▁leaf	-11.6169
▁portug	-11.6169
▁picnic	-11.6169
▁cosette	-11.617
▁wendy	-11.617
▁linc	-11.617
▁tourist	-11.6171
▁facing	-11.6172
▁drake	-11.6173
▁tide	-11.6183
ical	-11.6194
▁ram	-11.6195
▁uptown	-11.6197
lby	-11.6202
▁application	-11.6206
▁insect	-11.6206
▁kung	-11.6208
▁stargate	-11.6208
anna	-11.6209
▁lordship	-11.621
▁promote	-11.6214
▁vein	-11.6222
▁fe	-11.6231
boy	-11.6234
▁tools	-11.6234
▁bombs	-11.6237
▁scandal	-11.6237
ggins	-11.6238
inald	-11.6239
▁inches	-11.6241
▁tab	-11.6242
▁feature	-11.6243
▁prosecutor	-11.6243
▁mcdonald	-11.6243
▁nike	-11.6245
▁fre	-11.6247
▁fanny	-11.6247
▁crate	-11.6248
▁herman	-11.6252
▁doughnut	-11.6256
▁scorpi	-11.6258
▁primar	-11.6263
are	-11.6265
▁bunk	-11.6269
▁liquor	-11.628
▁occasional	-11.628
▁leaders	-11.6288
▁patty	-11.6292
▁peek	-11.6294
▁ofyour	-11.6295
▁felicit	-11.6303
face	-11.6306
vok	-11.6309
▁imam	-11.6311
▁flu	-11.6312
▁exploit	-11.6317
▁escaping	-11.6317
▁wizard	-11.6317
▁random	-11.6317
▁padre	-11.6317
▁elegant	-11.6318
▁havin	-11.6318
ow	-11.6322
▁stud	-11.6326
▁pss	-11.6329
ise	-11.6337
▁underestimate	-11.635
▁cadillac	-11.6354
▁homosexual	-11.6354
popcorn	-11.6357
▁tracking	-11.6357
▁web	-11.6359
▁executed	-11.6369
▁refugee	-11.6371
▁mor	-11.6374
▁worn	-11.6377
rence	-11.6387
iami	-11.639
▁wheelchair	-11.6391
▁ifwe	-11.6392
▁counselor	-11.6392
▁colin	-11.6399
▁cocain	-11.6406
▁improve	-11.6414
▁wa	-11.6422
▁spine	-11.6428
▁hallelujah	-11.6429
▁temptation	-11.643
▁keith	-11.643
▁pooh	-11.6431
▁joyce	-11.6431
▁gilmore	-11.6432
so	-11.6436
▁fragil	-11.6441
▁pets	-11.6444
▁shiny	-11.6445
▁soak	-11.6448
▁compar	-11.6457
goodnight	-11.6463
discovered	-11.6464
▁shovel	-11.6466
▁phoeni	-11.6466
▁gamble	-11.6471
▁preserve	-11.6479
▁shipp	-11.6479
▁carne	-11.6486
▁tuck	-11.6486
ronica	-11.6489
▁waitin	-11.6492
▁borg	-11.6492
▁bleed	-11.6494
rick	-11.65
ik	-11.6501
▁pledge	-11.6501
▁iove	-11.6504
nstein	-11.6504
▁shankar	-11.6504
▁fourteen	-11.6504
▁aureli	-11.6505
▁preparation	-11.6505
▁cigar	-11.6505
▁venge	-11.6506
▁den	-11.6519
rsch	-11.6521
▁canyon	-11.6527
▁mushroom	-11.6542
▁grape	-11.6543
▁cartoon	-11.6543
▁population	-11.6543
▁cents	-11.6549
expelled	-11.6549
▁cancelled	-11.6549
▁torpedo	-11.6555
▁din	-11.6556
firing	-11.6575
▁kei	-11.6575
▁meadow	-11.658
▁marij	-11.658
▁hush	-11.6581
▁literatur	-11.6582
▁barber	-11.6585
getting	-11.659
▁slack	-11.6602
ara	-11.6604
▁blond	-11.6607
▁belonged	-11.6608
▁execution	-11.661
▁asteroid	-11.6618
▁coconut	-11.6618
▁kennedy	-11.6618
▁corrupt	-11.6619
day	-11.662
▁shallow	-11.662
ridge	-11.6623
▁ulf	-11.6625
▁gathering	-11.6625
▁tease	-11.6635
▁hal	-11.6641
▁blink	-11.6651
▁enforcement	-11.6657
▁barksdale	-11.6657
▁artificial	-11.6657
▁boogie	-11.6657
▁creak	-11.6658
▁zurg	-11.6661
▁phrase	-11.6664
vatel	-11.6668
▁snatch	-11.6681
▁item	-11.6688
▁sarge	-11.6689
▁scientific	-11.6692
▁resource	-11.6693
▁pursuit	-11.6695
▁stern	-11.6697
▁shaft	-11.6697
▁fig	-11.6698
▁wi	-11.6702
▁lucill	-11.6702
▁cannon	-11.6703
▁fr	-11.6703
▁stations	-11.6705
erine	-11.6707
oose	-11.6707
▁champions	-11.6707
dd	-11.671
▁container	-11.6715
▁activated	-11.6719
▁nurs	-11.6726
▁bureau	-11.6734
▁rascal	-11.6734
▁essential	-11.6734
▁thorough	-11.6734
▁lottery	-11.6735
▁oak	-11.6737
▁gaske	-11.6738
▁glow	-11.674
▁bam	-11.6741
▁logical	-11.6743
▁vari	-11.6746
▁hoot	-11.6747
▁sum	-11.6748
▁ab	-11.675
ue	-11.6751
▁scenes	-11.6754
▁shi	-11.6756
issy	-11.6758
ice	-11.6758
▁loosen	-11.6762
▁pi	-11.6763
▁par	-11.6772
▁briefcase	-11.6772
▁hanaya	-11.6772
▁chirp	-11.6775
▁putt	-11.6787
▁keeper	-11.6792
▁dib	-11.6799
▁locate	-11.6799
▁neat	-11.6803
▁ypu	-11.6809
▁starve	-11.681
▁horizon	-11.6812
▁pickup	-11.6817
rading	-11.6818
▁queer	-11.682
▁climbed	-11.6822
ignora	-11.6827
▁faithful	-11.6828
enig	-11.6835
nnie	-11.6836
rsus	-11.6844
sley	-11.6844
haring	-11.6845
▁festival	-11.685
▁recipe	-11.685
▁scoundrel	-11.685
▁sphinx	-11.685
▁enlighten	-11.685
▁pressed	-11.6853
▁roam	-11.6856
erty	-11.6857
▁parole	-11.6862
▁travis	-11.6868
▁brace	-11.6869
ate	-11.687
▁todd	-11.687
▁cruise	-11.6874
liu	-11.6878
ailing	-11.688
right	-11.688
▁wah	-11.6884
▁250	-11.6886
▁hag	-11.6887
▁swift	-11.6891
▁nathan	-11.6891
▁annual	-11.6891
▁accurate	-11.6892
▁mule	-11.6895
▁ambush	-11.6896
▁garret	-11.6897
▁zo	-11.6898
▁chess	-11.6899
▁arthur	-11.6903
art	-11.6913
▁panel	-11.6914
▁linds	-11.6918
▁crossing	-11.6919
▁homeless	-11.692
bel	-11.6924
iter	-11.6927
▁frustrat	-11.6928
▁confident	-11.6929
▁impound	-11.6929
▁apologise	-11.6929
▁leap	-11.693
▁va	-11.6932
▁republican	-11.6932
▁sissi	-11.6937
▁plumb	-11.6938
fall	-11.694
▁movin	-11.6958
▁formal	-11.696
▁numb	-11.6963
▁jew	-11.6964
▁puzzle	-11.6968
▁shepherd	-11.6968
▁murmur	-11.6969
▁muffled	-11.697
▁operating	-11.697
▁retir	-11.697
▁alcoholic	-11.6971
▁arrives	-11.6978
▁rico	-11.6995
▁transform	-11.6996
▁whoops	-11.6998
▁boil	-11.7
rie	-11.7007
▁demonstration	-11.7008
▁multiple	-11.7012
▁stunt	-11.7012
▁resume	-11.7013
▁xiao	-11.7013
▁dedicate	-11.7016
▁relate	-11.7018
▁stack	-11.7022
off	-11.703
▁det	-11.7032
▁vortex	-11.7048
▁representative	-11.7048
▁kobayashi	-11.7049
▁ladder	-11.7049
▁tent	-11.7054
▁breach	-11.7061
▁lin	-11.7062
▁wagn	-11.7063
▁khan	-11.7073
▁raid	-11.7073
▁reduce	-11.708
▁ew	-11.7081
▁eliminate	-11.7082
▁tub	-11.7085
▁iot	-11.7086
▁reynold	-11.7088
▁nigga	-11.7088
▁stripe	-11.7089
carolina	-11.709
▁ballet	-11.7093
▁automatic	-11.7094
▁galla	-11.7096
▁violat	-11.7105
▁accuse	-11.7106
▁wil	-11.7106
▁traveling	-11.7107
▁199	-11.7122
▁beers	-11.7135
▁gunn	-11.7136
▁lise	-11.7136
▁needle	-11.7145
▁foundation	-11.7159
spring	-11.716
▁jerusalem	-11.7168
▁juan	-11.7168
▁capacity	-11.7171
▁shuttle	-11.7171
lord	-11.7173
▁tables	-11.7175
▁rug	-11.7183
▁perr	-11.7184
▁81	-11.7187
▁jank	-11.719
▁referr	-11.72
▁dimension	-11.7204
▁grasp	-11.7209
▁wormhole	-11.7209
▁oath	-11.7209
▁civilization	-11.7209
▁specifically	-11.7209
▁honeymoon	-11.721
▁modest	-11.7211
▁diesel	-11.7212
au	-11.7213
▁thorn	-11.7215
omeda	-11.7217
▁gra	-11.7217
▁bore	-11.7217
▁rang	-11.7226
▁fooled	-11.7228
▁bash	-11.723
▁comb	-11.7233
▁greeting	-11.7233
musing	-11.7236
hole	-11.7236
▁inhale	-11.7241
▁scheduled	-11.7244
▁reference	-11.7244
▁angelo	-11.7249
▁conscious	-11.725
▁marianne	-11.725
▁initiative	-11.7251
▁shackle	-11.7251
▁bin	-11.7252
▁daisy	-11.7253
▁canal	-11.7253
▁bush	-11.7254
▁mal	-11.7259
ticed	-11.7262
nancy	-11.7265
▁flee	-11.727
▁cent	-11.7285
▁expose	-11.7287
▁disagree	-11.7289
▁shite	-11.729
▁militia	-11.729
▁tournament	-11.729
▁tremendous	-11.729
▁vacuum	-11.729
▁persuade	-11.729
▁alibi	-11.7291
▁seize	-11.7292
▁daria	-11.7292
▁recommendation	-11.7292
▁expos	-11.7293
▁anxious	-11.7296
▁panick	-11.7302
captured	-11.7302
▁ant	-11.7305
▁boob	-11.7307
▁struggl	-11.7312
▁lamb	-11.7313
▁judg	-11.7319
▁assum	-11.7322
▁crock	-11.7323
▁absurd	-11.7324
▁independen	-11.7327
▁cape	-11.7331
▁sustain	-11.7331
▁scholarship	-11.7331
▁autograph	-11.7331
▁granddaughter	-11.7331
▁profits	-11.7334
▁salesman	-11.7336
▁crank	-11.7338
▁eastern	-11.7339
▁hath	-11.7339
▁quintu	-11.7343
oggy	-11.7344
shire	-11.7345
▁hoi	-11.7348
▁perfection	-11.7351
▁cursed	-11.7354
▁dug	-11.7357
▁tock	-11.7362
▁chart	-11.7368
▁intimate	-11.7372
▁truffle	-11.7372
▁eager	-11.7373
▁vicious	-11.7374
▁jessie	-11.7376
▁brat	-11.7376
▁dressing	-11.7382
▁infection	-11.7384
▁coo	-11.7386
▁hopefull	-11.7389
have	-11.7398
ot	-11.7402
▁seymo	-11.7405
▁coron	-11.7406
▁inspired	-11.7409
▁mutual	-11.7414
▁ash	-11.7414
▁inspection	-11.7414
▁subway	-11.7415
▁fleet	-11.7421
▁freaks	-11.7423
▁nar	-11.7425
phone	-11.7437
▁tempt	-11.744
▁bitche	-11.744
▁employ	-11.7441
acour	-11.7442
▁donkey	-11.7454
▁messenger	-11.7455
▁headquarter	-11.7455
▁forehead	-11.7455
roit	-11.7456
▁educated	-11.7468
▁programm	-11.7468
▁hicks	-11.747
▁bloom	-11.7472
▁invest	-11.7474
▁organiz	-11.7487
▁gro	-11.7488
▁arena	-11.7488
▁bribe	-11.7491
▁babs	-11.7493
▁knocks	-11.7493
▁hats	-11.7495
▁puppet	-11.7497
▁biscuit	-11.7497
▁deploy	-11.7497
▁proposal	-11.7499
▁vest	-11.7499
▁lazar	-11.7501
▁oven	-11.7502
▁francesc	-11.7502
▁wished	-11.751
▁kings	-11.752
▁ofcourse	-11.7521
▁cheerlead	-11.7521
▁cooler	-11.7523
▁puss	-11.7523
▁jazz	-11.7525
jack	-11.7538
▁duties	-11.7539
▁deceased	-11.7539
▁hatred	-11.754
▁railroad	-11.754
▁lid	-11.754
▁nickname	-11.7544
▁heather	-11.7545
▁carver	-11.7545
▁programme	-11.7552
▁stripper	-11.7556
▁edit	-11.7567
▁finn	-11.7567
▁dorm	-11.757
▁com	-11.7574
▁blend	-11.7577
▁spoon	-11.7581
▁universal	-11.7581
ves	-11.7582
▁reflection	-11.7582
▁pentag	-11.7583
▁limo	-11.7583
cca	-11.7585
▁sorts	-11.7586
▁clang	-11.7589
▁hips	-11.7592
▁echo	-11.7601
▁krus	-11.7604
stone	-11.7607
▁sole	-11.7608
▁chen	-11.761
▁virtual	-11.7611
▁ru	-11.7615
▁mug	-11.7617
▁elbow	-11.7623
▁passionate	-11.7625
pside	-11.7626
there	-11.7628
▁tyre	-11.7631
▁trailer	-11.7632
▁bulb	-11.7645
▁hanged	-11.7648
▁pension	-11.7648
▁wang	-11.765
▁wage	-11.7652
▁octavi	-11.7656
▁parent	-11.7662
▁gogolak	-11.7665
▁turtle	-11.7665
▁excitement	-11.7666
▁storyteller	-11.7666
▁resurrection	-11.7666
▁ambition	-11.7666
▁destination	-11.7668
▁sheep	-11.7671
▁abbie	-11.7675
ette	-11.769
▁nickel	-11.7692
▁craft	-11.7693
▁refus	-11.7695
rich	-11.7697
▁bly	-11.7703
▁convent	-11.7707
▁bombing	-11.7708
▁examine	-11.7709
▁overcome	-11.7715
▁yuck	-11.7715
▁sour	-11.7716
▁rumble	-11.7716
▁qualifie	-11.7717
▁admitted	-11.7721
▁gab	-11.7722
▁marked	-11.773
▁tackle	-11.7731
▁ramse	-11.7734
▁hence	-11.7735
ries	-11.774
▁purchase	-11.7749
▁reg	-11.7751
▁perfume	-11.7751
▁ketchup	-11.7751
▁quill	-11.7751
▁salvation	-11.7751
yonnais	-11.7752
▁jelly	-11.7756
▁jer	-11.7766
▁dice	-11.7766
▁stray	-11.7769
▁yen	-11.7773
olo	-11.7774
▁tart	-11.7777
▁doom	-11.7777
▁rac	-11.7778
▁designer	-11.7787
▁butch	-11.7787
▁compani	-11.7791
▁length	-11.7793
▁accompany	-11.7794
▁sermon	-11.7794
▁mineral	-11.7795
▁thud	-11.7797
▁barrel	-11.7797
▁interrogation	-11.7798
ich	-11.7799
▁emma	-11.7801
▁bind	-11.7802
▁legitimate	-11.7804
▁halber	-11.7805
▁januar	-11.7808
▁niem	-11.7808
she	-11.7812
▁oy	-11.7814
▁lu	-11.7815
▁ensure	-11.7817
▁voted	-11.7825
▁toad	-11.7829
▁kent	-11.7831
▁bikini	-11.7837
▁wallpaper	-11.7837
▁confusi	-11.7837
stram	-11.7837
▁controlled	-11.7838
▁trophy	-11.7857
▁hue	-11.7862
▁hatti	-11.7862
▁mint	-11.7864
▁compete	-11.7864
▁amuse	-11.787
▁increased	-11.7874
▁descend	-11.7879
▁logic	-11.7879
wept	-11.7879
▁erotic	-11.788
▁mokelock	-11.788
▁outer	-11.788
▁shanghai	-11.788
▁umbrella	-11.788
▁absence	-11.788
▁winkler	-11.788
largest	-11.7891
▁autops	-11.7891
▁sadness	-11.7899
▁strict	-11.7912
▁jeann	-11.7916
▁lili	-11.792
▁chidduck	-11.7923
▁cramp	-11.7924
▁loneliness	-11.7924
▁hypothetical	-11.7925
▁holly	-11.7928
▁ou	-11.793
▁protector	-11.7934
▁cal	-11.7934
ania	-11.7936
▁barks	-11.7947
▁academ	-11.7949
iness	-11.795
▁resolve	-11.7952
▁peel	-11.7958
robe	-11.7959
▁dina	-11.7962
soever	-11.7967
▁sphere	-11.7967
▁hunch	-11.7967
nuh	-11.7968
▁ferrari	-11.7968
▁vain	-11.7972
▁fuzzy	-11.7976
▁que	-11.7977
▁juliet	-11.7981
▁drums	-11.7982
▁wile	-11.7986
▁baron	-11.7987
▁suspected	-11.7996
▁convention	-11.8
▁walt	-11.8009
▁yuki	-11.8011
▁pudding	-11.8011
▁dickhead	-11.8012
▁sinner	-11.8012
▁psychological	-11.8013
▁bizarre	-11.8014
▁mansion	-11.8014
▁household	-11.8015
▁replica	-11.8021
▁racist	-11.8022
▁assembly	-11.8022
ington	-11.8024
▁quarantine	-11.8025
cus	-11.8029
▁raja	-11.8035
▁rear	-11.8038
▁ron	-11.8042
▁andrew	-11.8044
▁continu	-11.8045
▁adopt	-11.8054
▁convenient	-11.8055
ahashi	-11.8055
▁mademoiselle	-11.8055
▁entitled	-11.8055
▁democrac	-11.8056
▁regain	-11.8058
▁nell	-11.8059
▁ramir	-11.8059
▁ji	-11.806
▁planets	-11.806
▁trainee	-11.8062
▁hull	-11.8063
▁pint	-11.8072
▁advisor	-11.8073
▁hearst	-11.8079
▁songwrit	-11.8084
rogen	-11.8084
▁gap	-11.8086
him	-11.8088
▁casual	-11.8096
▁glide	-11.8099
▁paranoid	-11.8099
▁association	-11.8099
▁affection	-11.81
▁tango	-11.8103
hattan	-11.8115
▁warp	-11.8119
▁collapse	-11.8125
rnau	-11.8126
▁stefan	-11.8136
▁celebrit	-11.8144
▁maneuver	-11.8144
▁supervisor	-11.8144
▁rifle	-11.8144
▁hesitate	-11.8144
▁cellar	-11.8146
▁organize	-11.8149
▁relay	-11.8156
▁pickle	-11.8157
▁isert	-11.8163
▁stor	-11.8176
▁messy	-11.8179
▁rival	-11.8182
▁courtesy	-11.8189
▁diar	-11.819
▁rally	-11.8194
▁withdraw	-11.8194
▁cartel	-11.8195
▁briefing	-11.8196
▁aisle	-11.8196
▁quid	-11.8198
oya	-11.8202
▁deadline	-11.8202
▁publisher	-11.8208
ojo	-11.8212
zy	-11.8213
▁maniac	-11.8214
▁gretch	-11.8217
▁walkin	-11.8219
▁promis	-11.8222
▁bluff	-11.8224
▁produced	-11.823
▁certificate	-11.8233
▁consent	-11.8233
▁kinc	-11.8234
▁violation	-11.8234
▁leadership	-11.8235
▁peppi	-11.8247
▁positions	-11.8248
▁lust	-11.8248
▁isolate	-11.825
▁cleans	-11.8251
amara	-11.8252
▁semi	-11.8258
▁covering	-11.8263
▁failing	-11.8267
▁activate	-11.8277
▁athlete	-11.8278
▁mermaid	-11.8278
▁conspirac	-11.8278
▁december	-11.8279
▁spook	-11.8279
▁sidewalk	-11.828
▁collective	-11.828
▁maiden	-11.8284
▁clerk	-11.8285
▁stevens	-11.8288
▁types	-11.8291
ii	-11.8292
▁dink	-11.8294
was	-11.8294
▁wrestler	-11.8295
hook	-11.8301
▁critic	-11.8304
▁gile	-11.8306
now	-11.8314
▁toss	-11.8314
▁verdict	-11.8323
▁triumph	-11.8324
▁brazilian	-11.8324
▁applaud	-11.8324
▁fluid	-11.8326
itude	-11.8326
addy	-11.8331
▁wrinkle	-11.8341
ated	-11.8342
▁sch	-11.8344
ther	-11.8351
eka	-11.8357
▁umm	-11.8357
▁dunn	-11.8357
▁hawaii	-11.8367
▁klump	-11.8369
▁singapore	-11.8369
▁thunderclap	-11.8369
▁couid	-11.8369
▁sittin	-11.8369
▁elect	-11.8371
▁oo	-11.8373
▁returns	-11.8375
▁meetings	-11.8375
▁passage	-11.8377
▁compt	-11.8383
▁companion	-11.8392
ze	-11.8401
▁invit	-11.8414
▁delusion	-11.8415
▁substance	-11.8415
▁underworld	-11.8415
▁workshop	-11.8416
▁legac	-11.8417
▁ape	-11.8423
▁repay	-11.8427
▁anson	-11.8436
▁motherfuck	-11.8438
▁yah	-11.844
▁moo	-11.8441
rizon	-11.8454
kiss	-11.8454
stream	-11.8455
▁coup	-11.846
▁satisfaction	-11.846
▁elaine	-11.8462
▁lump	-11.8464
▁ducks	-11.8465
mit	-11.8467
▁nichol	-11.8474
▁preliminary	-11.8475
▁bugg	-11.8477
za	-11.8477
lene	-11.8484
▁erase	-11.8487
▁nico	-11.8488
▁tok	-11.849
▁rach	-11.849
▁pronounce	-11.8493
▁risky	-11.8502
▁necessari	-11.8507
jo	-11.8516
▁isabel	-11.8517
▁bleach	-11.852
▁milo	-11.8521
▁missy	-11.8529
ttle	-11.8537
▁harvest	-11.8546
▁paula	-11.8553
▁rupee	-11.8553
▁transplant	-11.8553
▁rosebud	-11.8553
▁felon	-11.8553
▁blockade	-11.8554
▁swamp	-11.8554
▁zini	-11.8554
▁amazon	-11.8555
▁eyeball	-11.8557
▁nanny	-11.856
▁enchant	-11.8561
▁sanit	-11.8563
ide	-11.8565
▁demands	-11.8572
▁daylight	-11.8573
▁clip	-11.8579
▁susana	-11.8584
▁undress	-11.8589
▁swell	-11.8596
drake	-11.8596
▁administration	-11.8599
▁disrespect	-11.8599
▁creek	-11.86
▁yankee	-11.86
▁racket	-11.86
▁linen	-11.8602
▁wagon	-11.8602
▁packet	-11.8608
▁rubb	-11.8608
▁ota	-11.8609
▁jay	-11.8611
▁dispatch	-11.8614
▁fatal	-11.8616
▁rattl	-11.8618
▁glue	-11.8621
▁fries	-11.8623
▁dearest	-11.8624
▁ashes	-11.8631
▁leviathan	-11.8646
▁licence	-11.8646
▁marble	-11.8646
▁sophisticate	-11.8646
▁filling	-11.8646
▁disappointment	-11.8647
▁funky	-11.8648
▁hoist	-11.865
▁tumbler	-11.8651
▁reporters	-11.8652
▁marc	-11.8653
▁gran	-11.8656
speed	-11.8659
▁olive	-11.8661
▁hab	-11.8662
▁pine	-11.8663
▁ridge	-11.8665
▁blar	-11.867
▁prior	-11.8672
▁cuff	-11.8672
▁acknowledge	-11.8679
▁dome	-11.8679
owitz	-11.868
▁australia	-11.8688
▁prospect	-11.8693
▁identification	-11.8695
▁preacher	-11.8698
▁adore	-11.87
▁cleo	-11.8701
▁hereby	-11.8704
▁divide	-11.8708
▁assist	-11.8711
▁guardian	-11.8715
ammy	-11.8717
▁define	-11.8721
▁yan	-11.8727
▁tactic	-11.8728
▁sandwiche	-11.8728
▁divers	-11.8732
dental	-11.874
▁therapist	-11.874
▁portal	-11.8746
▁attacks	-11.8746
▁luca	-11.8748
▁crop	-11.8753
▁wick	-11.8759
▁unto	-11.8761
▁las	-11.877
▁jr	-11.8777
▁gloucester	-11.8788
mighty	-11.8789
▁text	-11.879
▁pawn	-11.8793
▁frell	-11.8795
▁fears	-11.8796
▁beau	-11.88
▁erm	-11.8805
years	-11.8815
▁kwan	-11.8818
▁discharge	-11.8821
▁disgust	-11.8823
▁zolt	-11.8826
▁crawford	-11.8835
▁conceive	-11.8836
▁sector	-11.8836
▁arrival	-11.8836
▁merchant	-11.8837
▁consciousness	-11.8837
▁authoriz	-11.8837
▁burger	-11.8839
▁anod	-11.8848
made	-11.8849
▁academic	-11.8855
ore	-11.8859
▁info	-11.8861
▁lyrics	-11.8861
mouth	-11.8863
▁realm	-11.8865
▁pow	-11.8865
▁misunderstand	-11.8873
▁discovery	-11.8875
will	-11.8877
▁prettie	-11.8879
▁pratt	-11.888
▁gin	-11.8881
▁tomb	-11.8881
▁practic	-11.8882
▁lobby	-11.8883
▁install	-11.8883
▁operator	-11.8883
▁janitor	-11.8883
▁beggar	-11.8884
▁altitude	-11.8884
▁barbarian	-11.8884
▁masterpiece	-11.8884
▁investigator	-11.8885
iana	-11.8885
▁yasmin	-11.8886
▁convert	-11.8887
▁bandage	-11.8889
▁avoiding	-11.8889
▁invincible	-11.8889
▁ph	-11.8892
tion	-11.8899
▁drops	-11.8901
▁salvage	-11.8903
▁chancell	-11.8904
▁encourage	-11.8904
ach	-11.8908
▁freezer	-11.8909
▁chased	-11.8909
▁molest	-11.891
▁yam	-11.892
▁leela	-11.8922
▁cuban	-11.8923
▁snort	-11.8923
▁brandy	-11.893
▁flop	-11.893
▁luxur	-11.8932
▁infinite	-11.8935
▁wandering	-11.8937
▁maker	-11.8939
▁valve	-11.894
▁monaster	-11.8941
▁demonstrate	-11.8944
▁massacre	-11.8951
▁proved	-11.8951
▁juda	-11.8952
▁stereo	-11.8953
▁invade	-11.8963
▁kicks	-11.8966
▁rosa	-11.897
lock	-11.8974
▁lobster	-11.8979
▁razor	-11.898
▁hump	-11.8983
▁charter	-11.8987
ho	-11.8992
▁bein	-11.8998
▁forthe	-11.8998
▁rue	-11.9001
▁americ	-11.9004
fk	-11.9007
led	-11.9014
▁contribute	-11.9015
▁trans	-11.9016
▁pac	-11.9022
▁inmate	-11.9023
▁affirmati	-11.9024
▁inflict	-11.9027
▁swedish	-11.9028
▁hilarious	-11.9028
▁huddle	-11.9028
▁disconnect	-11.9029
▁disk	-11.9029
▁carmela	-11.903
▁prowler	-11.903
▁mandy	-11.9032
▁unnecessary	-11.9033
▁branch	-11.9033
▁seas	-11.9035
▁bully	-11.9041
risten	-11.9043
▁heroic	-11.9052
▁remy	-11.9054
▁mechanic	-11.9055
▁martini	-11.9059
▁jaro	-11.906
▁darlin	-11.9069
▁intercept	-11.9076
▁neglect	-11.9077
▁essence	-11.9077
▁relentless	-11.9077
▁clark	-11.9077
▁kuba	-11.908
▁presentation	-11.9085
▁drunken	-11.9092
▁carat	-11.9092
▁dragg	-11.9095
▁explod	-11.9098
▁nutt	-11.9099
▁col	-11.91
▁wars	-11.9102
▁ankle	-11.9106
▁engage	-11.911
▁kidnap	-11.911
▁banker	-11.9113
lng	-11.9119
▁committ	-11.9123
▁owners	-11.9123
▁neel	-11.9124
▁metre	-11.9124
▁brittan	-11.9125
▁stammer	-11.9126
▁strung	-11.9126
▁hyah	-11.9126
lai	-11.9126
▁disposal	-11.9126
▁nietzschean	-11.9127
▁intellectual	-11.9127
▁furious	-11.9128
▁gently	-11.913
▁finance	-11.913
▁remo	-11.9146
▁donation	-11.9147
▁norman	-11.9151
▁debate	-11.9152
▁mini	-11.9157
▁soo	-11.9161
▁penn	-11.9161
▁probe	-11.9166
penalty	-11.9166
▁mock	-11.9168
▁aha	-11.9168
master	-11.9169
adele	-11.9169
▁humanit	-11.917
jung	-11.9171
▁cecil	-11.9173
▁dove	-11.9174
▁intent	-11.9174
▁kettle	-11.9175
▁rogue	-11.9175
▁addresse	-11.9179
ola	-11.9179
▁livin	-11.918
▁specialist	-11.9185
bodies	-11.9186
get	-11.9191
got	-11.9195
▁bur	-11.9199
▁initiate	-11.92
▁wo	-11.9202
▁anxiet	-11.9225
▁neighbourhood	-11.9225
▁announcement	-11.9226
▁pei	-11.9228
▁casualt	-11.9229
▁mae	-11.923
▁setup	-11.9231
▁quest	-11.9234
▁checks	-11.9235
▁thighs	-11.9235
▁sip	-11.9236
itage	-11.9242
▁fl	-11.9257
▁clearing	-11.9261
kova	-11.9263
▁fog	-11.9273
▁maestro	-11.9275
▁morocc	-11.9277
▁roo	-11.928
▁assured	-11.9283
▁au	-11.9284
▁ivan	-11.9287
▁sonny	-11.9289
▁oooh	-11.93
▁anders	-11.93
llivan	-11.9306
▁oppos	-11.9307
bound	-11.9309
▁mic	-11.9309
▁slim	-11.9316
▁cutter	-11.932
▁onion	-11.9322
▁thread	-11.9325
▁blackmail	-11.9325
▁sworn	-11.9326
▁logan	-11.9327
▁continental	-11.9327
▁chuckie	-11.9329
▁yi	-11.9332
▁madonn	-11.9332
▁911	-11.9334
▁hike	-11.9334
▁crippl	-11.9335
vous	-11.9335
▁120	-11.9336
▁standby	-11.934
apped	-11.9341
corporate	-11.9342
▁kindness	-11.9347
▁blam	-11.9351
▁comm	-11.9353
lightyear	-11.9359
▁rash	-11.937
▁annoy	-11.9371
▁fiend	-11.9373
▁confront	-11.9374
▁prescription	-11.9375
▁octonal	-11.9375
gt	-11.9375
▁receipt	-11.9375
▁thanksgiving	-11.9376
▁obsession	-11.9376
▁regional	-11.9377
▁strawberr	-11.9378
▁bathe	-11.938
▁tess	-11.9381
▁hooker	-11.9385
▁lauren	-11.9388
planned	-11.9389
▁technologie	-11.9392
exas	-11.9393
▁claw	-11.9394
▁jox	-11.9401
lo	-11.9402
▁choos	-11.9406
▁brut	-11.9413
▁historical	-11.9413
▁defensive	-11.9413
▁mont	-11.9415
artel	-11.9419
▁corporation	-11.9425
▁arsehole	-11.9425
▁vague	-11.9425
▁salmon	-11.9425
▁curiosit	-11.9426
▁salary	-11.9427
▁detector	-11.9427
▁negotiation	-11.9427
▁stump	-11.9428
▁huber	-11.943
▁psych	-11.9435
▁wav	-11.9442
▁wiped	-11.9445
▁cryin	-11.9453
▁howl	-11.9455
▁cass	-11.9462
uba	-11.9465
▁raj	-11.9465
▁mare	-11.9468
sboro	-11.9469
if	-11.9472
row	-11.9472
▁extract	-11.9475
▁orphan	-11.9475
▁blossom	-11.9476
▁gammel	-11.9476
▁departure	-11.9476
▁slapp	-11.9477
wallop	-11.948
▁resort	-11.9482
▁dixie	-11.9483
▁scanner	-11.9489
moto	-11.949
▁owed	-11.9494
▁timer	-11.9494
▁ere	-11.9498
▁cooper	-11.9504
▁starr	-11.9509
dith	-11.9511
nce	-11.9512
▁claimed	-11.9515
▁bulls	-11.9524
▁worrying	-11.9526
▁freakin	-11.9527
▁millennium	-11.9527
▁nishizon	-11.9527
▁taiwan	-11.9527
▁vo	-11.9528
▁destroyer	-11.9531
▁oser	-11.9533
▁participate	-11.9538
▁stat	-11.9543
▁undo	-11.9543
▁guessing	-11.955
▁ada	-11.9553
▁argh	-11.956
▁cere	-11.9562
▁mikag	-11.9569
▁sperm	-11.9576
▁malfunction	-11.9578
▁ceiling	-11.9578
quantum	-11.9578
▁cornwall	-11.9579
▁esteem	-11.9579
▁madison	-11.958
▁occupie	-11.9581
▁dicks	-11.9582
▁promotion	-11.9582
▁partial	-11.9585
ansk	-11.9588
▁stitche	-11.9589
▁scann	-11.9592
▁altered	-11.9592
▁chili	-11.9594
▁grove	-11.9597
▁limp	-11.9598
▁tina	-11.9599
▁bouch	-11.9599
moses	-11.9603
ass	-11.9605
▁1000	-11.961
▁reese	-11.9613
▁198	-11.9614
ino	-11.9616
sis	-11.9616
mont	-11.9621
▁filming	-11.9624
opie	-11.9629
▁ecsta	-11.963
▁blunt	-11.963
▁proposition	-11.963
cleod	-11.963
▁peep	-11.963
▁jabber	-11.963
▁essay	-11.963
▁humour	-11.963
du	-11.9634
▁dip	-11.9635
ome	-11.9635
▁porch	-11.9636
▁attendant	-11.9637
▁haul	-11.9638
▁dani	-11.9639
▁slash	-11.9642
rryl	-11.9644
fish	-11.9644
▁pep	-11.9647
▁simone	-11.9648
▁burt	-11.9655
▁roz	-11.9659
▁antique	-11.966
▁strangle	-11.9662
▁update	-11.9665
▁sentimental	-11.9666
ins	-11.9668
▁graceful	-11.9671
▁gardener	-11.9674
iko	-11.9677
▁seventeen	-11.9682
▁psychiatric	-11.9683
▁shinji	-11.9683
▁volvo	-11.9683
▁nitro	-11.9684
▁panty	-11.9685
harvey	-11.9686
▁foam	-11.9686
▁outstanding	-11.969
worth	-11.9691
ru	-11.9696
▁careless	-11.9696
bar	-11.9702
itch	-11.9704
▁chu	-11.9706
▁fires	-11.9709
▁starter	-11.9712
cq	-11.9714
▁para	-11.9715
98	-11.9719
▁mcn	-11.972
▁assumed	-11.9724
▁brit	-11.9725
▁aspect	-11.9734
▁grenade	-11.9734
▁increasing	-11.9734
▁handcuff	-11.9734
▁cond	-11.9738
ade	-11.974
▁wig	-11.974
elia	-11.9744
▁receiv	-11.9753
ood	-11.9761
ado	-11.9766
▁swede	-11.9766
▁schools	-11.9767
▁pursu	-11.977
▁injection	-11.9772
▁comedy	-11.9775
▁naive	-11.9776
▁unlock	-11.9785
▁fitz	-11.9786
▁civilisation	-11.9786
▁flaw	-11.9786
▁infinity	-11.9787
▁kyung	-11.9787
▁translation	-11.9787
▁classified	-11.9789
▁pover	-11.9789
▁waist	-11.9789
▁tips	-11.979
inha	-11.9794
▁presto	-11.9795
▁reign	-11.9796
▁crook	-11.9799
▁treaty	-11.9805
kin	-11.9807
▁diner	-11.981
▁sleepy	-11.9811
ila	-11.9816
▁puke	-11.9817
▁renew	-11.9821
▁iris	-11.9824
nder	-11.9827
▁chic	-11.9828
hill	-11.9835
people	-11.9836
▁climber	-11.9838
▁oscar	-11.9839
▁conviction	-11.9839
▁zipper	-11.984
license	-11.9841
▁vulgar	-11.9842
▁vast	-11.9845
▁rapidly	-11.9845
▁discussing	-11.9848
mination	-11.986
▁cosmo	-11.9867
▁growth	-11.9867
▁marina	-11.9871
▁frightening	-11.9875
▁94	-11.9875
▁thumbs	-11.9879
▁evans	-11.9882
▁shorter	-11.9887
▁korea	-11.9888
▁flap	-11.9889
▁evolution	-11.9891
▁ministr	-11.9892
▁cinna	-11.9892
▁rumour	-11.9892
▁typewriter	-11.9892
▁puert	-11.9893
▁jon	-11.99
▁bearing	-11.9902
▁swords	-11.9903
▁formation	-11.9904
▁kidnapper	-11.9911
▁sober	-11.9915
▁lasse	-11.9923
▁disable	-11.9925
▁wong	-11.9927
▁teenage	-11.9939
▁carniv	-11.9939
▁tolerate	-11.994
▁rita	-11.9944
▁concrete	-11.9945
▁reindeer	-11.9945
▁vodka	-11.9945
▁slab	-11.9945
▁stabbed	-11.9945
▁refrigerator	-11.9945
dermot	-11.9945
▁symbiote	-11.9945
▁jumbo	-11.9946
▁chatt	-11.9947
▁magician	-11.9947
▁jai	-11.995
ori	-11.9951
▁thoughtful	-11.9952
▁zee	-11.9952
▁91	-11.9953
tcha	-11.9957
know	-11.9965
▁killers	-11.9974
▁hallowe	-11.9982
▁venture	-11.9983
ieu	-11.9984
▁comeback	-11.9987
hold	-11.9987
▁addition	-11.9991
▁urge	-11.9992
▁auction	-11.9995
▁romania	-11.9995
▁corridor	-11.9998
▁extension	-11.9998
▁blair	-11.9998
les	-11.9998
▁overreact	-11.9999
▁castro	-11.9999
▁heartbeat	-12
▁sinatr	-12
▁finals	-12
▁hoff	-12.0001
▁villain	-12.0002
▁tyson	-12.0004
ver	-12.0013
▁suspended	-12.002
▁jez	-12.002
▁bothers	-12.0021
mo	-12.0022
▁typ	-12.0025
▁scramble	-12.0029
▁springs	-12.0029
space	-12.0031
ging	-12.0032
ff	-12.0035
titude	-12.0042
▁hocke	-12.0043
essa	-12.0043
▁disc	-12.0044
▁firework	-12.0051
▁exhibit	-12.0051
▁dragons	-12.0051
▁antenna	-12.0052
ustin	-12.0052
▁petra	-12.0055
▁merciful	-12.0056
▁brownie	-12.0056
▁poke	-12.0059
▁sufficient	-12.0059
▁roro	-12.0063
▁hamburger	-12.0065
ntact	-12.0072
tith	-12.0077
thing	-12.0082
▁physic	-12.0082
dies	-12.0084
▁rode	-12.0085
▁tossed	-12.0085
▁masse	-12.0087
aux	-12.009
blouse	-12.0092
▁93	-12.0096
▁giovanni	-12.0106
▁pencil	-12.0106
▁foster	-12.0106
▁errand	-12.0106
▁savage	-12.0106
ain	-12.0111
▁kell	-12.0116
▁rum	-12.0119
abouts	-12.0121
▁grande	-12.0121
▁crow	-12.0124
▁dex	-12.013
▁bolt	-12.0134
▁rider	-12.0135
▁convicted	-12.0137
nit	-12.0137
eema	-12.0138
box	-12.0141
▁refer	-12.0143
caine	-12.0155
▁era	-12.0156
▁plott	-12.0157
▁priy	-12.0158
▁pregnancy	-12.0162
▁carrot	-12.0162
▁ronald	-12.0164
▁shameless	-12.0166
▁objective	-12.0166
▁reply	-12.0167
▁cope	-12.0171
▁catastrophe	-12.0178
▁martyr	-12.0179
▁atta	-12.0196
▁choi	-12.0201
▁rizz	-12.0203
mah	-12.0205
ol	-12.0211
gar	-12.0213
▁expedition	-12.0215
▁mcgui	-12.0215
▁ounce	-12.0215
▁database	-12.0215
▁brothel	-12.0215
▁piglet	-12.0215
▁consume	-12.0216
▁overlook	-12.0216
▁midget	-12.0219
▁characteristic	-12.022
▁dork	-12.022
▁explore	-12.0224
stock	-12.023
dding	-12.0231
▁tops	-12.0234
▁sewer	-12.0239
▁mecca	-12.0243
▁institute	-12.0244
hat	-12.0244
▁satch	-12.0251
▁roads	-12.0256
▁cripple	-12.0259
▁ni	-12.026
▁pursue	-12.0262
▁redhead	-12.0262
▁swis	-12.0269
▁exotic	-12.027
▁cosy	-12.027
▁gulf	-12.027
▁ribbon	-12.0271
▁dutch	-12.0271
wock	-12.0274
▁settl	-12.0283
▁saddle	-12.0283
lazar	-12.0291
▁bio	-12.0293
▁foreigner	-12.0293
asan	-12.0295
ayan	-12.0305
▁outsider	-12.0305
▁genes	-12.0306
oux	-12.0306
▁ag	-12.031
▁verge	-12.0316
ek	-12.0319
reem	-12.032
▁spectator	-12.0325
▁patent	-12.0325
▁confidential	-12.0326
▁transformation	-12.0326
▁agenda	-12.0326
▁primitiv	-12.0326
▁bount	-12.0326
bc	-12.0329
▁garment	-12.0332
▁pastor	-12.0334
▁barge	-12.0337
▁coordinates	-12.0338
▁dummy	-12.0338
▁pedal	-12.0338
▁hitch	-12.0344
▁paw	-12.0348
▁judges	-12.035
▁restless	-12.035
burn	-12.0353
▁cola	-12.0354
▁label	-12.0357
▁surrounding	-12.0358
▁cher	-12.036
nson	-12.0361
▁bain	-12.0363
▁proven	-12.0363
▁buckle	-12.0365
▁slick	-12.0366
▁pals	-12.0368
▁buster	-12.0369
▁strippe	-12.0371
jana	-12.0372
raju	-12.0378
▁sophomore	-12.0381
▁registration	-12.0381
▁concentration	-12.0381
▁abortion	-12.0381
▁graphic	-12.0384
▁turf	-12.0384
▁groov	-12.0384
wealth	-12.0386
▁courthouse	-12.0386
▁microt	-12.0388
▁consideration	-12.0388
▁bonus	-12.0389
▁ax	-12.0392
▁crane	-12.0392
ardo	-12.0395
▁redeem	-12.0396
▁thor	-12.04
▁trader	-12.0405
▁sneeze	-12.0405
lb	-12.0419
▁agh	-12.0421
chi	-12.0432
▁deception	-12.0437
▁hollow	-12.0437
▁bartlet	-12.0437
▁sahib	-12.0437
▁cofi	-12.0437
▁conceal	-12.0437
▁throttle	-12.0438
▁yahoo	-12.0438
▁bathing	-12.0439
shit	-12.0451
20	-12.0454
paid	-12.0457
▁edg	-12.0458
▁ros	-12.0459
▁fumble	-12.046
▁significant	-12.0461
▁presume	-12.0465
sako	-12.047
stage	-12.0471
oul	-12.0474
▁variet	-12.048
▁beings	-12.0484
▁ace	-12.0486
▁blues	-12.0487
▁examin	-12.0488
▁thirteen	-12.0493
▁unpleasant	-12.0493
▁cricket	-12.0493
▁shriek	-12.0494
▁bartender	-12.0494
▁pipeline	-12.0494
sunrise	-12.0494
▁schna	-12.0495
▁coal	-12.0496
▁crick	-12.0496
▁sullie	-12.0497
▁mis	-12.0497
▁terminate	-12.0499
▁pul	-12.0503
lly	-12.0504
▁strap	-12.0506
▁vagina	-12.0508
▁plead	-12.0508
▁appointed	-12.0513
dale	-12.0529
▁92	-12.0533
▁sources	-12.0536
▁fellows	-12.0541
▁topic	-12.0543
▁glimpse	-12.0549
▁opponent	-12.0549
▁quadrant	-12.0549
▁jaguar	-12.0549
▁sapphire	-12.0549
▁quack	-12.0549
▁banquet	-12.055
▁holme	-12.0551
▁verse	-12.0551
▁classmate	-12.0561
gh	-12.0566
▁gown	-12.0569
▁butyou	-12.0576
▁warmer	-12.0582
suke	-12.0588
▁dar	-12.0588
▁jorge	-12.0589
▁celesti	-12.0598
▁constitution	-12.0598
ok	-12.0599
▁troll	-12.0602
mett	-12.0606
▁observation	-12.0607
▁carpenter	-12.0607
▁lawsuit	-12.0608
▁cackl	-12.061
begged	-12.0613
▁mustang	-12.0614
ipped	-12.0617
▁earning	-12.0622
▁preach	-12.0625
▁spots	-12.0631
25	-12.0633
nos	-12.0644
ni	-12.0647
▁rhyme	-12.0658
▁manifest	-12.0662
rst	-12.0663
og	-12.0663
▁deliberate	-12.0663
▁pharmaceutical	-12.0663
▁timothy	-12.0663
▁starburst	-12.0663
▁merchandis	-12.0664
▁hamlet	-12.0664
▁ruthless	-12.0664
▁altar	-12.0665
▁zombie	-12.0666
▁hassan	-12.0667
▁spaceship	-12.0667
▁revealed	-12.0669
▁shibby	-12.067
▁authentic	-12.0674
▁asset	-12.0675
▁challeng	-12.0677
▁nebula	-12.068
▁fracture	-12.0683
▁mauric	-12.0684
▁transmit	-12.0687
▁yar	-12.0713
duce	-12.0719
▁contempt	-12.0721
▁marvelous	-12.0721
▁yacht	-12.0721
▁lemonade	-12.0722
▁scratching	-12.0723
▁kam	-12.0725
▁gracious	-12.0729
▁rookie	-12.0731
▁vivian	-12.0735
▁wealthy	-12.0736
noring	-12.0742
▁valid	-12.0751
ki	-12.0754
▁megan	-12.0755
▁pry	-12.0761
▁milton	-12.0767
▁asian	-12.0769
▁twi	-12.0776
▁lighten	-12.0777
▁carnotaur	-12.0779
▁guinea	-12.0779
▁anchor	-12.0779
▁crucial	-12.0779
▁radical	-12.078
▁purit	-12.078
▁diane	-12.0781
▁slug	-12.0782
▁myth	-12.0782
gates	-12.0783
▁attraction	-12.0785
bo	-12.0793
gen	-12.0797
▁ethic	-12.0797
▁mild	-12.0799
▁oppose	-12.0801
▁athen	-12.0801
▁strangled	-12.0813
▁tutor	-12.0814
▁spank	-12.082
▁salon	-12.0821
▁cue	-12.0821
drip	-12.0825
iscons	-12.0827
▁chor	-12.0831
▁morphin	-12.0831
▁sesame	-12.0837
▁enlist	-12.0837
▁recite	-12.0838
▁terrifying	-12.0838
▁molly	-12.084
▁scumbag	-12.0841
▁pose	-12.0842
▁dagger	-12.0843
▁repent	-12.0845
▁selection	-12.0847
▁kake	-12.0847
inevitable	-12.0848
▁tomas	-12.0851
▁restricted	-12.0853
ntz	-12.0853
▁remi	-12.0862
days	-12.0864
▁ke	-12.0874
▁yay	-12.0874
▁je	-12.0878
ba	-12.0878
▁beatle	-12.0882
▁kati	-12.0884
▁lever	-12.0891
retired	-12.0894
▁fundamental	-12.0895
▁grabbing	-12.0896
▁fierce	-12.0896
▁dim	-12.0898
▁hercule	-12.0903
▁friggin	-12.0908
addie	-12.0911
▁110	-12.0911
▁trish	-12.0918
▁porter	-12.0922
▁innocen	-12.0928
▁memo	-12.093
▁kat	-12.0931
adly	-12.0932
▁grants	-12.0935
▁multi	-12.0936
▁jamaica	-12.0951
▁mcgill	-12.0954
▁shirley	-12.0954
▁cattle	-12.0955
▁achievement	-12.0956
▁launched	-12.0959
▁overwhelm	-12.0959
▁whitey	-12.0961
▁fabric	-12.0967
▁duel	-12.0968
▁teen	-12.0973
▁dolls	-12.0974
▁husk	-12.0992
lipping	-12.0992
▁kidney	-12.0992
▁insight	-12.1003
▁sled	-12.1004
▁touchy	-12.1007
▁souvenir	-12.101
▁cultural	-12.1013
▁gopher	-12.1013
▁reunion	-12.1013
▁barrack	-12.1013
▁module	-12.1013
▁equipped	-12.1014
▁cloak	-12.1014
▁behold	-12.1014
▁sanders	-12.102
▁lsland	-12.102
woman	-12.1022
▁hawk	-12.1025
▁refined	-12.1026
▁sting	-12.1028
▁drifter	-12.1034
▁ammo	-12.1035
▁layer	-12.1045
▁corps	-12.1053
tv	-12.1054
▁heartless	-12.1054
▁untie	-12.1057
▁burmes	-12.1062
▁ramon	-12.1064
▁hamp	-12.1066
▁ohio	-12.1071
▁obedien	-12.1073
▁snicker	-12.1073
▁compassion	-12.1073
▁spa	-12.1073
▁disregard	-12.1073
▁galler	-12.1074
▁motorcycle	-12.1075
haved	-12.1078
wife	-12.1082
▁avn	-12.1085
▁erv	-12.1087
ana	-12.1092
unbearable	-12.1094
▁exhaust	-12.1095
oo	-12.1099
▁oblige	-12.1101
▁whores	-12.1104
▁roller	-12.1106
▁origin	-12.111
▁accord	-12.1121
▁dur	-12.1123
▁trainer	-12.1123
▁kneel	-12.1123
jean	-12.113
▁suri	-12.1132
▁miraculous	-12.1133
▁rainbow	-12.1133
▁lama	-12.1137
▁greenhouse	-12.1138
▁truthful	-12.1138
tation	-12.1141
▁suite	-12.1142
▁hideous	-12.1144
oval	-12.1146
▁fil	-12.1151
▁decline	-12.1165
dtime	-12.1167
▁onboard	-12.1167
▁hiya	-12.1169
▁willie	-12.1169
elite	-12.1172
children	-12.1173
uston	-12.1178
gb	-12.1182
▁madi	-12.1187
uese	-12.119
▁defect	-12.1191
nny	-12.1192
▁tickle	-12.1192
▁marguerit	-12.1193
▁seminar	-12.1193
▁admission	-12.1193
eventh	-12.1193
▁mew	-12.1197
▁dreadful	-12.1197
▁invention	-12.1199
▁kitten	-12.1199
▁jian	-12.1204
▁outlaw	-12.1208
▁caf	-12.1209
ged	-12.1221
▁pasta	-12.1222
▁hu	-12.1227
▁wool	-12.1236
▁kiddin	-12.1253
sylvania	-12.1253
▁profound	-12.1253
▁taxe	-12.1256
▁liam	-12.1256
▁naval	-12.1256
▁choir	-12.1258
▁scht	-12.1259
▁dodger	-12.1261
▁sasa	-12.1261
dom	-12.1263
grateful	-12.1263
together	-12.1263
▁daring	-12.1269
▁liking	-12.1269
manda	-12.1269
▁fitting	-12.1272
▁headline	-12.128
biology	-12.1283
▁grim	-12.1287
▁tuna	-12.1288
▁quad	-12.129
vana	-12.1293
▁ell	-12.1301
▁clapp	-12.1301
▁apparent	-12.1306
▁distinguish	-12.1307
power	-12.131
▁prop	-12.1313
▁prob	-12.1314
▁trump	-12.1314
▁canadian	-12.1314
▁earthquake	-12.1314
▁manuscript	-12.1314
▁enkaran	-12.1315
▁cunning	-12.1315
▁venus	-12.1315
▁thug	-12.1319
▁posted	-12.1323
▁breakdown	-12.1326
▁resign	-12.1326
▁dew	-12.1327
▁fidel	-12.1328
▁roberts	-12.1329
ology	-12.1331
▁troubled	-12.1332
▁coordinat	-12.1333
▁gus	-12.1333
▁shag	-12.1338
▁advis	-12.1341
tan	-12.1342
iranda	-12.1345
king	-12.135
▁lang	-12.135
chester	-12.135
▁alternate	-12.1355
▁tek	-12.1358
▁llbe	-12.1359
▁awaken	-12.136
▁idol	-12.1365
▁trooper	-12.1368
▁hassle	-12.1369
▁dauphin	-12.1376
▁kilometre	-12.1376
▁obtain	-12.1376
▁psychiatrist	-12.1376
▁solomon	-12.1376
▁obligation	-12.1376
▁fritz	-12.1378
▁drummer	-12.138
▁cupboard	-12.138
▁locks	-12.1383
ita	-12.1394
▁integr	-12.1395
▁za	-12.1399
▁playful	-12.1404
▁ankles	-12.1405
▁tramp	-12.1408
▁cooperati	-12.142
▁assess	-12.1428
▁tropic	-12.143
▁edis	-12.1431
aline	-12.1433
▁misunderst	-12.1437
▁scissor	-12.1437
▁rahul	-12.1437
▁perimeter	-12.1438
▁eighteen	-12.1438
▁approximate	-12.1438
▁sympathetic	-12.1439
▁boiiing	-12.1441
▁nude	-12.1449
▁mute	-12.145
▁executioner	-12.1451
ernie	-12.1454
▁connie	-12.1456
▁baba	-12.1456
▁ants	-12.1458
▁haw	-12.1459
▁pm	-12.146
▁duct	-12.1462
▁drape	-12.1464
▁kilometers	-12.1469
▁flay	-12.1473
ri	-12.1473
▁owl	-12.1475
▁getaway	-12.1475
▁improvise	-12.1475
▁gr	-12.1476
▁tito	-12.1476
▁bu	-12.1478
▁rollin	-12.1482
▁homeland	-12.1483
▁shaving	-12.1486
from	-12.1487
▁dahl	-12.1493
lask	-12.1494
▁tenth	-12.1495
▁splendid	-12.15
▁lethal	-12.15
▁blubber	-12.15
mmunity	-12.15
▁corruption	-12.1501
eated	-12.1501
▁cellular	-12.1505
▁interior	-12.1505
▁burglar	-12.1505
▁wanda	-12.1508
▁pizzas	-12.1511
▁booth	-12.1512
▁wretched	-12.1514
▁batch	-12.1517
de	-12.1517
▁thesis	-12.1526
44	-12.1527
ster	-12.1536
▁compos	-12.1547
▁stroll	-12.1549
▁exclusive	-12.155
▁architect	-12.1551
▁fright	-12.1557
▁jumper	-12.1558
▁paddle	-12.1559
▁orbital	-12.1559
lexx	-12.156
▁drivin	-12.1562
▁hairdresser	-12.1562
▁snarl	-12.1562
▁minivan	-12.1562
▁vishal	-12.1562
▁petula	-12.1562
▁geoff	-12.1562
ell	-12.1562
▁merger	-12.1564
▁rebuild	-12.1564
▁diplomatic	-12.1564
▁pony	-12.1564
▁meatball	-12.1565
▁hazard	-12.1565
▁regardless	-12.1568
▁revolutionar	-12.157
▁robb	-12.1576
▁whipped	-12.1577
▁teammate	-12.1578
▁insanit	-12.1578
▁apop	-12.1579
▁hugh	-12.1582
ram	-12.1586
▁beet	-12.1588
▁invent	-12.1591
▁audio	-12.1592
▁mold	-12.1599
▁lamps	-12.1602
diana	-12.1607
▁suk	-12.161
▁yoshi	-12.1614
▁beeper	-12.1616
▁frost	-12.1622
▁pulp	-12.1623
▁gagg	-12.1625
▁copenhagen	-12.1625
▁deactivate	-12.1625
▁marley	-12.1625
▁sensation	-12.1625
▁unleash	-12.1626
▁chapel	-12.1626
▁sleeve	-12.1627
▁mag	-12.1627
▁arriv	-12.1629
▁chang	-12.163
▁congratulate	-12.163
▁philip	-12.1631
▁fernand	-12.1632
▁bubbl	-12.1632
▁blooded	-12.1633
▁promoter	-12.1633
mind	-12.1635
accept	-12.1637
▁meteor	-12.1638
▁strain	-12.1641
ire	-12.1642
▁authorizatio	-12.1643
▁jona	-12.1647
ord	-12.1649
wain	-12.165
▁braver	-12.1651
istic	-12.1659
▁194	-12.1662
▁toya	-12.1662
▁camill	-12.1664
▁vin	-12.1666
cher	-12.1675
▁rebels	-12.1675
▁gag	-12.1677
▁vulnerab	-12.168
hand	-12.1684
▁egypt	-12.1688
▁baltimor	-12.1688
▁province	-12.1688
▁facial	-12.1688
▁morgue	-12.1688
▁chemist	-12.1688
▁alexander	-12.1689
gi	-12.1689
▁garrison	-12.169
▁runyon	-12.1691
▁involving	-12.1693
play	-12.1705
▁arrogan	-12.1708
▁shipment	-12.1709
llo	-12.1712
▁hunk	-12.1713
▁earring	-12.1715
▁heroin	-12.1725
▁plum	-12.1726
▁execute	-12.1735
▁retrieve	-12.1739
ere	-12.1744
they	-12.1748
▁inspire	-12.1751
▁pheeb	-12.1752
▁redcoat	-12.1752
▁probation	-12.1752
roll	-12.1756
iio	-12.1757
▁settlement	-12.1758
fi	-12.176
witched	-12.1762
▁hector	-12.1763
▁distorted	-12.1763
child	-12.1764
▁hippie	-12.1765
▁kinki	-12.1773
▁poop	-12.1773
▁underway	-12.1776
▁bert	-12.1776
▁ofthis	-12.1777
saw	-12.1778
▁dose	-12.1781
identified	-12.1782
▁incoming	-12.1801
▁stein	-12.1806
50	-12.181
▁auc	-12.1814
▁victoria	-12.1815
▁precinct	-12.1816
▁microphone	-12.1816
▁unluck	-12.1816
▁predator	-12.1817
▁kindergart	-12.1817
▁tribal	-12.1817
▁sinking	-12.1818
▁digital	-12.182
30	-12.1821
▁lovin	-12.1822
▁ethan	-12.1825
▁ciao	-12.1828
▁carved	-12.1828
▁oui	-12.1829
▁freely	-12.183
good	-12.1834
▁digger	-12.1838
ux	-12.1841
eal	-12.1842
▁requesting	-12.1843
▁hookers	-12.1845
▁ohhh	-12.1845
▁karat	-12.1847
▁scope	-12.1849
▁bog	-12.1852
▁nip	-12.1854
nyah	-12.1864
▁recorder	-12.1866
▁thinkyou	-12.1866
lini	-12.1869
ache	-12.1871
▁seld	-12.1873
press	-12.1876
▁mongol	-12.188
▁chrissake	-12.1881
▁shakespeare	-12.1881
ended	-12.1881
▁flare	-12.1884
▁coz	-12.1885
▁vial	-12.1889
ault	-12.1889
▁donate	-12.1891
▁nev	-12.1891
natasha	-12.1893
▁glamoro	-12.1902
pies	-12.191
▁psychos	-12.191
▁dumping	-12.1911
▁fraternit	-12.1912
mi	-12.192
ren	-12.192
▁emergenc	-12.1921
▁slot	-12.1927
eni	-12.1929
▁token	-12.1931
▁gur	-12.1932
▁jama	-12.1937
▁graves	-12.1938
▁killin	-12.1942
▁ralph	-12.1946
▁introduction	-12.1946
▁strand	-12.1946
▁thump	-12.1946
▁examination	-12.1946
▁pillar	-12.1946
▁trance	-12.1946
▁cosmic	-12.1947
bush	-12.1949
▁realistic	-12.1953
▁lui	-12.1955
▁judgement	-12.1955
milton	-12.1965
▁psyche	-12.1969
▁villager	-12.1969
▁belonging	-12.1969
▁wir	-12.1969
▁falcon	-12.1979
▁fled	-12.1988
▁reel	-12.1989
▁lupare	-12.2011
▁astronaut	-12.2011
▁hormone	-12.2011
▁yakuza	-12.2011
▁replicator	-12.2011
▁islamic	-12.2012
welfare	-12.2012
▁jiang	-12.2012
▁labour	-12.2012
▁vista	-12.2012
▁landlord	-12.2013
▁broom	-12.2017
▁zen	-12.2017
▁tendenc	-12.2021
▁inject	-12.2026
▁pia	-12.203
nmark	-12.203
▁aft	-12.203
▁freeway	-12.203
▁bic	-12.2033
▁captioning	-12.2034
▁crapp	-12.2038
▁correction	-12.204
▁hugg	-12.2043
▁bean	-12.2052
▁desperately	-12.2052
ang	-12.2057
▁bangs	-12.2059
advil	-12.2064
▁professors	-12.2065
livia	-12.2066
▁hom	-12.2067
zar	-12.2073
▁hydro	-12.2074
▁poof	-12.2076
▁gel	-12.2076
▁sarcas	-12.2076
▁asylum	-12.2077
▁gigantic	-12.2077
▁specimen	-12.2077
▁pigeon	-12.2077
▁precaution	-12.2077
▁corporal	-12.2077
▁acquaintance	-12.2077
▁luna	-12.2077
▁benke	-12.2078
▁revolt	-12.2078
ought	-12.2079
▁ku	-12.2079
hou	-12.2081
omed	-12.2082
▁bunt	-12.2085
▁karl	-12.2086
▁stir	-12.2086
▁bandit	-12.2086
▁squawk	-12.2087
▁buddha	-12.2089
▁waltz	-12.2094
▁merit	-12.2098
▁acquire	-12.2099
▁litter	-12.21
▁wan	-12.21
▁rosie	-12.2106
▁condemned	-12.2109
▁hub	-12.211
▁gerald	-12.2111
▁rave	-12.2115
▁trumpet	-12.212
▁expectation	-12.2121
ura	-12.2131
ggio	-12.2133
prophecy	-12.2143
▁prophet	-12.2143
▁mascot	-12.2143
▁scroll	-12.2143
▁douglas	-12.2143
▁donut	-12.2144
▁helsing	-12.2144
▁password	-12.2144
▁emilie	-12.2146
pike	-12.2149
▁cours	-12.215
▁grav	-12.2152
laza	-12.2154
▁backyard	-12.2163
▁shameful	-12.2164
arren	-12.2168
▁apples	-12.2169
▁flo	-12.2169
xia	-12.2173
▁performer	-12.2174
▁imagining	-12.2179
▁hangin	-12.2183
▁gram	-12.2184
yn	-12.2186
▁smokes	-12.2191
▁trim	-12.2193
bag	-12.2196
▁tara	-12.2197
▁sha	-12.2209
▁psychologist	-12.221
▁graveyard	-12.221
▁rapist	-12.221
q	-12.2211
▁gypp	-12.2212
▁crisp	-12.2212
▁wudan	-12.2213
idal	-12.2214
▁successor	-12.2214
elves	-12.2215
▁swam	-12.2216
▁whisky	-12.2216
▁ifl	-12.2217
▁camel	-12.2217
▁fare	-12.2219
▁orgasm	-12.222
ostero	-12.2225
▁psycholog	-12.2226
▁lyd	-12.2227
tle	-12.2229
▁appreciati	-12.2234
▁gaze	-12.2234
eum	-12.2237
▁nois	-12.2243
▁kev	-12.2246
▁distress	-12.2248
▁kiri	-12.2251
▁rina	-12.2252
▁cube	-12.2253
▁porsche	-12.2277
▁occupation	-12.2277
▁superintendent	-12.2277
▁ignition	-12.2277
▁sarcastic	-12.2277
▁scotland	-12.2277
▁gaff	-12.2277
▁savior	-12.2277
▁fountain	-12.2277
▁clamp	-12.2278
▁chun	-12.2279
▁lurk	-12.228
▁span	-12.2281
▁eugeni	-12.2281
▁follows	-12.2284
escent	-12.2285
had	-12.2287
▁liabilit	-12.2293
▁lai	-12.2303
▁talia	-12.2309
vald	-12.231
▁vanill	-12.2313
nsign	-12.2317
▁lorel	-12.2319
rc	-12.2322
yourself	-12.2325
bertha	-12.2327
▁submit	-12.2329
▁aaaah	-12.2331
▁tun	-12.2333
13	-12.2336
▁riddle	-12.2337
▁scalp	-12.2344
▁despair	-12.2344
▁legionnaire	-12.2344
▁toothbrush	-12.2344
▁sparrow	-12.2344
▁leash	-12.2344
▁dealership	-12.2345
▁transition	-12.2346
nal	-12.2346
▁weasel	-12.2346
▁perception	-12.2347
▁danish	-12.2348
ammie	-12.235
▁rubin	-12.2357
▁breaker	-12.2359
▁jockey	-12.2362
loane	-12.2364
▁perk	-12.237
▁drip	-12.2376
▁bona	-12.2378
▁philosopher	-12.2382
ela	-12.2385
▁consult	-12.2388
▁kel	-12.2399
▁artistic	-12.2401
▁propos	-12.2407
▁etc	-12.2411
▁evict	-12.2411
▁cuisine	-12.2412
▁harkonnen	-12.2412
▁kramer	-12.2412
▁michigan	-12.2412
▁wimp	-12.2412
▁sensitivit	-12.2412
▁cheque	-12.2413
▁lifestyle	-12.2413
▁shack	-12.2413
▁confine	-12.2415
▁jeep	-12.2415
▁micro	-12.2416
▁treveth	-12.2418
▁cult	-12.2418
▁scooter	-12.2419
youb	-12.2421
weight	-12.2427
▁erik	-12.2429
▁mia	-12.2434
▁gru	-12.244
▁fastest	-12.2446
▁slid	-12.2446
▁explosive	-12.2447
▁gordo	-12.2449
nda	-12.2449
▁attic	-12.2454
▁peri	-12.2455
▁shal	-12.2463
▁manipulate	-12.2464
lemish	-12.2478
▁givin	-12.248
▁calendar	-12.2481
▁hebrew	-12.2481
▁dmv	-12.2481
▁schmuck	-12.2481
▁unicorn	-12.2481
▁constituency	-12.2481
▁claude	-12.2482
▁caw	-12.2483
▁mortgage	-12.2484
▁prettiest	-12.2488
▁rebe	-12.2489
▁inspir	-12.2489
▁ger	-12.249
headed	-12.2493
about	-12.2494
icero	-12.2498
▁hoora	-12.2502
▁monks	-12.2503
▁fro	-12.2513
▁marker	-12.2523
▁patron	-12.2523
tomic	-12.2525
▁accidental	-12.2531
ora	-12.2535
▁warner	-12.2539
▁inquir	-12.2542
▁convict	-12.2545
com	-12.2547
▁vile	-12.2547
▁irrelevan	-12.2549
▁apprentice	-12.2549
▁complication	-12.255
▁mahjong	-12.255
▁platform	-12.255
▁grapefruit	-12.255
▁greasy	-12.255
▁firearm	-12.255
▁franz	-12.255
▁skinhead	-12.2551
▁peso	-12.2551
▁employment	-12.2551
▁depression	-12.2552
▁leavin	-12.2555
▁fluff	-12.2555
▁ripe	-12.2556
▁ladyship	-12.2556
▁liter	-12.2556
▁visions	-12.2557
▁cl	-12.2557
erek	-12.2557
▁singin	-12.2557
racy	-12.2561
▁brooks	-12.2563
▁ursul	-12.2569
homa	-12.2571
▁avenge	-12.2575
39	-12.2577
▁groupie	-12.2579
odoo	-12.2579
ung	-12.2589
▁ut	-12.2595
▁boll	-12.2596
▁pea	-12.2599
▁minded	-12.2603
▁rescu	-12.2607
▁memorial	-12.261
▁adventures	-12.2611
▁bron	-12.2615
▁ver	-12.2615
▁cu	-12.2618
▁resurrect	-12.2618
▁squash	-12.2619
▁feminin	-12.2619
▁veteran	-12.2619
wollen	-12.2619
▁chateau	-12.2619
▁gender	-12.2619
▁competitive	-12.262
▁jackal	-12.262
▁poodle	-12.2621
▁nicot	-12.2624
▁oral	-12.2626
▁maternity	-12.2627
uan	-12.2631
▁eats	-12.2632
▁sven	-12.2633
▁recruiter	-12.2636
actical	-12.2637
bat	-12.2644
▁lining	-12.2645
▁rou	-12.2646
▁concerning	-12.2647
▁fin	-12.2655
cp	-12.2656
▁barney	-12.2656
▁seduce	-12.2665
▁dodge	-12.2671
▁drinkin	-12.2676
▁negotiat	-12.2679
▁madrigal	-12.2689
▁redempti	-12.2689
▁superstar	-12.2689
▁contribution	-12.2689
▁commerc	-12.2689
▁chimney	-12.269
▁dumpster	-12.269
▁rambo	-12.2691
▁continent	-12.2691
▁sharon	-12.2692
▁mole	-12.2695
cal	-12.2699
▁via	-12.2701
▁overload	-12.2701
▁swearing	-12.2702
▁download	-12.2702
▁bagel	-12.2704
▁boiler	-12.2706
▁chiefs	-12.2706
▁terrace	-12.2707
▁prosper	-12.271
▁pellet	-12.2713
ay	-12.2714
▁yong	-12.2717
▁hallowed	-12.2717
▁lease	-12.2721
▁loyalt	-12.2723
▁symptoms	-12.2724
▁nene	-12.2724
kawa	-12.2737
▁forman	-12.2738
▁troubles	-12.2739
▁kawa	-12.2742
▁til	-12.2744
body	-12.2745
▁dah	-12.2746
▁dedicat	-12.2748
▁interpret	-12.2753
▁jaroch	-12.2756
▁pun	-12.2756
▁tracked	-12.2759
▁spectacle	-12.2759
▁tribunal	-12.276
▁ninja	-12.276
▁cabinet	-12.2761
▁income	-12.2763
▁siddh	-12.2766
▁scam	-12.2768
▁moore	-12.2769
▁fiancee	-12.2771
▁ottoman	-12.2771
▁kurt	-12.2777
45	-12.2777
▁wrestle	-12.2779
▁reli	-12.2781
lay	-12.2782
ears	-12.2783
audel	-12.2784
zac	-12.2784
▁eighth	-12.2793
▁flyer	-12.2795
▁boner	-12.2795
▁surviv	-12.2797
pus	-12.28
owa	-12.2808
ea	-12.281
▁jose	-12.281
▁restor	-12.2811
enile	-12.2814
moving	-12.2816
charging	-12.2824
▁lounge	-12.2825
▁czechoslovakia	-12.2825
▁convincing	-12.283
▁devotion	-12.283
▁inherent	-12.283
▁nightingale	-12.283
▁pajama	-12.283
▁solemn	-12.283
▁diaper	-12.283
▁beaver	-12.2831
▁kiln	-12.2832
▁psychlo	-12.2832
▁stutter	-12.2832
▁distraction	-12.2833
▁mar	-12.2838
▁bowel	-12.2838
han	-12.284
▁alga	-12.2841
▁shithead	-12.2843
▁contains	-12.2844
yale	-12.2849
ryn	-12.2854
▁illin	-12.2857
▁replac	-12.286
uiz	-12.2866
▁wats	-12.2868
▁pointless	-12.2871
▁180	-12.2872
▁doot	-12.2894
ww	-12.2899
▁julian	-12.29
▁knoow	-12.29
▁coloss	-12.2901
▁paramedic	-12.2902
▁mainframe	-12.2902
▁jaff	-12.2902
▁lilac	-12.2902
▁barrier	-12.2903
ix	-12.2904
▁raft	-12.2905
tz	-12.2912
▁islam	-12.2913
▁mitn	-12.2921
▁twitch	-12.2927
love	-12.2931
▁humilit	-12.2933
▁implant	-12.2947
▁flick	-12.2955
▁priests	-12.296
▁krist	-12.2967
▁gorilla	-12.2974
▁dinosaur	-12.2974
▁psychopath	-12.2974
▁convertible	-12.2974
▁cupcake	-12.2974
▁joan	-12.2974
▁aggression	-12.2975
▁exhibition	-12.2975
▁fide	-12.2975
▁discretion	-12.2975
▁karaok	-12.2977
▁excellenc	-12.2977
▁needles	-12.298
▁dc	-12.298
▁yummy	-12.2982
li	-12.2986
▁musso	-12.2987
▁overheard	-12.299
▁tzu	-12.2992
ories	-12.2994
limited	-12.2998
▁asia	-12.2998
▁denie	-12.2999
▁villa	-12.3004
▁pupp	-12.3004
▁sp	-12.3006
dude	-12.3011
controlling	-12.3034
▁advanc	-12.3038
▁civiliz	-12.3042
▁jogg	-12.3043
▁sling	-12.3044
▁pluto	-12.3045
▁vulture	-12.3046
▁mattress	-12.3046
▁infantry	-12.3046
▁mcgin	-12.3047
▁absorb	-12.3047
▁dungeon	-12.3048
ikram	-12.3048
lanta	-12.3048
▁notion	-12.3048
▁striped	-12.3049
▁intruder	-12.3054
▁genie	-12.3057
▁bushes	-12.3057
▁communicat	-12.3059
▁substitute	-12.306
▁dany	-12.3061
point	-12.3063
▁vocaliz	-12.3067
▁mechanical	-12.3067
clair	-12.3068
▁tee	-12.3075
gett	-12.3077
▁bella	-12.3078
▁veto	-12.308
▁traveler	-12.3081
mother	-12.3085
yard	-12.3092
▁tyr	-12.3096
▁wanker	-12.3097
▁imp	-12.3099
ealed	-12.3101
▁refuses	-12.3101
▁backpack	-12.3103
▁bits	-12.3119
▁athletic	-12.3119
▁definition	-12.3119
▁spawn	-12.3119
▁arsonist	-12.3119
▁fibre	-12.312
▁meditation	-12.312
▁physician	-12.312
▁manuel	-12.312
trident	-12.312
▁abbot	-12.3121
▁plio	-12.3122
▁scrub	-12.3122
▁asgard	-12.3123
ever	-12.3123
▁zu	-12.3124
▁rye	-12.3125
uddy	-12.3125
▁garl	-12.3128
▁nag	-12.3132
▁lotion	-12.3134
▁lex	-12.3136
10	-12.3136
▁lone	-12.3137
▁allowing	-12.3139
▁interfer	-12.3139
▁linger	-12.3141
▁sticky	-12.3145
▁roth	-12.3145
▁sprinkle	-12.3146
▁buzzer	-12.315
load	-12.3154
▁spur	-12.3157
pot	-12.3163
▁drum	-12.3165
▁dart	-12.3166
▁vegetarian	-12.3168
▁pelle	-12.3169
▁fudge	-12.317
▁snakes	-12.3177
▁emili	-12.3188
▁tennis	-12.3191
▁extinct	-12.3192
▁cath	-12.3193
clumsy	-12.3193
▁balcon	-12.3193
▁biological	-12.3193
▁abomination	-12.3193
▁diction	-12.3193
▁drool	-12.3193
▁holland	-12.3193
▁declaration	-12.3193
did	-12.3193
▁obstacle	-12.3194
▁flawless	-12.3194
▁resent	-12.3194
etera	-12.3195
levant	-12.3202
▁additional	-12.3202
▁payback	-12.3204
▁cheerful	-12.3207
▁fung	-12.3215
paul	-12.3215
▁mutt	-12.3218
▁fuse	-12.3219
▁delightful	-12.3221
▁masters	-12.3224
▁sade	-12.3224
▁cherish	-12.3227
▁uno	-12.3228
▁breeder	-12.3235
▁danil	-12.3238
▁hk	-12.3241
▁bums	-12.3241
▁commence	-12.3244
itanic	-12.3251
▁plug	-12.3256
▁mimi	-12.3256
▁smuggle	-12.3258
fest	-12.3259
▁nav	-12.3261
▁eatin	-12.3267
equila	-12.3267
▁bathtub	-12.3267
▁parlor	-12.3267
▁premature	-12.3267
▁supermarket	-12.3267
▁bracelet	-12.3267
▁evaluation	-12.3267
▁walnut	-12.3268
▁descendant	-12.3268
▁glance	-12.3269
▁napkin	-12.327
father	-12.3273
▁circl	-12.3278
▁tollan	-12.3279
orben	-12.3281
▁cork	-12.3284
▁vlad	-12.329
text	-12.3291
hin	-12.3291
night	-12.3296
▁perish	-12.33
▁faked	-12.3304
dh	-12.3307
▁kazuhi	-12.3308
▁fertil	-12.3312
▁bands	-12.3323
▁mend	-12.3324
▁mat	-12.3332
▁dudes	-12.3332
▁yama	-12.3339
▁350	-12.334
▁dissect	-12.3341
▁fad	-12.3341
▁acquisition	-12.3341
▁ingredient	-12.3341
▁intimac	-12.3341
▁massachusett	-12.3341
▁laptop	-12.3342
▁stewardess	-12.3342
▁volley	-12.3342
▁patriot	-12.3342
▁doreen	-12.3342
▁enigma	-12.3342
▁reynard	-12.3342
▁olympic	-12.3342
▁inappropriate	-12.3343
▁gauge	-12.3344
▁miri	-12.3344
▁battlefield	-12.3344
dandy	-12.3346
▁marseille	-12.3347
▁respectful	-12.3347
▁despise	-12.3349
▁protective	-12.3353
▁jacobs	-12.3355
▁porno	-12.3357
▁passenger	-12.3359
ockie	-12.3362
▁irresponsib	-12.3364
who	-12.3366
▁industrial	-12.3374
▁tel	-12.3375
▁cho	-12.3377
▁bled	-12.3379
▁quarrel	-12.3381
▁screamed	-12.3385
▁overdu	-12.339
having	-12.3391
▁transmitte	-12.3394
eeds	-12.3395
hoven	-12.3396
▁arrang	-12.3397
insertion	-12.34
▁joo	-12.3403
▁hav	-12.3403
▁fang	-12.3404
alkov	-12.3405
bury	-12.3409
▁matsu	-12.3413
▁skat	-12.3413
▁jingle	-12.3416
▁birthmark	-12.3417
▁praetorian	-12.3417
▁humiliation	-12.3417
▁snowhill	-12.3417
▁calculation	-12.3418
▁slurp	-12.342
itya	-12.342
buque	-12.342
▁transmitter	-12.3421
▁wheat	-12.3424
▁bronze	-12.3424
▁huds	-12.3425
▁floren	-12.3426
▁maru	-12.3427
▁deer	-12.3431
▁brighten	-12.3438
bias	-12.3441
ello	-12.3441
▁jets	-12.3443
otta	-12.3445
▁analyze	-12.3451
▁quicker	-12.3451
▁walker	-12.3459
▁blurr	-12.3465
jolly	-12.3471
▁beacon	-12.3472
▁prudent	-12.3473
▁tile	-12.3474
▁hostilit	-12.3476
▁handwrit	-12.3481
▁introduc	-12.3481
▁covert	-12.349
▁abduct	-12.3491
▁pup	-12.3492
▁clarify	-12.3492
▁lantern	-12.3492
▁seizure	-12.3492
▁tumor	-12.3492
▁nineteen	-12.3493
▁rigge	-12.3493
▁notorious	-12.3493
▁pika	-12.3493
▁occupy	-12.3494
rrick	-12.3495
▁amnesia	-12.3496
▁wai	-12.3496
24	-12.3497
▁zepp	-12.3497
▁weaker	-12.35
▁liars	-12.3501
▁toshio	-12.3502
▁enterprise	-12.3504
ferno	-12.3506
▁hysterical	-12.3508
▁presented	-12.3509
▁reaches	-12.3511
asedo	-12.3517
birth	-12.3518
▁carton	-12.3518
few	-12.3519
▁curl	-12.3521
▁frances	-12.3523
▁identic	-12.3523
▁ration	-12.3525
eun	-12.3527
▁coch	-12.3529
▁anticipate	-12.3529
▁receiver	-12.3534
orah	-12.3538
arno	-12.3538
aba	-12.3539
▁iife	-12.3541
▁kite	-12.3552
▁disrupt	-12.3556
▁gigi	-12.356
▁automat	-12.3561
▁suzi	-12.3563
▁enthusias	-12.3565
pie	-12.3566
letoe	-12.3568
▁cleopatr	-12.3569
▁disciple	-12.3569
▁sloppy	-12.3569
▁leopard	-12.3569
▁railway	-12.357
▁indication	-12.3571
▁connectic	-12.3572
▁composition	-12.3572
▁crypt	-12.3573
▁karm	-12.3574
▁spade	-12.3575
▁collector	-12.3577
▁lynn	-12.3589
▁defy	-12.3591
▁iv	-12.3592
▁rains	-12.3599
▁horns	-12.3599
▁galaxie	-12.3603
▁loans	-12.3615
▁ole	-12.3622
▁offence	-12.3625
win	-12.3626
▁handicap	-12.3629
▁mop	-12.3629
▁shira	-12.363
▁sniffle	-12.3632
▁torre	-12.3633
▁channels	-12.3635
▁teens	-12.364
▁bitte	-12.364
▁experienc	-12.3642
▁shocking	-12.3645
▁ambitious	-12.3646
▁pupil	-12.3646
▁puddle	-12.3646
▁revelation	-12.3646
▁redneck	-12.3646
▁prohibit	-12.3647
▁rooster	-12.3647
▁sessions	-12.3648
▁omar	-12.3648
▁poisonous	-12.3652
aca	-12.3654
▁peck	-12.3654
oki	-12.3655
aries	-12.3661
▁pru	-12.3662
▁documentar	-12.3666
▁poll	-12.367
onya	-12.3677
▁rational	-12.3678
flown	-12.368
▁heap	-12.3685
▁rad	-12.3688
▁pe	-12.369
▁generate	-12.3692
▁audible	-12.3695
sse	-12.3695
mmi	-12.3695
retta	-12.3697
▁promot	-12.3699
▁veil	-12.37
▁sights	-12.3702
mer	-12.3707
▁malh	-12.3721
▁pl	-12.3722
▁unreli	-12.3723
▁symphon	-12.3723
▁tavern	-12.3723
▁caution	-12.3723
▁landscape	-12.3724
▁sanctuary	-12.3724
▁sabbat	-12.3725
▁cement	-12.3725
▁compound	-12.3725
▁flock	-12.3727
▁investor	-12.3728
▁dante	-12.3734
▁croak	-12.3734
▁lashing	-12.3737
▁scratched	-12.3737
nya	-12.3741
▁lucia	-12.3742
▁legit	-12.3744
craft	-12.3746
▁hoe	-12.3748
paste	-12.3751
▁optim	-12.3752
▁void	-12.3753
aving	-12.3759
▁scholars	-12.3763
▁hel	-12.377
▁prejudice	-12.3772
▁translat	-12.3772
elin	-12.3782
▁tow	-12.3783
▁nan	-12.3787
▁definite	-12.3789
nde	-12.3791
▁ox	-12.3792
▁dud	-12.3793
▁shim	-12.3796
ennesse	-12.3801
▁antidote	-12.3801
▁equation	-12.3801
▁heidelberg	-12.3801
▁inconvenience	-12.3801
▁shudder	-12.3801
▁fanatic	-12.3801
▁kansa	-12.3802
▁hamster	-12.3802
▁wilderness	-12.3802
▁grudge	-12.3802
▁boulevard	-12.3803
▁dexter	-12.3803
▁beetle	-12.3804
▁courtroom	-12.3804
▁daydream	-12.3805
▁disgraceful	-12.3805
▁portion	-12.3806
▁tails	-12.3807
▁raven	-12.3807
ken	-12.3808
▁pol	-12.381
▁jeweller	-12.3811
ini	-12.3812
▁postpone	-12.3817
▁calculat	-12.3818
▁handicappe	-12.3818
▁glen	-12.3821
atches	-12.3827
▁hustle	-12.3829
married	-12.3829
parents	-12.3829
▁pillows	-12.383
▁bunker	-12.3835
stair	-12.3839
▁ple	-12.3841
▁seeyou	-12.3849
nita	-12.3851
aume	-12.3854
▁sickness	-12.3861
arez	-12.387
than	-12.3876
▁janell	-12.3877
ike	-12.3879
▁humiliating	-12.388
▁swastika	-12.388
▁triangle	-12.388
▁makoto	-12.388
▁graff	-12.388
▁coraz	-12.388
▁petition	-12.3881
▁sylvia	-12.3881
▁disposable	-12.3881
▁accelerat	-12.3881
▁velocit	-12.3881
▁1980	-12.3882
bano	-12.3883
▁mysteri	-12.3883
▁boycott	-12.3885
▁guv	-12.3886
▁visibl	-12.3886
▁parasite	-12.3887
▁mocking	-12.3888
▁nazl	-12.3894
▁kal	-12.3894
▁thigh	-12.3896
dad	-12.39
▁archer	-12.3901
▁pike	-12.3903
▁tidy	-12.3906
▁overhead	-12.3907
ique	-12.3908
▁squid	-12.3911
nia	-12.3919
nton	-12.3921
▁boundar	-12.3924
▁nich	-12.3926
ility	-12.3927
omin	-12.3931
▁recogni	-12.3932
▁ofthese	-12.3934
▁reasonabl	-12.3934
▁neutral	-12.3936
nished	-12.3937
12	-12.3939
▁stella	-12.3941
cott	-12.3945
▁scoot	-12.3951
▁cottage	-12.3959
▁thompson	-12.3959
▁trilog	-12.3959
▁egyptian	-12.396
▁nat	-12.396
▁henning	-12.3961
▁curry	-12.3961
▁legged	-12.3963
▁warren	-12.3963
▁pag	-12.3964
▁kess	-12.3966
▁reactor	-12.3968
▁berg	-12.3968
▁christina	-12.3971
▁ce	-12.3972
▁insulting	-12.398
▁proportion	-12.3981
lation	-12.3983
whimpering	-12.3983
een	-12.3984
▁dine	-12.3986
▁categor	-12.3988
fleet	-12.3988
secure	-12.3988
▁bac	-12.3991
▁medic	-12.3994
borg	-12.3995
▁swimmer	-12.3997
▁propaga	-12.4
▁capi	-12.4004
▁coon	-12.4006
▁yue	-12.4008
show	-12.401
▁overdo	-12.401
▁teeny	-12.401
▁elf	-12.4015
▁floors	-12.4017
▁miner	-12.4021
young	-12.4022
moose	-12.4025
▁ywe	-12.4028
▁dryer	-12.403
▁posse	-12.4031
▁survey	-12.4039
▁wrench	-12.4039
▁margarita	-12.4039
▁buffalo	-12.4039
▁conquest	-12.4039
▁eyebrow	-12.4039
▁bimbo	-12.4039
▁bourbon	-12.404
▁awol	-12.404
▁conductor	-12.4042
▁prompt	-12.4042
▁semen	-12.4043
▁vasco	-12.4044
ats	-12.4044
▁outrage	-12.4047
ethel	-12.4048
▁bund	-12.4048
▁elaborate	-12.4048
▁sergei	-12.4048
▁perp	-12.4052
▁shelf	-12.4053
▁aqua	-12.4054
▁childish	-12.4054
▁melani	-12.4057
▁sayid	-12.4059
▁sells	-12.4064
▁jess	-12.4066
shore	-12.4068
▁hitter	-12.4074
91	-12.4075
nderson	-12.4077
▁caffein	-12.4081
▁forcing	-12.4081
▁render	-12.4083
▁munch	-12.4084
▁exaggerat	-12.4087
▁functions	-12.4089
▁relation	-12.4092
ecker	-12.4093
duced	-12.4095
ngest	-12.4095
lot	-12.4097
▁tur	-12.4099
▁deceive	-12.41
49	-12.4104
▁spite	-12.4105
▁banish	-12.4106
enver	-12.4108
▁declar	-12.4108
▁jos	-12.4108
▁flapp	-12.4113
uad	-12.4116
▁doggy	-12.4117
▁gurgl	-12.4118
▁sushi	-12.412
▁rodriguez	-12.412
▁neural	-12.412
▁prosecution	-12.412
▁burial	-12.412
▁align	-12.412
▁consist	-12.4121
▁millimeter	-12.4121
▁luxan	-12.4121
▁stepping	-12.4121
▁amish	-12.4122
▁curve	-12.4123
▁strategic	-12.4124
▁555	-12.4124
▁heartburn	-12.4124
▁consistent	-12.4128
▁refuge	-12.413
▁ec	-12.4131
tches	-12.4132
▁stained	-12.4132
▁rehears	-12.4134
▁cla	-12.4135
▁domestic	-12.4135
▁creed	-12.4135
▁explor	-12.4136
▁vivien	-12.4139
▁palmer	-12.4141
▁retaliate	-12.4147
cake	-12.4148
supply	-12.415
▁exceptional	-12.4159
ac	-12.4163
▁fei	-12.4168
▁org	-12.4171
lle	-12.4171
eaman	-12.4175
ane	-12.4185
▁booster	-12.4189
▁corners	-12.4191
▁indulge	-12.4194
▁rom	-12.4197
▁guillotine	-12.4198
yle	-12.4198
▁anguish	-12.4201
▁evasive	-12.4201
▁everlasting	-12.4201
▁diagnostic	-12.4201
▁comparison	-12.4202
▁amendment	-12.4202
▁krew	-12.4202
▁bosom	-12.4203
▁weaver	-12.4203
▁skeleton	-12.4204
▁paralyzed	-12.4204
▁robinson	-12.4204
ose	-12.4204
▁obregon	-12.4204
▁barrow	-12.4205
▁embarrassment	-12.4205
ght	-12.4205
pared	-12.4207
▁ploy	-12.4208
▁peggy	-12.4208
▁potion	-12.4209
▁kaj	-12.4214
▁skate	-12.4214
▁easie	-12.4217
▁hardware	-12.422
▁parish	-12.4224
▁stagger	-12.4231
▁deceiv	-12.4232
▁challenger	-12.4233
▁condemn	-12.4243
ido	-12.4243
▁dino	-12.4247
▁medi	-12.4247
apper	-12.4248
▁harass	-12.425
▁luff	-12.4251
▁shiv	-12.4254
▁rates	-12.4254
▁beverl	-12.4254
▁beck	-12.4255
▁whobi	-12.4255
hen	-12.4257
▁vicki	-12.4259
▁reproduce	-12.4261
▁sketch	-12.4263
done	-12.4269
▁visa	-12.427
jali	-12.427
going	-12.4275
randy	-12.4278
orous	-12.4279
▁abort	-12.4283
▁bonk	-12.4283
▁caspar	-12.4283
▁simultaneous	-12.4283
▁spontaneous	-12.4283
▁arcade	-12.4283
▁bouquet	-12.4284
▁geller	-12.4284
▁consultant	-12.4284
▁bosco	-12.4284
▁southeast	-12.4284
▁wilkins	-12.4284
▁kangaroo	-12.4285
▁rebellion	-12.4285
▁kentucky	-12.4286
ward	-12.4286
iddle	-12.4287
▁classroom	-12.4287
▁protein	-12.4287
▁terminal	-12.4291
▁jamaican	-12.4293
▁playboy	-12.4295
▁alec	-12.4297
eau	-12.4299
▁vegan	-12.4305
ties	-12.4313
▁brag	-12.4314
▁emil	-12.4316
▁cynical	-12.4316
▁dreamer	-12.432
▁explosives	-12.4324
▁holi	-12.4328
▁140	-12.433
▁ker	-12.433
▁fiddle	-12.4332
reide	-12.4342
▁shred	-12.4343
▁elt	-12.4348
▁sock	-12.4353
▁democrat	-12.4354
▁thankful	-12.4358
▁hubb	-12.4359
▁traps	-12.4359
▁spanking	-12.436
▁econom	-12.436
▁inspect	-12.4364
▁practise	-12.4366
▁adjourn	-12.4366
▁evident	-12.4366
▁ghetto	-12.4366
▁jupiter	-12.4366
▁pyramid	-12.4366
▁shroud	-12.4366
▁subconscious	-12.4366
▁technician	-12.4366
▁bleep	-12.4366
▁endanger	-12.4367
▁boiled	-12.4367
▁analyst	-12.4369
▁kyok	-12.4372
▁musician	-12.4376
▁shov	-12.4376
▁burke	-12.4377
▁warden	-12.4378
▁acre	-12.4379
▁womb	-12.4381
▁dwell	-12.4382
▁lz	-12.4384
hh	-12.4384
▁bearer	-12.4386
▁presum	-12.4387
▁phony	-12.4387
▁tenant	-12.4389
ashed	-12.4389
▁arise	-12.4394
foot	-12.4395
▁bp	-12.4397
itzer	-12.4404
atsu	-12.4404
▁sponsor	-12.4404
▁jag	-12.4404
▁moisturiz	-12.4407
▁harle	-12.4409
quentin	-12.441
▁suzan	-12.4415
▁von	-12.4416
▁ofthat	-12.4417
▁chim	-12.4417
▁banged	-12.4418
▁cordel	-12.4421
▁injuri	-12.4425
ninth	-12.4425
let	-12.4428
hazza	-12.4431
pence	-12.4433
▁dusk	-12.4438
▁grin	-12.4441
▁permitt	-12.4441
▁gradual	-12.4443
▁spear	-12.4449
▁alejandr	-12.4449
▁roadblock	-12.4449
▁telescope	-12.445
▁dyke	-12.445
▁doorstep	-12.445
▁assassination	-12.4451
▁brood	-12.4453
▁salvo	-12.4453
▁parallel	-12.4455
▁edu	-12.4456
▁quinc	-12.4457
▁wantyou	-12.446
▁sob	-12.446
▁nomination	-12.4461
▁dared	-12.4469
rgen	-12.4469
andro	-12.4475
▁latte	-12.4497
▁hua	-12.4498
▁impur	-12.4498
28	-12.4502
ourne	-12.4507
▁voca	-12.4517
▁brow	-12.4519
kins	-12.4522
tt	-12.4525
▁scars	-12.4525
▁squat	-12.4526
use	-12.4529
▁blush	-12.4532
▁aura	-12.4532
▁harmonic	-12.4533
▁gen	-12.4533
▁crocodile	-12.4533
▁reckless	-12.4533
▁fingertip	-12.4533
op	-12.4534
▁referee	-12.4534
▁paragraph	-12.4534
claren	-12.4534
▁zoid	-12.4535
▁unidentified	-12.4538
eah	-12.454
▁alo	-12.4541
▁korean	-12.4541
rturo	-12.4543
▁highlight	-12.4544
▁helm	-12.4547
▁nominee	-12.4548
pp	-12.4549
▁gustavo	-12.455
sensitive	-12.455
eval	-12.4552
▁exceeded	-12.4556
▁blueberr	-12.4565
▁sri	-12.4569
▁stunning	-12.4571
▁slips	-12.4574
▁chore	-12.4579
bul	-12.4585
▁kar	-12.4587
beeping	-12.4589
▁shhh	-12.4594
aditi	-12.4599
lt	-12.46
▁buff	-12.4603
▁complicate	-12.4604
▁overwhelming	-12.4611
stable	-12.4614
▁saul	-12.4617
▁vicar	-12.4618
▁sidnoey	-12.4618
▁intervene	-12.4618
▁abraham	-12.4618
▁webster	-12.4618
▁cappuccino	-12.4619
▁zach	-12.4619
▁filter	-12.4619
▁mush	-12.4622
▁plea	-12.4623
31	-12.4624
▁catchy	-12.4626
▁amaze	-12.4628
wa	-12.4629
▁ridin	-12.4631
▁vittori	-12.4631
bird	-12.4633
▁particle	-12.4633
▁machi	-12.4634
▁5000	-12.4636
▁insert	-12.4637
▁weaken	-12.4638
▁meyer	-12.4638
▁dictator	-12.4639
▁jab	-12.4644
▁expressed	-12.4644
▁compensate	-12.4653
▁clam	-12.4653
▁rockin	-12.4656
▁buyer	-12.4658
▁lauz	-12.466
year	-12.4662
▁mack	-12.4665
▁trina	-12.4667
▁follower	-12.467
▁sentinels	-12.4672
▁ned	-12.4673
see	-12.4676
itza	-12.468
▁joann	-12.4691
▁trend	-12.4692
▁component	-12.4704
▁erratic	-12.4704
▁exquisite	-12.4704
▁facult	-12.4704
▁horoscope	-12.4704
▁congregation	-12.4704
▁narcotic	-12.4704
▁portray	-12.4704
▁evacuation	-12.4704
▁colonial	-12.4704
▁crib	-12.4704
▁nightclub	-12.4705
▁juvenile	-12.4705
▁harness	-12.4705
▁diversion	-12.4705
▁anomal	-12.4706
▁plunge	-12.4707
▁deposition	-12.4707
ight	-12.4707
▁carriage	-12.4707
storm	-12.4708
▁spic	-12.4709
▁vermin	-12.4711
▁ti	-12.4713
▁poacher	-12.4714
▁nerd	-12.472
▁melis	-12.472
▁ultra	-12.4723
eaches	-12.4724
uchi	-12.4725
▁prune	-12.4727
ters	-12.4731
state	-12.4731
▁152	-12.4736
▁pointer	-12.4736
earned	-12.474
welcoming	-12.474
pa	-12.4741
▁puk	-12.4744
▁dri	-12.4745
▁kana	-12.4746
▁vivi	-12.475
▁analyz	-12.4754
ael	-12.4761
diac	-12.4763
▁probs	-12.4764
oline	-12.4765
▁vas	-12.4769
▁crooked	-12.4769
▁loo	-12.4769
▁sabotage	-12.4773
▁gardas	-12.4777
▁floy	-12.4779
▁suburb	-12.478
▁hye	-12.478
▁knack	-12.4782
▁taped	-12.4783
▁chastity	-12.479
▁fragment	-12.479
▁adversar	-12.479
▁destructive	-12.479
▁tyrant	-12.479
▁warfare	-12.479
▁immense	-12.4791
▁singular	-12.4791
▁qualify	-12.4792
▁spectacular	-12.4792
▁hampton	-12.4792
▁hometown	-12.4793
▁morale	-12.4794
▁steward	-12.4795
▁vinn	-12.4797
▁betrayal	-12.48
▁trevo	-12.4801
▁gregor	-12.4803
vale	-12.4804
▁rul	-12.4807
gaby	-12.4815
nel	-12.4824
live	-12.4825
anabu	-12.4825
▁dela	-12.4831
▁revive	-12.4832
mara	-12.4854
met	-12.4856
▁seller	-12.486
▁pans	-12.4863
rine	-12.487
▁clutch	-12.4871
cu	-12.4871
▁sync	-12.4876
▁schizophreni	-12.4876
▁aleksandr	-12.4877
▁autumn	-12.4877
▁exclaim	-12.4877
▁intuition	-12.4877
▁namgung	-12.4877
▁undetect	-12.4877
lich	-12.4877
▁brigade	-12.4877
▁surgical	-12.4877
▁klaus	-12.4877
▁screening	-12.4877
▁debut	-12.4878
rov	-12.488
▁malone	-12.488
▁copycat	-12.4881
▁poni	-12.4882
▁ache	-12.4882
look	-12.489
wich	-12.4892
▁empti	-12.4901
▁tighten	-12.4905
▁eld	-12.4906
eparation	-12.4908
▁soften	-12.491
▁nicol	-12.4917
▁jeffre	-12.4921
okee	-12.4921
lan	-12.4922
▁refresh	-12.4923
rester	-12.4924
▁sar	-12.4929
▁lotus	-12.493
▁vc	-12.493
▁wailer	-12.493
▁wor	-12.4933
▁flourish	-12.4934
▁bottoms	-12.4934
▁hou	-12.4935
rugged	-12.4936
lli	-12.4937
▁mam	-12.4938
▁cheater	-12.4939
▁fier	-12.4942
▁gill	-12.495
▁improv	-12.495
▁shap	-12.4953
▁extinguish	-12.4955
tha	-12.4957
nara	-12.4957
▁keg	-12.496
▁stun	-12.4963
▁kosty	-12.4964
▁cabbage	-12.4964
▁extensive	-12.4964
▁misfortune	-12.4964
▁unmerciful	-12.4964
▁dialect	-12.4965
▁alaska	-12.4965
▁uncover	-12.4965
▁cautious	-12.4965
▁psychotic	-12.4965
xter	-12.4966
▁leone	-12.4966
▁rewrite	-12.4967
▁disturbance	-12.4967
ikes	-12.4968
theist	-12.4968
▁craving	-12.4972
▁anton	-12.4972
▁elude	-12.4973
▁whizz	-12.4973
▁carthag	-12.4975
shot	-12.4976
▁feng	-12.4977
▁mustache	-12.498
▁asap	-12.498
▁bomp	-12.498
book	-12.499
▁capabilit	-12.4998
▁govern	-12.5001
eb	-12.5003
▁wanderer	-12.5012
▁192	-12.5015
▁liv	-12.5028
▁coop	-12.503
▁achiev	-12.5031
▁crims	-12.5032
▁josi	-12.5033
▁kaor	-12.5038
▁pornograph	-12.5046
ooper	-12.5046
▁distinct	-12.5052
▁pilgrim	-12.5052
tribution	-12.5053
▁deceit	-12.5053
▁beijing	-12.5053
▁decay	-12.5053
▁communion	-12.5053
▁context	-12.5053
murray	-12.5054
▁mitchell	-12.5054
▁velvet	-12.5055
▁lizard	-12.5055
▁uncu	-12.5056
▁burp	-12.5057
▁reflex	-12.5057
▁coul	-12.5059
▁blowjob	-12.5061
▁playoff	-12.5061
▁tux	-12.5066
▁slammed	-12.5067
▁sings	-12.5068
▁imply	-12.5068
ery	-12.5068
▁messin	-12.5072
▁scoop	-12.5076
▁justin	-12.5077
▁exile	-12.5083
oir	-12.5088
▁merc	-12.509
im	-12.5092
▁kiddie	-12.5097
▁arrow	-12.5101
▁swine	-12.5109
90	-12.5111
▁sensibl	-12.5114
▁mira	-12.5115
▁maure	-12.5118
▁compet	-12.5121
▁pigg	-12.5121
chio	-12.5121
▁combin	-12.5123
▁clap	-12.5124
rout	-12.5129
game	-12.5129
▁whe	-12.5134
▁surround	-12.5139
▁inventor	-12.5142
▁immigrant	-12.5142
▁simpson	-12.5142
▁byrnes	-12.5142
▁eyewitness	-12.5142
▁unemploy	-12.5142
▁hypocrite	-12.5142
▁smear	-12.5143
▁premise	-12.5143
▁continuous	-12.5144
▁tractor	-12.5145
▁incomplete	-12.5147
isi	-12.5153
▁holt	-12.5154
▁stool	-12.5155
▁schizo	-12.5155
▁loner	-12.5156
rt	-12.5162
feld	-12.5165
▁kee	-12.5169
▁medium	-12.5175
▁cyber	-12.5176
▁bypass	-12.5179
▁robes	-12.518
▁voil	-12.5183
▁alas	-12.5184
▁kor	-12.5191
▁violate	-12.5193
▁eel	-12.5197
▁tsk	-12.5198
gara	-12.5204
▁requir	-12.5205
▁standin	-12.5206
▁smiled	-12.5208
▁crude	-12.5212
▁fai	-12.5213
lton	-12.5215
▁classical	-12.5216
▁oversea	-12.5223
▁shiver	-12.5223
▁joll	-12.5227
▁gilligan	-12.5232
▁removal	-12.5232
▁cossack	-12.5232
▁almond	-12.5233
▁proving	-12.5233
▁napoleon	-12.5233
destroyed	-12.5233
▁spaghetti	-12.5233
▁motivation	-12.5234
▁yield	-12.5235
▁witt	-12.5236
▁ravell	-12.5236
▁indifferent	-12.5242
raham	-12.5243
crabble	-12.5243
nelle	-12.5251
amura	-12.5251
▁rabb	-12.5252
▁chole	-12.5256
gas	-12.5263
▁welcomed	-12.5268
▁clearance	-12.5268
▁cer	-12.5269
▁tele	-12.5273
▁gt	-12.5278
▁runway	-12.5281
base	-12.5282
▁regulars	-12.5285
▁believer	-12.5288
▁iraq	-12.5293
▁tread	-12.5294
▁ooo	-12.5298
▁input	-12.5302
▁ignite	-12.5305
▁rott	-12.5305
14	-12.5308
▁splitt	-12.5311
▁rustl	-12.5311
▁cul	-12.5312
mm	-12.5313
▁usher	-12.5321
▁preeto	-12.5323
▁mechanism	-12.5323
▁staple	-12.5323
▁hilltop	-12.5323
▁uncool	-12.5323
▁orientation	-12.5323
▁hallucination	-12.5324
▁osi	-12.5324
▁postcard	-12.5324
▁padd	-12.5325
▁involvement	-12.5325
▁delete	-12.5326
olina	-12.5329
18	-12.5331
home	-12.5331
▁nuns	-12.5333
▁voluntar	-12.5334
▁limitation	-12.5339
rendez	-12.5341
cable	-12.5349
▁evolve	-12.5352
▁leon	-12.5352
▁optic	-12.5355
▁bah	-12.5355
staff	-12.5356
bra	-12.5358
▁moth	-12.5363
▁superb	-12.5367
▁outcome	-12.537
▁foe	-12.5371
▁creates	-12.5371
▁ifhe	-12.5371
34	-12.5378
▁clarit	-12.5382
▁sweeping	-12.5389
▁edgar	-12.539
rina	-12.539
em	-12.539
32	-12.5391
parky	-12.5403
▁hanna	-12.5411
▁mozart	-12.5415
▁squirt	-12.5415
▁swordboat	-12.5415
▁cornell	-12.5415
▁cardinal	-12.5415
nando	-12.5416
▁irresistibl	-12.5416
▁accompani	-12.5416
ook	-12.5416
▁adjustment	-12.5418
▁newfound	-12.5419
▁slit	-12.5419
▁newport	-12.5421
▁flank	-12.5422
▁lookout	-12.5424
zed	-12.5424
▁sneaker	-12.5427
▁shelve	-12.5427
ually	-12.5434
▁yap	-12.5436
▁snore	-12.5436
▁quell	-12.544
▁pepe	-12.5443
▁buffet	-12.5444
▁89	-12.5449
▁swill	-12.5449
▁notify	-12.5451
▁zel	-12.5451
pan	-12.5454
pants	-12.5457
▁hyper	-12.5461
▁matrix	-12.5463
▁cind	-12.5468
▁amber	-12.5471
▁dictate	-12.5471
shima	-12.5477
▁garda	-12.5478
▁esp	-12.5478
▁ching	-12.5479
▁bre	-12.5481
▁homo	-12.5487
▁parachute	-12.5488
▁abilit	-12.5488
keeping	-12.5489
starbucks	-12.549
iner	-12.5491
inity	-12.5494
▁vase	-12.5497
▁neuro	-12.5498
▁slic	-12.5502
▁amulet	-12.5508
▁consensu	-12.5508
▁immoral	-12.5508
▁gauol	-12.5508
▁precede	-12.5508
▁tiptop	-12.5508
▁prakas	-12.5508
ations	-12.5509
▁membership	-12.5509
▁climate	-12.551
▁ledger	-12.551
▁cocoa	-12.5514
▁infirm	-12.5515
▁yearbook	-12.552
▁frelling	-12.5521
▁tri	-12.5524
rmont	-12.5524
▁resemble	-12.5526
▁leibo	-12.5527
▁identifi	-12.5528
▁avery	-12.553
▁cling	-12.553
bus	-12.5532
lasco	-12.5533
▁magdalen	-12.5536
▁clowns	-12.5536
vil	-12.5536
▁sophi	-12.554
▁saints	-12.554
▁youknow	-12.5542
▁frown	-12.5545
▁doggie	-12.5546
▁cutie	-12.5546
▁wejust	-12.5549
▁rite	-12.5551
▁flipped	-12.5551
▁crazi	-12.5554
▁despi	-12.5555
▁bal	-12.5556
▁blinded	-12.5557
zra	-12.5562
say	-12.5563
▁km	-12.5563
mercy	-12.5563
▁colonie	-12.5567
▁mcqu	-12.5572
▁measur	-12.5574
bular	-12.5575
cats	-12.5578
▁scrape	-12.5578
▁mumble	-12.5579
▁decorat	-12.558
wright	-12.5582
▁dribbl	-12.5586
▁penetrate	-12.5586
▁repeated	-12.5587
▁conn	-12.5589
flair	-12.559
▁supporter	-12.5595
▁ostrich	-12.5595
▁callin	-12.5595
▁incendi	-12.5601
▁nebari	-12.5601
▁virgil	-12.5601
leen	-12.5601
▁fruitcake	-12.5601
▁paycheck	-12.5602
▁instructor	-12.5602
ov	-12.5602
▁awoke	-12.5602
▁quiz	-12.5602
▁baptism	-12.5602
▁confrontation	-12.5602
▁nonfat	-12.5602
▁installation	-12.5603
▁castaway	-12.5604
▁optimistic	-12.5604
▁deciding	-12.5604
▁representation	-12.5605
▁console	-12.5605
▁rital	-12.5605
▁chump	-12.5606
terol	-12.5607
▁override	-12.5607
▁percentage	-12.5607
▁dissolve	-12.5608
▁arun	-12.5609
ndrome	-12.5609
▁starship	-12.561
stick	-12.5617
poetic	-12.5617
▁zan	-12.5617
▁bb	-12.5618
▁dislike	-12.5618
nan	-12.5619
core	-12.5621
awa	-12.563
bot	-12.5633
▁nagg	-12.5635
▁construct	-12.5635
▁pang	-12.5635
kuma	-12.5635
▁exaggerate	-12.564
▁abus	-12.5642
delphi	-12.5643
▁explorer	-12.5645
▁scarf	-12.5648
▁nets	-12.5654
▁motivate	-12.5655
▁imitat	-12.5656
naq	-12.5658
▁prem	-12.5664
▁prank	-12.5665
▁printer	-12.5665
pact	-12.5667
hiro	-12.5667
ncluded	-12.5668
▁weirdo	-12.5668
run	-12.5669
▁guern	-12.5671
▁communis	-12.5671
▁decree	-12.5672
accused	-12.5672
▁chem	-12.5673
▁historic	-12.5676
▁rehearse	-12.5677
▁sensei	-12.5678
▁eject	-12.5679
42	-12.568
mph	-12.5682
▁imagin	-12.5682
milie	-12.5684
▁marsh	-12.5687
▁reinstate	-12.5692
▁304	-12.5693
▁accomplice	-12.5695
▁marvellous	-12.5695
▁mckinley	-12.5695
▁mediterranean	-12.5695
▁agricultur	-12.5695
hanukkah	-12.5695
▁elisabeth	-12.5695
▁northeast	-12.5695
▁interstate	-12.5695
▁parrot	-12.5696
▁premium	-12.5696
▁miniature	-12.5696
▁gorbach	-12.5696
▁intoxicat	-12.5697
▁battalion	-12.5698
▁hygien	-12.5698
23	-12.57
▁shont	-12.5701
▁asthma	-12.5702
▁restroom	-12.5702
▁hangs	-12.5703
▁experimental	-12.5705
▁lure	-12.5707
ounds	-12.5707
▁mcconnel	-12.571
▁aspirin	-12.5711
▁monte	-12.5712
▁dvd	-12.5716
▁spaces	-12.5719
▁desecrat	-12.572
ock	-12.5723
▁radiu	-12.5723
wards	-12.5724
▁vot	-12.5726
▁godfather	-12.5726
▁reliev	-12.5729
ellie	-12.573
▁lau	-12.5733
▁ac	-12.5737
▁flooded	-12.574
everage	-12.5741
▁nami	-12.5741
▁bagg	-12.5744
▁paulett	-12.5746
▁broth	-12.5747
▁emerge	-12.575
▁dealers	-12.5754
▁caps	-12.5756
glass	-12.576
▁sofa	-12.5766
▁retain	-12.5769
▁hamburg	-12.577
otto	-12.5771
bridge	-12.5773
cuto	-12.5776
hutter	-12.5779
itis	-12.5783
▁phila	-12.5784
dios	-12.5784
▁foryour	-12.5786
▁whee	-12.5788
▁administrator	-12.5791
▁bermuda	-12.5791
▁crucify	-12.5791
▁telegram	-12.5791
▁casper	-12.5791
▁switzer	-12.5791
▁bulk	-12.5791
▁screenplay	-12.5791
▁inhabitant	-12.5791
▁buttock	-12.5791
▁clamor	-12.5791
▁orphanage	-12.5792
▁crucifi	-12.5792
▁reconsider	-12.5793
▁santen	-12.5793
▁variation	-12.5793
▁admirable	-12.5794
▁ethical	-12.5795
▁operative	-12.5795
ga	-12.5796
ushimi	-12.5798
illan	-12.5801
▁scorpion	-12.5802
▁bliss	-12.5803
▁deli	-12.5804
▁honz	-12.5805
▁klan	-12.5808
umi	-12.5811
misunderstanding	-12.5812
▁ferry	-12.5819
winkle	-12.5824
▁vacan	-12.5825
ndell	-12.5825
▁amoro	-12.5826
▁revv	-12.5832
▁marian	-12.5834
▁dresser	-12.5836
▁flags	-12.5838
▁christin	-12.5841
95	-12.5845
▁shigem	-12.5851
ught	-12.5851
▁dru	-12.5852
19	-12.586
▁pette	-12.5871
▁scorp	-12.5872
▁kink	-12.5876
▁calculate	-12.5876
mar	-12.5884
▁sdi	-12.5886
▁conclude	-12.5886
addin	-12.5887
▁persuasi	-12.5887
▁montgomery	-12.5887
▁mosquito	-12.5887
▁theoretical	-12.5887
▁blister	-12.5887
▁resolution	-12.5887
▁fuchsia	-12.5887
▁chopstick	-12.5887
▁substantial	-12.5888
▁flashlight	-12.5888
▁civic	-12.5889
athrow	-12.5889
▁picks	-12.589
▁divorc	-12.5893
▁edition	-12.5894
▁armour	-12.5894
▁intrigu	-12.5894
▁coupon	-12.5895
▁goid	-12.5897
▁array	-12.5897
▁concentrat	-12.5902
mallo	-12.5906
▁efficient	-12.5908
inned	-12.5913
▁roma	-12.5915
▁cora	-12.5915
dance	-12.5917
▁attacker	-12.5919
▁melon	-12.5923
▁freshen	-12.5923
▁101	-12.5928
sight	-12.5928
▁trembl	-12.5929
itlin	-12.5939
ddar	-12.5942
▁webb	-12.5943
▁reef	-12.5945
utti	-12.5945
▁troph	-12.5947
▁pest	-12.5952
around	-12.5957
dalai	-12.5961
▁goo	-12.5963
▁rai	-12.5964
vedt	-12.5964
▁reload	-12.5965
▁sunk	-12.5966
ddy	-12.5968
▁dame	-12.5969
▁ofthem	-12.5976
▁har	-12.598
▁intellect	-12.5982
▁compartment	-12.5984
▁midterm	-12.5984
▁snoop	-12.5984
▁stewart	-12.5984
▁wrapping	-12.5984
▁isolation	-12.5984
▁slump	-12.5985
▁informant	-12.5985
▁regiment	-12.5986
▁baptize	-12.5986
▁sniper	-12.5988
▁requirement	-12.5989
▁nursery	-12.5991
▁percy	-12.5992
48	-12.5994
▁keller	-12.5996
▁behaved	-12.5997
▁homemade	-12.6
▁mamma	-12.6003
omi	-12.6004
▁stocking	-12.6005
▁tex	-12.6012
▁joker	-12.6014
▁babbl	-12.6015
dan	-12.6017
▁shoo	-12.6022
▁ska	-12.6025
▁doorway	-12.6026
▁collaps	-12.6029
▁istan	-12.6034
▁sur	-12.6036
▁grub	-12.6036
▁rewind	-12.6037
▁ahhh	-12.6043
▁ey	-12.6043
▁separat	-12.6045
▁formalit	-12.6046
▁decorated	-12.6046
▁sicil	-12.6048
▁kosh	-12.6053
▁xi	-12.6056
▁healer	-12.6063
▁talents	-12.6065
yush	-12.607
vito	-12.6071
▁accessor	-12.6072
ative	-12.6072
▁dunk	-12.6074
airy	-12.6077
▁diabet	-12.6081
▁disobey	-12.6082
▁incorrect	-12.6082
▁crosby	-12.6082
▁testament	-12.6082
▁compass	-12.6082
▁dread	-12.6082
▁drugstore	-12.6082
▁jonn	-12.6083
▁flunk	-12.6083
▁chizu	-12.6083
▁bulldog	-12.6083
▁quinn	-12.6084
▁shakes	-12.6086
▁beaut	-12.6088
▁bygone	-12.6089
▁fiive	-12.6089
▁watchin	-12.609
▁magnetic	-12.6091
shining	-12.6093
▁wack	-12.6094
▁gallow	-12.6101
▁hover	-12.6102
▁turbulenc	-12.6103
▁gour	-12.6105
▁reopen	-12.6106
arity	-12.6106
▁brenn	-12.6109
▁forger	-12.6111
▁bod	-12.6116
▁chul	-12.6117
lonesome	-12.6118
riem	-12.6122
▁justify	-12.6127
flower	-12.6127
▁exchang	-12.613
lling	-12.6134
▁destruct	-12.6135
nsa	-12.6136
▁suicid	-12.6139
▁wheez	-12.6146
▁num	-12.6147
▁epic	-12.615
▁golfer	-12.6151
▁pleas	-12.6153
roe	-12.6156
ving	-12.6158
▁overflow	-12.6158
▁lev	-12.6161
rops	-12.6161
▁lada	-12.6161
▁lesser	-12.6161
▁lands	-12.6166
▁tasteful	-12.6171
uce	-12.6173
▁diploma	-12.6174
▁rudd	-12.6177
dated	-12.6179
▁collision	-12.6181
▁shampoo	-12.6181
▁trajector	-12.6181
▁penguin	-12.6181
▁jacque	-12.6181
▁cluster	-12.6181
▁baggage	-12.6181
▁cobra	-12.6182
▁textbook	-12.6182
▁decoration	-12.6183
▁frenz	-12.6183
▁provok	-12.6184
▁addiction	-12.6184
shi	-12.6184
▁vcr	-12.6186
▁curb	-12.6186
▁rehab	-12.6186
▁allowance	-12.6191
▁rapid	-12.6193
▁raymi	-12.6194
▁disser	-12.62
▁prim	-12.6203
▁yorker	-12.6205
yuki	-12.6207
▁suspend	-12.6208
▁marking	-12.6211
▁idle	-12.6211
zone	-12.6212
▁snail	-12.6214
vested	-12.6217
ono	-12.6221
▁sticker	-12.6223
uang	-12.6226
▁certifi	-12.6229
▁noot	-12.6232
icker	-12.6233
▁aches	-12.6237
eman	-12.624
▁nee	-12.6243
▁tad	-12.6245
▁chunk	-12.6247
▁restrain	-12.6249
oon	-12.625
nage	-12.6257
eerie	-12.6262
▁195	-12.6265
▁deaths	-12.6265
accidentally	-12.6267
▁bureaucrat	-12.6274
oxide	-12.6277
hai	-12.6278
▁inhabit	-12.628
▁chevalier	-12.6281
▁comprehend	-12.6281
▁entrepreneur	-12.6281
▁interstellar	-12.6281
▁exterior	-12.6281
▁conform	-12.6281
▁saturn	-12.6281
▁saddam	-12.6281
▁toxic	-12.6281
▁armani	-12.6281
▁shizuk	-12.6281
▁mcgarr	-12.6282
▁scarran	-12.6282
▁chechen	-12.6282
▁unfold	-12.6282
▁yotz	-12.6282
airborne	-12.6283
▁guill	-12.6285
▁screwup	-12.6285
oper	-12.6285
signation	-12.6286
▁jumpy	-12.6286
▁greener	-12.6287
▁nurtur	-12.6288
▁keyboard	-12.6289
▁headmaster	-12.6289
▁cutest	-12.6291
ofus	-12.6294
▁mega	-12.6294
▁gloom	-12.6296
▁kwon	-12.6298
▁retriev	-12.6303
▁tougher	-12.6303
▁reco	-12.6303
rabin	-12.6306
▁ahkb	-12.6307
▁jepp	-12.631
▁valentino	-12.631
▁thruster	-12.6311
▁scold	-12.6312
▁menage	-12.6313
aqua	-12.6319
▁bien	-12.6319
ito	-12.6321
gami	-12.6325
lain	-12.6333
▁royalt	-12.6338
elena	-12.6339
▁koz	-12.6344
▁sniffl	-12.6345
▁biker	-12.6354
▁parolee	-12.6355
▁homesick	-12.6359
▁reek	-12.6367
▁lens	-12.6367
▁stub	-12.6369
▁swap	-12.6376
▁spins	-12.6379
▁nasa	-12.6381
▁harbour	-12.6382
▁cavalr	-12.6382
▁stench	-12.6382
▁elevate	-12.6382
▁twirl	-12.6382
▁deserter	-12.6382
lla	-12.6382
▁sicilian	-12.6382
▁immatur	-12.6383
▁hottest	-12.6384
▁chung	-12.6384
▁transit	-12.6384
▁establishment	-12.6384
ata	-12.6385
▁lum	-12.6386
nerri	-12.6386
oka	-12.6387
▁warhead	-12.6388
rath	-12.639
▁sonia	-12.6393
▁vera	-12.6395
▁organis	-12.6397
▁australian	-12.6398
▁lass	-12.6398
dieu	-12.6399
long	-12.6399
▁shao	-12.64
availab	-12.6402
▁babysitt	-12.6402
test	-12.6403
▁tack	-12.6404
▁turd	-12.6409
▁environmental	-12.6409
▁burnin	-12.641
▁andreas	-12.642
take	-12.6423
▁hwa	-12.6427
▁granddad	-12.643
edication	-12.6432
▁shorts	-12.6433
▁preferr	-12.6437
hit	-12.6443
ngil	-12.6443
uk	-12.6444
▁premier	-12.6445
▁cynic	-12.6445
▁pickin	-12.6449
▁describ	-12.6452
▁adulter	-12.6454
▁shui	-12.6456
▁cr	-12.6456
▁bong	-12.6457
alem	-12.6462
tting	-12.6462
▁ante	-12.6462
oyd	-12.6464
▁oink	-12.6465
▁nikola	-12.6469
cky	-12.647
▁pygm	-12.6471
▁whil	-12.6471
▁longing	-12.6472
urgo	-12.6476
▁impose	-12.6478
▁unsto	-12.6478
51	-12.648
nash	-12.6482
▁infra	-12.6483
▁transvestite	-12.6484
▁creator	-12.6484
▁ominous	-12.6484
▁phyll	-12.6484
▁barcelon	-12.6484
▁concussion	-12.6484
▁sinister	-12.6484
▁yelp	-12.6484
▁misplace	-12.6485
▁simulation	-12.6485
▁cereal	-12.6487
▁abras	-12.6487
▁cherne	-12.6488
▁anatom	-12.6488
▁accomplishment	-12.6488
▁cyan	-12.6489
▁frostbit	-12.6491
▁sens	-12.6491
▁choreograph	-12.6494
▁comply	-12.6495
presley	-12.6496
▁wuss	-12.6497
▁damas	-12.6498
▁leftover	-12.6498
▁kirk	-12.6498
rey	-12.6498
▁supplier	-12.6505
▁bj	-12.6505
▁manipulat	-12.6507
capable	-12.651
▁shutter	-12.651
▁pains	-12.6512
ige	-12.6512
▁stasi	-12.6515
▁valer	-12.6516
clean	-12.6521
erie	-12.6522
▁agenc	-12.6524
▁premiere	-12.6526
▁banner	-12.6529
▁zorin	-12.6531
▁hides	-12.6534
▁ref	-12.6536
▁sleigh	-12.6537
▁slay	-12.654
▁disabilit	-12.6541
▁companions	-12.6543
ably	-12.6547
yet	-12.6553
▁jackass	-12.6556
▁buns	-12.6559
dah	-12.6562
▁mit	-12.6563
▁macho	-12.6573
▁stewi	-12.6575
rres	-12.6579
dini	-12.6582
▁obreg	-12.6583
laine	-12.6586
▁apprehend	-12.6587
▁gospel	-12.6587
▁pedestrian	-12.6587
▁smuggling	-12.6587
▁arraign	-12.6587
▁wiener	-12.6587
▁dublin	-12.6587
▁veal	-12.6587
▁parch	-12.6588
▁bogey	-12.6588
▁pikachu	-12.6588
▁ewald	-12.6589
▁janis	-12.659
ucci	-12.6591
▁ignoring	-12.6593
▁wacko	-12.6593
unich	-12.6594
▁bead	-12.6594
▁laurent	-12.6596
▁testicle	-12.6597
▁combine	-12.6599
▁phenomenal	-12.66
auna	-12.6601
▁finner	-12.6607
▁determin	-12.6607
▁gush	-12.6608
▁aspen	-12.6609
efer	-12.661
litary	-12.6612
▁providenc	-12.6614
▁archive	-12.6615
▁kenne	-12.6617
▁dispens	-12.6618
▁dung	-12.6619
tching	-12.6619
▁implants	-12.6626
▁digest	-12.6628
generation	-12.6629
▁troubl	-12.6631
wise	-12.6633
▁fantasi	-12.6639
meister	-12.6639
works	-12.6642
mark	-12.6646
abel	-12.6648
come	-12.6651
matrix	-12.6653
▁tyne	-12.6655
▁stumble	-12.6655
▁tipo	-12.6655
▁entit	-12.6656
▁captive	-12.6657
▁logg	-12.6666
itten	-12.6667
tention	-12.6669
▁noose	-12.667
nard	-12.667
rra	-12.6673
clay	-12.6676
▁flori	-12.6678
▁towns	-12.668
▁veer	-12.6684
rim	-12.6686
list	-12.6687
▁snaps	-12.6688
▁chico	-12.669
▁harden	-12.669
▁allegiance	-12.6691
▁chauffeur	-12.6691
▁montausier	-12.6691
▁maitre	-12.6691
▁supernatural	-12.6691
▁buffoon	-12.6691
▁piercing	-12.6691
tzel	-12.6691
▁penetration	-12.6692
▁practis	-12.6692
▁determination	-12.6692
▁dirk	-12.6692
▁raspberry	-12.6692
▁holler	-12.6692
▁implie	-12.6692
▁tamper	-12.6693
nor	-12.6694
▁diminish	-12.6695
▁exorcist	-12.6695
▁roose	-12.6695
▁friar	-12.6695
▁reschedule	-12.6696
think	-12.6697
▁bubbe	-12.6697
▁siam	-12.6698
▁yoo	-12.6699
rax	-12.6699
▁intentional	-12.6703
▁stoner	-12.6709
▁brenna	-12.6716
01	-12.6721
ci	-12.6723
▁gree	-12.6724
▁halv	-12.6725
▁bashing	-12.6725
▁alamo	-12.6726
▁rosal	-12.6731
▁peculiar	-12.6732
▁milan	-12.6732
▁chil	-12.6736
▁shige	-12.6736
▁valenti	-12.674
▁chronic	-12.6744
▁askin	-12.6744
onoe	-12.6749
▁ruler	-12.6753
obs	-12.6754
▁sitter	-12.6762
92	-12.6762
od	-12.6763
▁dominate	-12.6763
▁niner	-12.6768
awai	-12.6768
signed	-12.677
etcher	-12.6775
▁apologiz	-12.6776
▁watcher	-12.6778
yatt	-12.6779
▁sumo	-12.6781
▁clink	-12.6791
▁contagio	-12.6792
▁secre	-12.6795
▁appli	-12.6795
▁uzbeki	-12.6796
▁mistranslat	-12.6796
astato	-12.6796
▁chimpanzee	-12.6796
▁necessit	-12.6796
▁structural	-12.6796
▁bilge	-12.6796
▁external	-12.6796
▁serpent	-12.6796
ologne	-12.6797
▁swimsuit	-12.6797
▁chewed	-12.6797
▁dayton	-12.6797
▁indispos	-12.6798
lbert	-12.6798
▁squadron	-12.6798
▁attain	-12.68
▁whorehouse	-12.68
▁chalk	-12.6801
▁poir	-12.6803
▁slain	-12.6805
▁index	-12.6805
▁globe	-12.6806
onsignor	-12.6806
▁bri	-12.6806
▁piker	-12.6807
tel	-12.6807
▁navigation	-12.6808
▁handbag	-12.681
▁flange	-12.6814
▁gripp	-12.682
baum	-12.682
▁pore	-12.6822
would	-12.6823
▁rio	-12.6828
▁rattle	-12.6828
eft	-12.6829
▁intercom	-12.683
mprisoned	-12.6831
▁plucked	-12.6831
▁sucky	-12.6831
▁debri	-12.6833
▁moro	-12.6838
▁qualit	-12.6841
▁purge	-12.6842
mes	-12.6844
xma	-12.6848
jury	-12.6858
▁polly	-12.6864
▁arouse	-12.6865
▁depriv	-12.6867
erot	-12.6872
lar	-12.6874
▁carve	-12.6876
▁arrak	-12.6878
▁unfi	-12.6879
ira	-12.6887
▁mcna	-12.6889
▁deteriorat	-12.689
▁rips	-12.6893
▁hiro	-12.6897
eye	-12.6899
▁pla	-12.6901
▁giraffe	-12.6903
▁stairwell	-12.6903
▁remorse	-12.6903
▁expansi	-12.6903
▁monstrous	-12.6903
▁compulsive	-12.6903
▁unanimous	-12.6903
▁rouge	-12.6903
▁snitch	-12.6903
▁fibro	-12.6903
▁roadrunner	-12.6903
▁iong	-12.6903
▁agnes	-12.6904
▁burche	-12.6904
▁koko	-12.6905
med	-12.6906
▁microwave	-12.6906
▁organism	-12.6906
ludes	-12.6908
▁tranquilit	-12.6909
▁probable	-12.6911
▁uptight	-12.6911
▁mascar	-12.6911
rose	-12.6911
▁commando	-12.6912
▁feminist	-12.6913
▁puncture	-12.6914
▁jolt	-12.6915
▁lax	-12.6918
▁sane	-12.6919
▁woodland	-12.6921
▁ofour	-12.6923
▁sued	-12.6928
trained	-12.693
▁shortage	-12.6931
▁snapper	-12.6933
iro	-12.6937
83	-12.6938
▁finale	-12.6939
▁brew	-12.694
▁forsake	-12.6943
▁boomer	-12.6945
▁stealth	-12.6948
▁conventional	-12.6948
▁scrambl	-12.6949
▁furio	-12.695
▁trades	-12.695
leyman	-12.6952
52	-12.6955
jesus	-12.6959
▁piper	-12.6961
▁bach	-12.6964
burgh	-12.6968
urine	-12.6975
▁recycl	-12.6976
▁chas	-12.6976
▁sho	-12.6977
▁yoga	-12.698
▁heartbreak	-12.6981
pool	-12.6984
▁unsur	-12.6992
ification	-12.6992
rella	-12.6994
▁els	-12.6995
▁crumb	-12.7001
pless	-12.7003
▁scotti	-12.7006
▁oof	-12.7006
into	-12.7008
easing	-12.7008
rway	-12.701
▁convenience	-12.701
▁norwegian	-12.701
▁stonagal	-12.701
▁festivit	-12.701
▁fusion	-12.7011
▁unaware	-12.7011
▁erection	-12.7011
▁apocalyp	-12.7012
▁feat	-12.7012
▁cinderella	-12.7013
▁assumption	-12.7022
▁circulati	-12.7024
▁alvar	-12.7026
▁dub	-12.7027
▁fiind	-12.703
▁vocal	-12.7031
▁enable	-12.7031
▁puttin	-12.7036
▁cro	-12.7038
▁whereas	-12.7039
▁handles	-12.7042
▁comf	-12.7044
▁petrol	-12.7044
▁baton	-12.7045
rate	-12.7049
net	-12.7052
▁seeker	-12.7053
▁treason	-12.7054
▁gilles	-12.7054
15	-12.7058
▁freed	-12.7062
orlock	-12.7065
aki	-12.7067
▁ofmy	-12.7068
folk	-12.7069
▁hami	-12.7071
▁splee	-12.7071
pps	-12.7076
sey	-12.708
▁ishika	-12.7085
▁alexi	-12.7086
stania	-12.709
beat	-12.7091
▁extracted	-12.7096
vich	-12.7103
▁casting	-12.7103
▁knit	-12.711
saak	-12.7114
41	-12.7114
▁chum	-12.7118
▁provoke	-12.7118
▁binocular	-12.7119
▁concubine	-12.7119
▁skedaddle	-12.7119
▁zatarc	-12.7119
▁robocop	-12.7119
▁malign	-12.7119
▁striking	-12.7119
▁timber	-12.712
▁lombard	-12.712
▁pancho	-12.7121
▁martian	-12.7121
▁exterminate	-12.7121
▁sanction	-12.7121
▁larson	-12.7121
oissan	-12.7123
▁lewd	-12.7123
▁invad	-12.7124
▁loft	-12.7126
▁lank	-12.7127
▁poopie	-12.713
wash	-12.7131
▁mami	-12.7132
▁archie	-12.7135
▁intersection	-12.7138
▁megha	-12.7139
03	-12.714
▁leve	-12.7141
▁191	-12.7143
▁cir	-12.7145
▁barnab	-12.715
▁bl	-12.7151
eidel	-12.7153
▁tknow	-12.7153
▁hild	-12.7154
after	-12.7155
▁sighting	-12.7158
▁unpredictabl	-12.7158
▁maxi	-12.716
joe	-12.7162
▁chai	-12.7165
▁flipp	-12.7166
▁jock	-12.7166
▁oye	-12.7169
▁greene	-12.7175
kok	-12.7176
▁chubb	-12.7176
▁adeb	-12.7178
▁forge	-12.7181
▁sever	-12.7181
ervo	-12.7184
▁excite	-12.7184
▁vitamins	-12.7187
▁macke	-12.7187
▁amour	-12.7191
sured	-12.7195
▁od	-12.7204
setting	-12.7205
mu	-12.7208
▁clause	-12.721
▁romm	-12.7211
▁pic	-12.7211
ested	-12.7214
unmarked	-12.7215
▁awakening	-12.7216
▁evolv	-12.7217
idian	-12.722
ugged	-12.7221
▁laz	-12.7222
▁froze	-12.7224
▁newly	-12.7226
▁swingin	-12.7227
▁dilemma	-12.7229
▁dyslexi	-12.7229
▁qualification	-12.7229
▁intercourse	-12.7229
▁walrus	-12.7229
tsuko	-12.7229
▁maintaining	-12.723
▁crayon	-12.723
▁tuxedo	-12.723
▁distinction	-12.7231
▁courtyard	-12.7231
▁starfish	-12.7232
▁disposition	-12.7233
▁dahn	-12.7235
sterda	-12.7236
▁phobia	-12.7236
▁glacier	-12.7237
▁overdose	-12.7237
hinner	-12.7237
▁territori	-12.7238
▁tilt	-12.7238
▁compose	-12.7241
▁reminder	-12.7243
nic	-12.7245
▁rumpo	-12.725
oud	-12.7252
▁israeli	-12.7261
▁poly	-12.7268
suk	-12.7272
▁apa	-12.7277
▁andres	-12.7279
▁narcissist	-12.728
▁vil	-12.7282
▁adi	-12.7283
▁recogniz	-12.7285
ranged	-12.7286
wald	-12.7287
▁expire	-12.7287
leans	-12.7288
educed	-12.7289
shoot	-12.7291
▁giorg	-12.7292
ghast	-12.7292
▁fiance	-12.7295
▁spec	-12.7298
var	-12.7298
▁anise	-12.7303
▁char	-12.7304
▁funni	-12.7306
▁enquir	-12.7306
▁ellis	-12.7307
▁itwas	-12.7313
58	-12.7316
▁zi	-12.7316
sson	-12.7318
▁seren	-12.7322
▁eu	-12.7322
21	-12.7323
▁consum	-12.7333
▁pinoc	-12.7338
▁omelet	-12.734
▁confide	-12.734
▁efficienc	-12.734
▁involuntar	-12.734
▁tranquilizer	-12.734
▁machete	-12.734
▁promiscu	-12.734
▁sierra	-12.734
▁trifle	-12.7341
▁scripture	-12.7341
▁pitiful	-12.7341
▁cretin	-12.7342
▁yodel	-12.7343
▁surpass	-12.7344
port	-12.7345
▁hangover	-12.7345
▁itinerar	-12.7349
▁fingernail	-12.735
something	-12.7351
▁loot	-12.7351
▁vis	-12.7352
▁bonnie	-12.7353
▁passive	-12.7353
ickling	-12.7354
▁incense	-12.7355
▁gu	-12.7358
▁aprile	-12.7358
▁mann	-12.7361
▁spitt	-12.7362
▁fec	-12.7364
▁taro	-12.7364
▁headlight	-12.7364
▁infest	-12.7365
ainted	-12.7372
▁ashle	-12.7372
fcon	-12.7381
▁marlo	-12.7381
999	-12.7382
▁camps	-12.7386
▁takeoff	-12.7388
tte	-12.7388
▁dazzl	-12.7391
▁trespass	-12.7398
gerald	-12.7401
nickel	-12.7402
wide	-12.7404
▁wald	-12.7409
▁ulys	-12.7415
▁catastroph	-12.7416
dia	-12.7417
▁siege	-12.7419
▁heroine	-12.7424
▁symbolic	-12.7434
▁beds	-12.7435
aviar	-12.7437
▁trainees	-12.7437
▁rep	-12.744
jected	-12.744
▁versail	-12.7442
mw	-12.7442
ookie	-12.7443
▁decorate	-12.745
▁tucker	-12.7452
▁marshmallow	-12.7452
▁assailant	-12.7452
▁peruvian	-12.7452
▁streak	-12.7452
▁transparent	-12.7452
▁vintage	-12.7452
▁urban	-12.7452
▁slumber	-12.7453
▁mackenzie	-12.7453
▁aurora	-12.7453
▁philippine	-12.7453
▁tanning	-12.7453
▁interpretation	-12.7454
▁prat	-12.7454
▁windsor	-12.7455
▁polo	-12.7455
▁yaga	-12.7455
▁dynast	-12.7457
▁snowboard	-12.7457
▁musicians	-12.7459
▁assurance	-12.7462
▁gp	-12.7462
▁foo	-12.7463
ideon	-12.7463
▁tofu	-12.7465
▁democratic	-12.7469
▁outdoors	-12.747
▁preservati	-12.7474
▁closure	-12.7486
▁chime	-12.7486
▁newborn	-12.7488
▁comp	-12.7492
napping	-12.7492
▁crumbl	-12.7499
filled	-12.7508
▁whim	-12.751
fold	-12.751
▁surya	-12.7511
▁supervis	-12.7513
maker	-12.7513
massive	-12.7515
lore	-12.7515
▁prefers	-12.7518
▁delegate	-12.7524
▁muck	-12.7527
ruman	-12.7528
ala	-12.753
▁eater	-12.7531
▁manufactur	-12.7533
▁itjust	-12.7534
▁mural	-12.7537
▁vouch	-12.7541
▁pap	-12.7543
keep	-12.7547
▁cocks	-12.7549
end	-12.7552
▁clog	-12.7553
▁sank	-12.7553
po	-12.7559
▁volcan	-12.756
▁bosu	-12.7561
velt	-12.7565
▁avalanche	-12.7566
▁catapult	-12.7566
▁embryo	-12.7566
▁holodeck	-12.7566
▁mizuki	-12.7566
▁ferocious	-12.7566
▁consolation	-12.7566
▁equivalent	-12.7566
▁evie	-12.7566
▁viking	-12.7566
▁export	-12.7567
▁succumb	-12.7567
▁yasu	-12.7567
view	-12.7567
▁complet	-12.7567
▁deuce	-12.7568
▁liberal	-12.7568
▁twentie	-12.7568
▁snowball	-12.757
▁hallo	-12.7572
▁waterfall	-12.7574
▁bena	-12.7577
▁epa	-12.7578
▁mim	-12.7578
▁excel	-12.7578
▁gibberi	-12.7579
▁nay	-12.758
▁utilit	-12.758
84	-12.7583
put	-12.7586
▁breathless	-12.7586
dominant	-12.7587
rlock	-12.7587
otra	-12.7588
▁outline	-12.7593
▁observer	-12.7594
▁yuu	-12.7596
▁outrun	-12.76
▁directors	-12.7602
▁loath	-12.7607
▁attribute	-12.7609
mogen	-12.7613
▁imitate	-12.7614
rusty	-12.7614
▁vienn	-12.7615
▁unite	-12.7616
lima	-12.7618
▁yeo	-12.7619
▁feder	-12.7622
94	-12.7626
▁heist	-12.763
▁crave	-12.7631
▁exclude	-12.7633
▁integrat	-12.7637
▁refreshing	-12.7637
▁adventurer	-12.7637
▁commie	-12.7637
▁cran	-12.7638
55	-12.7648
▁rating	-12.7655
▁rightful	-12.7657
▁jeopardize	-12.7659
▁filing	-12.7671
▁tingle	-12.7674
▁babylon	-12.7676
▁schwei	-12.7677
nstructed	-12.7679
dema	-12.768
▁stalin	-12.7681
▁delinquent	-12.7681
▁devastate	-12.7681
▁hydroponic	-12.7681
▁machinist	-12.7681
▁aeroplane	-12.7681
▁discern	-12.7681
▁matinee	-12.7681
▁controversial	-12.7681
▁blitz	-12.7681
▁gravitational	-12.7681
▁barefoot	-12.7681
▁gruff	-12.7681
▁prawn	-12.7681
▁patte	-12.7681
▁predecessor	-12.7681
▁unreason	-12.7682
▁corona	-12.7682
▁chock	-12.7682
▁woe	-12.7682
▁plasma	-12.7682
▁rhetoric	-12.7683
tial	-12.7683
avert	-12.7685
▁partnership	-12.7686
▁theatrical	-12.7686
▁castel	-12.7686
▁shitload	-12.7691
omura	-12.7692
wear	-12.7697
▁retro	-12.7698
33	-12.7699
▁menace	-12.7699
▁ballard	-12.77
▁lasz	-12.77
▁pave	-12.7705
▁scarce	-12.7705
▁britt	-12.7707
▁nix	-12.7713
▁virtually	-12.7715
▁assassinate	-12.7716
girl	-12.7719
nuck	-12.7722
▁mil	-12.7723
▁hospitaliz	-12.7729
▁jule	-12.7732
▁verifi	-12.7732
mple	-12.7733
▁glas	-12.7734
▁kn	-12.7737
▁lassit	-12.7742
▁devils	-12.7746
▁disorient	-12.7747
▁coca	-12.775
▁spiral	-12.7751
▁itchy	-12.7751
▁orb	-12.7753
ystic	-12.7754
▁canine	-12.7757
▁decen	-12.7758
81	-12.7759
when	-12.7763
▁designate	-12.7763
ex	-12.7764
▁platin	-12.7764
▁rhet	-12.7764
▁vagi	-12.7767
▁doodle	-12.7769
09	-12.7771
gree	-12.7772
▁coco	-12.7774
▁crumble	-12.7776
iggs	-12.7777
kka	-12.7778
riton	-12.7779
gga	-12.778
▁mcca	-12.7782
liest	-12.7783
enoir	-12.7785
topia	-12.7787
ln	-12.7788
▁130	-12.7789
▁tailor	-12.7791
▁caller	-12.7791
iena	-12.7793
▁whirl	-12.7794
▁milligram	-12.7797
▁undef	-12.7797
▁vineyard	-12.7797
▁mariss	-12.7798
▁emerald	-12.7798
▁mould	-12.7798
▁shortcut	-12.7798
▁bueno	-12.7798
▁accommodation	-12.7798
▁microsoft	-12.7798
▁chaim	-12.7799
▁bookstore	-12.78
▁loveyou	-12.7801
connaiss	-12.7801
▁perla	-12.7801
▁patiss	-12.7802
quin	-12.7803
▁imbecile	-12.7803
▁tolerance	-12.7804
▁saxon	-12.7805
▁racial	-12.7806
▁blacks	-12.7807
▁roach	-12.7807
▁transporter	-12.7808
halang	-12.7808
▁maple	-12.7811
▁tighter	-12.7811
▁playground	-12.7812
▁sprock	-12.7812
▁runaway	-12.7813
▁threesome	-12.7818
▁cappell	-12.7821
▁perceive	-12.7825
working	-12.7826
▁sizzl	-12.7827
▁hacker	-12.783
hose	-12.7831
▁columb	-12.7833
▁ark	-12.7833
zama	-12.7834
sex	-12.7835
▁overrul	-12.7836
▁greens	-12.7847
▁naok	-12.7847
rdie	-12.7856
▁attempting	-12.7859
▁knicker	-12.7863
▁mali	-12.7863
▁broads	-12.7865
▁merci	-12.7866
▁haruk	-12.788
▁purgat	-12.7881
▁jang	-12.7882
xx	-12.7886
▁pater	-12.7888
▁nana	-12.7893
ark	-12.7895
▁invalid	-12.7896
▁extortion	-12.7914
▁cathedral	-12.7915
▁charcoal	-12.7915
▁maverick	-12.7915
▁oatmeal	-12.7915
▁electrocute	-12.7915
▁mislead	-12.7915
▁climax	-12.7915
▁schram	-12.7915
▁appliance	-12.7916
▁platter	-12.7916
▁wank	-12.7916
▁whiff	-12.7916
▁montai	-12.7916
▁mcmi	-12.7917
▁chevy	-12.7917
▁animation	-12.7918
▁persever	-12.7919
▁bozo	-12.792
won	-12.792
▁denial	-12.7922
ugula	-12.7923
cobi	-12.793
▁encrypted	-12.7931
ped	-12.7931
▁acorn	-12.7933
▁pong	-12.7933
▁plex	-12.7933
▁inhuman	-12.794
eplay	-12.7941
▁vivid	-12.7942
▁ports	-12.7948
▁crushing	-12.7948
▁yardie	-12.7951
▁beta	-12.7951
mina	-12.7951
▁invoke	-12.7954
strom	-12.7959
oola	-12.7961
zio	-12.7963
▁barr	-12.7971
▁reunite	-12.7972
▁sil	-12.7974
▁zing	-12.798
▁thrash	-12.798
ipping	-12.7983
rrill	-12.7987
▁maki	-12.7988
leasing	-12.7992
▁thiev	-12.7993
▁imprison	-12.7995
▁preliminar	-12.7997
lyle	-12.801
▁assemble	-12.801
▁klein	-12.8013
▁mumm	-12.8014
▁moss	-12.8016
▁revers	-12.8016
▁chantil	-12.8023
▁fras	-12.8026
▁sup	-12.8028
▁mev	-12.803
▁proceeding	-12.8032
ena	-12.8033
▁boyzvoice	-12.8034
▁generosity	-12.8034
▁homicidal	-12.8034
▁migraine	-12.8034
▁patriarch	-12.8034
▁sequel	-12.8034
▁distributor	-12.8034
▁appease	-12.8034
▁unauthori	-12.8034
▁prodig	-12.8034
▁dragoon	-12.8034
▁pneumon	-12.8034
▁stove	-12.8034
▁spout	-12.8035
ezinho	-12.8035
peer	-12.8035
▁intervention	-12.8036
▁quaa	-12.8037
▁specialize	-12.8039
▁ritz	-12.8039
▁cone	-12.8039
▁progen	-12.8039
▁judicia	-12.8039
▁projection	-12.8047
▁frontier	-12.8047
▁proton	-12.8048
▁presidenc	-12.8049
▁smug	-12.8053
▁spore	-12.806
▁buffer	-12.806
▁painless	-12.8061
lady	-12.8064
auser	-12.8066
uscat	-12.8066
▁kickin	-12.8068
▁dodg	-12.8069
▁stow	-12.807
▁chon	-12.8071
▁maze	-12.8073
▁kase	-12.8086
▁jell	-12.8087
▁sanju	-12.8087
▁knick	-12.8089
▁adams	-12.809
▁jude	-12.8092
▁toaster	-12.8095
▁nu	-12.8101
▁cub	-12.8103
▁attach	-12.8114
▁miu	-12.8114
▁chipp	-12.8115
▁encouraged	-12.8117
▁sparkle	-12.8117
▁crackl	-12.8118
▁demis	-12.8119
▁graduat	-12.8122
di	-12.8123
▁columbia	-12.8125
ngsoo	-12.8126
▁reno	-12.8126
▁squeezed	-12.813
▁manor	-12.8131
▁jod	-12.8133
akota	-12.8136
▁arc	-12.8144
▁instruct	-12.8145
▁pom	-12.8145
idding	-12.8149
send	-12.8151
▁clint	-12.8151
bragging	-12.8152
▁slope	-12.8152
▁nerds	-12.8153
▁dimitri	-12.8154
▁subscription	-12.8154
▁turmoi	-12.8154
▁website	-12.8154
▁steroid	-12.8155
▁rooftop	-12.8155
▁interaction	-12.8155
▁hostess	-12.8155
▁perversion	-12.8156
▁stabbing	-12.8156
▁pront	-12.8156
▁housekeeper	-12.8156
▁thong	-12.8156
▁dense	-12.8157
▁relic	-12.8157
arrow	-12.8157
▁heru	-12.8157
midt	-12.8158
▁withdrawal	-12.8159
aking	-12.8159
▁shush	-12.8159
lent	-12.8164
eskin	-12.8166
teria	-12.8171
▁checker	-12.8172
▁baptist	-12.8172
▁petrifie	-12.8173
▁wager	-12.8176
oh	-12.8179
▁odor	-12.8181
heard	-12.8181
▁cheered	-12.8183
▁shay	-12.8188
▁iran	-12.8188
▁wand	-12.8189
▁loin	-12.8189
azar	-12.8189
erian	-12.819
▁sentiment	-12.8191
▁darkest	-12.8199
▁polar	-12.8199
drop	-12.8204
▁observ	-12.8207
▁weave	-12.8209
▁traveller	-12.821
▁arch	-12.8212
ssex	-12.8212
▁patt	-12.8218
dolph	-12.8222
▁consummate	-12.8224
▁auguste	-12.8224
▁canvas	-12.8226
▁ratt	-12.823
▁ascend	-12.8231
▁mash	-12.8232
▁haunting	-12.8234
▁pluck	-12.8238
▁stunn	-12.824
▁baa	-12.824
bac	-12.8249
▁tru	-12.8255
ave	-12.8258
ize	-12.8259
articulate	-12.8264
ctic	-12.8265
▁tribes	-12.8265
▁stomp	-12.8267
▁yester	-12.8268
elevent	-12.827
▁santia	-12.8273
▁revolve	-12.8276
schuldig	-12.8276
▁administer	-12.8276
▁constellation	-12.8276
▁espresso	-12.8276
▁rebuttal	-12.8276
▁agostino	-12.8276
▁preoccup	-12.8276
▁transaction	-12.8276
▁rawlins	-12.8276
▁maroon	-12.8276
▁musket	-12.8276
▁laborator	-12.8277
▁lucifer	-12.8277
▁vibrat	-12.8277
▁neurological	-12.8277
zing	-12.8278
▁lunchbox	-12.8278
significant	-12.8279
▁improvement	-12.8279
▁thermal	-12.8279
▁scram	-12.8279
ited	-12.8283
ced	-12.8284
▁carving	-12.8284
▁emitter	-12.8286
▁muscula	-12.8286
▁kool	-12.8288
▁spunk	-12.8289
▁huff	-12.8289
▁residu	-12.8294
▁eee	-12.8294
hl	-12.8294
▁taboo	-12.8295
▁habitat	-12.8296
kov	-12.8299
▁fri	-12.8303
▁marta	-12.8305
▁palerm	-12.8305
▁gland	-12.8307
▁ze	-12.8309
▁moi	-12.8312
▁vary	-12.8315
▁appoint	-12.8315
▁abdom	-12.8316
▁lace	-12.8316
▁absolut	-12.8321
▁fixin	-12.8322
▁iq	-12.8325
▁pur	-12.8342
injury	-12.8346
atus	-12.835
▁overture	-12.835
bona	-12.8351
▁ira	-12.8352
andini	-12.8353
▁scratche	-12.8353
▁conditioner	-12.8354
▁accusation	-12.8354
john	-12.8355
▁torpedoe	-12.8356
▁fiber	-12.8358
▁shaken	-12.836
▁paulin	-12.8366
stein	-12.8367
▁notch	-12.8367
▁yum	-12.8381
angled	-12.8382
asco	-12.8387
▁rabi	-12.8394
99	-12.8395
▁chops	-12.8397
ph	-12.8399
▁sacrific	-12.84
jurisdiction	-12.84
▁eclipse	-12.84
▁messiah	-12.84
▁plokavian	-12.84
▁impoten	-12.84
▁mussel	-12.84
▁dwarf	-12.84
▁favre	-12.84
▁mentor	-12.84
▁buick	-12.84
▁detain	-12.84
▁nia	-12.84
▁luxurious	-12.84
▁oxford	-12.84
▁misha	-12.84
▁valiant	-12.8401
▁sprain	-12.8401
jection	-12.8402
▁ulla	-12.8403
▁reconcile	-12.8404
▁tanker	-12.8405
▁toenail	-12.8406
53	-12.8407
▁depraved	-12.8408
▁125	-12.8409
▁impos	-12.8413
▁raf	-12.8419
▁pitt	-12.842
▁ads	-12.8421
hoo	-12.8422
▁peer	-12.8423
▁dribble	-12.8424
▁gua	-12.8424
linda	-12.843
▁neer	-12.8431
▁stig	-12.8432
▁susanne	-12.8436
hq	-12.8445
gish	-12.8445
oromo	-12.8445
▁pitts	-12.8448
▁honda	-12.845
▁itch	-12.8451
▁edi	-12.8456
85	-12.8458
▁stalk	-12.8458
▁stimulate	-12.8462
uld	-12.8469
grown	-12.8473
mann	-12.8474
ona	-12.8474
bide	-12.8477
ica	-12.848
▁nibble	-12.8487
dried	-12.8487
▁sook	-12.8488
ensen	-12.8489
▁frequent	-12.8491
▁node	-12.8491
▁holo	-12.8491
ancho	-12.8494
▁views	-12.8494
▁secretari	-12.8495
▁kyot	-12.8498
▁digesti	-12.8502
inho	-12.8505
▁stabiliz	-12.8512
▁fins	-12.8514
▁carm	-12.8518
▁bla	-12.8519
▁superstitio	-12.852
want	-12.852
ios	-12.8522
▁shoulda	-12.8522
violi	-12.8523
ckford	-12.8523
▁battling	-12.8525
▁chardonnay	-12.8525
▁dishwasher	-12.8525
▁kafka	-12.8525
▁phantom	-12.8525
▁michelangelo	-12.8525
▁delvian	-12.8525
▁joshua	-12.8525
▁ouai	-12.8526
▁yawn	-12.8526
▁defective	-12.8526
▁esther	-12.8526
▁newscast	-12.8526
▁gymnastic	-12.8527
▁fickle	-12.8527
▁kni	-12.8527
▁frustration	-12.8527
▁christians	-12.8528
▁superstition	-12.853
▁metro	-12.8533
▁ufo	-12.8534
▁spouse	-12.8535
▁lava	-12.8535
▁himalaya	-12.8536
▁mow	-12.8537
▁lei	-12.8539
▁ruben	-12.8541
▁advertise	-12.8542
▁askyou	-12.8542
chilling	-12.8543
▁fume	-12.8543
mage	-12.8545
▁cred	-12.8546
▁nuke	-12.8547
▁lea	-12.8547
▁mainland	-12.8549
▁contrit	-12.855
▁kennel	-12.8552
▁laughin	-12.8552
chez	-12.8552
▁cuth	-12.8554
▁mazz	-12.8556
▁mak	-12.8557
baby	-12.8559
talking	-12.8561
▁kirst	-12.8561
▁cli	-12.8564
▁nora	-12.8564
▁listing	-12.8567
▁clair	-12.8569
▁cuddle	-12.8582
▁ahm	-12.8583
▁tal	-12.8585
▁bellow	-12.8587
▁hopeful	-12.8587
▁drumm	-12.8589
▁echoe	-12.8593
proof	-12.8595
bath	-12.8597
enne	-12.8601
ella	-12.8604
▁isolat	-12.8606
▁email	-12.861
nna	-12.8612
▁gps	-12.8613
▁jug	-12.8637
gonna	-12.8637
▁cruelt	-12.8638
usie	-12.8639
▁produc	-12.8639
audible	-12.8646
▁commend	-12.865
▁brrr	-12.8651
▁parlour	-12.8651
▁modification	-12.8651
▁sacrament	-12.8651
▁competitor	-12.8651
▁mongrel	-12.8651
▁flounder	-12.8651
▁tuition	-12.8651
▁numerous	-12.8652
▁amigo	-12.8652
▁boink	-12.8652
▁maggot	-12.8652
▁dobry	-12.8652
▁eruption	-12.8652
▁collaboration	-12.8652
▁collaborator	-12.8652
▁unres	-12.8652
▁harriet	-12.8652
▁buddhist	-12.8652
boulder	-12.8653
▁hittin	-12.8653
rjun	-12.8653
▁overthrow	-12.8653
▁woof	-12.8654
▁bummer	-12.8655
▁malaysia	-12.8655
▁parental	-12.8656
▁arson	-12.8656
▁peril	-12.8657
▁caddie	-12.8657
nkers	-12.8658
▁sculpture	-12.8658
▁gutter	-12.8659
▁maldi	-12.866
▁pussycat	-12.866
▁shrine	-12.866
▁loaf	-12.8662
hey	-12.8664
▁suppress	-12.8665
▁publication	-12.8666
▁retail	-12.867
▁condo	-12.8671
▁intrusion	-12.8671
▁sasha	-12.8674
rami	-12.8676
▁vay	-12.8677
▁ella	-12.8684
little	-12.8685
anga	-12.8687
written	-12.8696
▁pp	-12.8697
▁kier	-12.8706
kind	-12.8708
own	-12.8711
▁caper	-12.8717
▁biz	-12.8718
mond	-12.8718
▁casa	-12.8721
iti	-12.8724
▁adri	-12.8726
▁chimes	-12.8726
ization	-12.8727
levins	-12.8727
▁shuffl	-12.8729
▁trot	-12.8729
▁pakistan	-12.8731
▁adventur	-12.8733
▁tra	-12.8734
▁malt	-12.8734
29	-12.8738
mpathize	-12.8742
▁recon	-12.8742
▁tup	-12.875
ller	-12.875
▁frankenste	-12.8763
▁southwest	-12.8765
▁franco	-12.8766
▁knights	-12.8766
▁carava	-12.8776
tra	-12.8779
▁recital	-12.878
▁impulsive	-12.878
▁melodrama	-12.878
▁teresa	-12.878
▁courier	-12.878
▁hippocratic	-12.878
▁cockpit	-12.878
▁sprout	-12.878
▁footprint	-12.878
▁sensual	-12.878
▁armband	-12.878
▁wiltern	-12.8781
▁pedi	-12.8781
omaha	-12.8781
▁deviation	-12.8781
usilla	-12.8781
▁lulu	-12.8782
▁amin	-12.8783
▁applie	-12.8783
▁calamar	-12.8784
▁cashier	-12.8784
▁schlepp	-12.8788
oto	-12.8788
▁silvi	-12.879
▁barb	-12.879
▁lith	-12.8791
▁blackout	-12.8793
▁waffle	-12.8793
▁smuggler	-12.8795
▁nigh	-12.8796
▁fringe	-12.8797
▁cadet	-12.8797
▁hardships	-12.8798
con	-12.8798
eague	-12.8799
mus	-12.8808
▁hale	-12.8812
▁stag	-12.8813
▁productiv	-12.8814
▁whinny	-12.8816
▁swan	-12.8817
▁sideway	-12.8821
▁employer	-12.8825
▁decaf	-12.8828
▁vu	-12.883
▁wonderin	-12.8831
▁powerless	-12.8837
▁romano	-12.8844
iagra	-12.8854
▁shootin	-12.8855
▁kr	-12.886
cala	-12.8862
▁mast	-12.8862
▁wasjust	-12.8863
dedh	-12.8864
▁kg	-12.8867
▁restraint	-12.8868
bed	-12.8869
pity	-12.8872
▁kisser	-12.8873
hara	-12.8875
▁900	-12.888
hire	-12.8881
▁tang	-12.8882
▁sai	-12.8885
skar	-12.8887
▁hipp	-12.889
▁herring	-12.8893
▁chino	-12.8894
▁camper	-12.8896
aria	-12.8897
lade	-12.8898
▁rejoin	-12.89
▁pizz	-12.8901
▁dissolv	-12.8904
▁cavit	-12.8905
▁albania	-12.8906
▁vibrate	-12.8907
▁badass	-12.8908
nin	-12.8908
tin	-12.8908
▁chech	-12.8909
has	-12.8909
▁outlet	-12.8909
▁impostor	-12.891
▁magistrate	-12.891
▁flemm	-12.891
▁forfeit	-12.891
▁pharaoh	-12.891
▁entrust	-12.891
▁unnatural	-12.891
▁speculation	-12.891
▁gormen	-12.891
▁mortens	-12.891
▁freud	-12.891
▁fundraiser	-12.891
▁conduit	-12.891
▁sedative	-12.8911
▁translator	-12.8911
▁grump	-12.8911
▁cellphone	-12.8911
▁xana	-12.8911
▁prominent	-12.8911
▁whites	-12.8912
▁disagreement	-12.8913
▁abstract	-12.8913
▁dynamic	-12.8913
▁indiscretion	-12.8914
▁diplomat	-12.8914
▁sponge	-12.8915
liberation	-12.8915
▁dolly	-12.8918
usten	-12.8919
▁fortress	-12.892
▁architectur	-12.8922
▁genital	-12.8922
▁cannibal	-12.8923
lne	-12.8924
▁midst	-12.8926
▁newt	-12.8929
▁dev	-12.8929
▁fal	-12.8932
▁appendi	-12.8934
low	-12.8934
edna	-12.8935
▁nai	-12.8938
▁sera	-12.8938
▁colorful	-12.894
iyuki	-12.894
▁teleport	-12.8941
▁luen	-12.8943
▁kyl	-12.8945
▁pharmac	-12.8946
▁syne	-12.8949
ggy	-12.8952
▁gumbo	-12.8953
▁hateful	-12.8956
shave	-12.8958
▁actin	-12.8963
lina	-12.8963
▁pri	-12.8964
▁fenc	-12.897
▁jest	-12.8972
▁tonic	-12.8972
▁sponsored	-12.8973
▁lenin	-12.8977
▁brady	-12.8978
ahu	-12.8979
▁rus	-12.8986
22	-12.8986
▁whine	-12.8987
stop	-12.8991
arius	-12.8992
▁pil	-12.8992
most	-12.8998
▁organic	-12.9008
ovak	-12.9009
▁chiu	-12.901
▁def	-12.9011
matter	-12.9014
▁tac	-12.9018
yon	-12.9023
▁enslave	-12.9024
gure	-12.9028
▁yaz	-12.9029
▁simulat	-12.9031
▁thro	-12.9037
▁brita	-12.9037
▁farts	-12.9038
▁intern	-12.9039
▁accomp	-12.9041
▁steep	-12.9041
▁fauch	-12.9041
▁auxiliar	-12.9041
▁belgium	-12.9041
▁bourgeois	-12.9041
▁crotch	-12.9041
▁hemisphere	-12.9041
▁nosferat	-12.9041
▁stockbroker	-12.9041
▁antichrist	-12.9041
▁repetition	-12.9041
▁plaster	-12.9041
▁unfamiliar	-12.9041
▁lavend	-12.9041
▁loophole	-12.9042
▁summarize	-12.9042
▁gulp	-12.9043
▁therapeutic	-12.9043
▁notebook	-12.9044
▁sandbag	-12.9044
▁fisk	-12.9045
stia	-12.9045
▁disney	-12.9045
▁attentive	-12.9046
▁reserv	-12.9047
▁hearted	-12.9048
▁archon	-12.9048
▁tempo	-12.9049
pei	-12.9049
93	-12.905
▁8000	-12.9053
cheb	-12.9054
▁spinal	-12.9054
▁refund	-12.9058
▁granddadd	-12.9062
▁vindo	-12.9063
▁knowwhat	-12.9066
god	-12.9067
▁britta	-12.9068
weed	-12.9069
▁toodle	-12.9072
▁intimidat	-12.9076
▁divert	-12.9078
▁startle	-12.9079
▁undis	-12.9081
▁hottie	-12.9082
nonstop	-12.9082
▁finder	-12.9083
▁bodil	-12.9084
▁mono	-12.9084
▁pedro	-12.9088
quette	-12.909
ordon	-12.909
ickle	-12.9091
▁announc	-12.9094
▁emerg	-12.9094
watch	-12.9094
▁helper	-12.9097
▁wher	-12.9098
▁bumper	-12.9103
▁plent	-12.9103
▁dj	-12.9105
lsen	-12.9106
iang	-12.9115
▁pooch	-12.9116
▁loma	-12.9118
▁defin	-12.9119
law	-12.912
▁kels	-12.9121
mov	-12.9121
cing	-12.9123
puted	-12.9128
▁molecul	-12.9136
▁lizzi	-12.9137
▁udo	-12.9137
▁coaster	-12.9145
▁inevitabl	-12.9149
ap	-12.9149
era	-12.9152
odin	-12.9154
▁sharpen	-12.9156
▁electron	-12.916
▁arrows	-12.9164
▁slate	-12.9166
orado	-12.9166
▁dye	-12.9169
▁inferior	-12.9174
▁oblivio	-12.9174
▁trojan	-12.9174
▁mercenar	-12.9174
▁miscegenat	-12.9174
▁hajj	-12.9175
▁rasta	-12.9175
▁indulgent	-12.9175
▁mistral	-12.9175
▁burgund	-12.9175
▁lapierre	-12.9175
ucked	-12.9176
▁extinction	-12.9176
▁tyranny	-12.9176
▁halo	-12.9177
▁midge	-12.9177
▁elise	-12.9177
▁cluck	-12.9178
▁norma	-12.9179
andre	-12.918
▁layout	-12.9181
▁hideout	-12.9182
▁caddy	-12.9183
▁nourish	-12.9187
▁captiv	-12.9191
▁brewer	-12.9192
▁conspir	-12.9193
▁sherm	-12.9196
▁quake	-12.9197
▁miyaji	-12.9197
▁119	-12.9198
▁knitt	-12.9199
▁potty	-12.92
▁bene	-12.9203
▁sargent	-12.9204
shed	-12.9205
▁tung	-12.9205
▁barricade	-12.9207
▁sedate	-12.9209
▁griev	-12.9211
▁degrad	-12.9212
skin	-12.9215
▁benz	-12.9216
sweet	-12.9217
▁mmmm	-12.9217
▁dicken	-12.9219
▁suz	-12.9221
▁irregular	-12.9223
▁viewers	-12.9225
▁amp	-12.9226
▁disqualifie	-12.9229
▁oblig	-12.923
▁procession	-12.9236
▁bland	-12.9236
▁rec	-12.9244
▁indoor	-12.9244
▁finer	-12.9244
▁nobel	-12.9245
set	-12.9246
▁melanchol	-12.9248
pm	-12.9248
▁slime	-12.9249
give	-12.9251
▁soho	-12.9252
writer	-12.9256
▁memorize	-12.9258
cock	-12.926
▁ifthey	-12.9263
▁miki	-12.9265
pose	-12.9269
nding	-12.9276
mission	-12.9278
▁majestic	-12.9278
▁curly	-12.9285
vered	-12.9286
cast	-12.9287
▁gere	-12.9288
35	-12.929
tone	-12.9293
ches	-12.9295
02	-12.9297
▁scab	-12.9301
▁stil	-12.9303
▁brink	-12.9309
▁hiccup	-12.931
▁improper	-12.931
▁mausoleum	-12.931
▁obsole	-12.931
▁dysfunction	-12.931
▁fergus	-12.931
▁imperative	-12.931
▁squander	-12.931
▁swirl	-12.931
▁plunder	-12.931
▁mosque	-12.931
▁automobile	-12.931
▁bichun	-12.931
▁abnormal	-12.931
▁radiator	-12.931
▁disarm	-12.931
▁impatient	-12.931
▁apron	-12.931
▁hazelnut	-12.931
▁crucifix	-12.931
▁telemetr	-12.9311
▁chimp	-12.9311
▁reversal	-12.9311
▁swordfish	-12.9311
▁hypnosi	-12.9312
▁dependent	-12.9313
▁abo	-12.9313
them	-12.9313
▁cushion	-12.9314
things	-12.9315
▁insolen	-12.9316
▁panc	-12.9316
▁dae	-12.9325
▁saucer	-12.9327
grassi	-12.9329
▁bor	-12.933
▁pont	-12.9331
▁neigh	-12.9332
cki	-12.9332
hair	-12.9344
11	-12.9348
▁dima	-12.935
▁crystals	-12.9351
▁porky	-12.9354
▁cheri	-12.9354
confined	-12.9355
▁puls	-12.9355
olko	-12.9356
▁grader	-12.9356
▁navigate	-12.9357
ann	-12.9358
▁melod	-12.936
▁ci	-12.9361
▁degenerate	-12.9362
▁compell	-12.9365
mitted	-12.9368
▁lair	-12.9374
▁midwest	-12.9376
panic	-12.9376
ruther	-12.9378
54	-12.9379
▁annabel	-12.9384
▁airway	-12.9385
▁hedge	-12.939
▁rak	-12.9393
bank	-12.9395
▁bloodsh	-12.9396
▁everytime	-12.9402
▁bruis	-12.9404
▁socrat	-12.9409
nfl	-12.941
▁lance	-12.941
▁compensat	-12.9412
▁oiler	-12.9413
▁yog	-12.9415
rez	-12.9428
▁alleged	-12.9434
▁aerial	-12.9436
honda	-12.9438
orbi	-12.9438
▁synchro	-12.9439
▁poul	-12.9443
tical	-12.9445
▁alzheimer	-12.9447
▁nuisance	-12.9447
▁disastrous	-12.9447
▁domain	-12.9447
▁interval	-12.9447
▁nutcase	-12.9447
▁calvin	-12.9447
▁venue	-12.9447
▁jovan	-12.9447
▁gulls	-12.9447
▁comedian	-12.9447
▁dickweed	-12.9447
▁larsen	-12.9447
▁organisation	-12.9448
▁discard	-12.9448
▁imitation	-12.9448
ors	-12.9449
▁glitch	-12.9449
▁dyin	-12.9449
▁commute	-12.945
▁lurch	-12.9451
▁dumpling	-12.9452
opped	-12.9453
▁distribution	-12.9453
▁dorset	-12.9453
▁acquaint	-12.9453
▁souvenirs	-12.9454
▁hustler	-12.9454
atomi	-12.9459
▁whinn	-12.946
▁suction	-12.9463
▁205	-12.9463
help	-12.9467
▁hangar	-12.9468
▁moto	-12.9468
aek	-12.947
▁enhanced	-12.9471
▁consumer	-12.9474
▁telepathic	-12.9475
▁suitor	-12.9476
▁pyo	-12.9476
ennis	-12.948
▁clank	-12.9482
▁thoughtyou	-12.9487
▁versa	-12.949
▁voi	-12.9491
▁bot	-12.9494
▁stephan	-12.9495
▁accusations	-12.95
40	-12.95
▁smilin	-12.9503
▁yip	-12.9503
lier	-12.9505
▁kall	-12.9507
▁intens	-12.9507
▁diagnosi	-12.9507
kay	-12.951
▁pits	-12.951
▁souffl	-12.9513
▁jens	-12.9514
izing	-12.9516
die	-12.9516
▁extent	-12.9517
▁rafe	-12.9519
▁grouse	-12.9522
apple	-12.9523
▁tunes	-12.9523
rity	-12.9525
▁milli	-12.9526
▁ashe	-12.9528
▁gains	-12.9529
▁sexualit	-12.953
▁damag	-12.9531
▁discriminati	-12.9534
▁doughnuts	-12.9534
chial	-12.9541
▁obeyed	-12.9541
▁carvel	-12.9542
▁duchess	-12.9544
▁reset	-12.9547
olec	-12.9548
▁hijack	-12.9548
▁eta	-12.9556
▁picket	-12.9558
▁gallo	-12.9558
▁mustaf	-12.956
ador	-12.9561
▁lema	-12.9563
▁skateboard	-12.9565
▁ea	-12.9567
▁sima	-12.9568
omingo	-12.9572
▁wolve	-12.9574
ppable	-12.9576
▁tetsu	-12.9578
▁nolan	-12.9579
▁gem	-12.958
pilt	-12.9584
abstinence	-12.9585
▁akrennian	-12.9585
▁decathl	-12.9585
▁grotesque	-12.9585
▁heirloom	-12.9585
▁hydraulic	-12.9585
▁tribbiani	-12.9585
▁aziz	-12.9585
▁burrito	-12.9585
▁laxative	-12.9585
▁squish	-12.9586
▁caliber	-12.9586
▁sororit	-12.9586
▁rigorous	-12.9586
▁indictment	-12.9586
▁deacon	-12.9586
▁merciless	-12.9586
▁protestant	-12.9587
▁calculator	-12.9587
▁kevo	-12.9587
▁biograph	-12.9589
▁fleece	-12.959
▁ammunition	-12.959
▁halc	-12.9592
▁glitter	-12.9592
hogan	-12.9593
▁hutch	-12.9597
▁lippman	-12.9599
▁singh	-12.9602
▁distributed	-12.9604
▁loony	-12.9605
▁cot	-12.9606
▁gunship	-12.9606
pras	-12.9607
dead	-12.9607
nose	-12.9609
▁sorens	-12.9611
amien	-12.9615
▁loneli	-12.9617
didn	-12.9618
▁sketche	-12.9621
▁vir	-12.9623
ency	-12.9624
▁builder	-12.9626
▁peti	-12.9629
▁onoe	-12.9636
▁wilt	-12.9637
ille	-12.9638
▁cooperat	-12.9641
isation	-12.9645
fuck	-12.9647
▁bred	-12.9653
orita	-12.9661
▁penal	-12.9661
▁dreg	-12.9669
▁contra	-12.9671
▁tragicall	-12.9672
ps	-12.9673
important	-12.9675
darin	-12.9675
ethical	-12.9677
▁err	-12.9677
▁dumps	-12.968
▁interact	-12.9682
gown	-12.9683
▁spat	-12.9684
▁rivet	-12.9685
ustard	-12.9686
▁demo	-12.9691
▁rajan	-12.9691
epsi	-12.9695
▁hol	-12.9695
▁opposit	-12.9695
leigh	-12.9695
▁statistic	-12.9696
▁amor	-12.9697
ruce	-12.9701
rada	-12.9706
▁oppress	-12.9707
bis	-12.9708
▁cons	-12.9709
▁esca	-12.9711
▁clams	-12.9715
ifer	-12.9716
walk	-12.9721
naiss	-12.9723
▁flaming	-12.9724
▁ashtray	-12.9726
▁gribb	-12.9726
▁parliament	-12.9726
▁peppermint	-12.9726
▁vaccine	-12.9726
▁moustache	-12.9726
▁fauchau	-12.9726
▁ornament	-12.9726
▁patterson	-12.9727
▁incline	-12.9727
▁terrain	-12.9727
▁seashell	-12.9727
▁mailbox	-12.9728
▁extravagant	-12.9728
▁angie	-12.9729
▁beverage	-12.9729
▁heartache	-12.9733
▁clash	-12.9733
och	-12.9733
adie	-12.9734
▁youngster	-12.9735
heeit	-12.9735
▁unrequ	-12.9736
▁exec	-12.9737
▁workaholi	-12.9737
▁virginit	-12.9738
▁mcb	-12.9742
▁vertical	-12.9745
▁firefl	-12.9746
▁upgrade	-12.9746
▁strengthen	-12.9751
▁mandat	-12.9753
▁bennet	-12.9753
▁jia	-12.9757
▁bahia	-12.9762
▁empath	-12.9764
▁kaja	-12.9772
fer	-12.9772
▁gre	-12.9773
▁inhal	-12.9775
▁blaze	-12.9777
▁restraints	-12.9777
▁henchm	-12.9779
▁technological	-12.9783
tious	-12.9783
▁discreet	-12.9785
nare	-12.9785
▁backfire	-12.9789
▁interviewed	-12.979
▁capp	-12.979
▁seism	-12.9791
der	-12.9792
▁futil	-12.9793
ric	-12.9794
uck	-12.9795
▁bagh	-12.9795
▁vitaii	-12.9795
▁klu	-12.9796
ven	-12.9803
▁terrifie	-12.9805
▁spun	-12.9806
ectom	-12.9808
▁chees	-12.981
broken	-12.9811
▁bras	-12.9813
uration	-12.9814
lkin	-12.9815
000	-12.9816
▁190	-12.9816
▁ranking	-12.9818
again	-12.9819
▁founder	-12.9824
▁lp	-12.9835
▁flor	-12.9836
dest	-12.9837
▁shrivel	-12.9837
iki	-12.9837
▁discourag	-12.9839
▁gaz	-12.9841
▁foresee	-12.9848
89	-12.985
▁toxie	-12.985
▁frat	-12.9851
yeah	-12.9851
gc	-12.9853
orbet	-12.9855
▁grr	-12.9855
trick	-12.9861
▁succu	-12.9862
▁berry	-12.9867
toplasm	-12.9869
▁berserk	-12.9869
▁implication	-12.9869
▁reclaim	-12.9869
▁schwartz	-12.9869
▁tribute	-12.9869
▁syringe	-12.9869
▁superhuman	-12.9869
▁bloodhound	-12.9869
care	-12.987
▁mishap	-12.987
agan	-12.987
▁listener	-12.987
▁dirtbag	-12.987
▁jukebox	-12.9871
▁adrenaline	-12.9871
▁leper	-12.9872
enny	-12.9873
▁credi	-12.9874
▁clinton	-12.9874
▁pubic	-12.9875
▁transcript	-12.9875
▁empower	-12.9875
▁hick	-12.9877
▁testified	-12.9877
▁ceremoni	-12.9877
▁berke	-12.9878
▁pester	-12.9879
▁pus	-12.9879
▁techno	-12.9879
▁mystical	-12.988
▁vale	-12.9882
▁suspense	-12.9882
▁inscription	-12.9885
▁freighter	-12.9886
sric	-12.9887
magog	-12.9888
▁deede	-12.9889
▁pats	-12.9891
▁purchas	-12.9895
▁setback	-12.9895
went	-12.9898
▁daytime	-12.9904
▁stimulat	-12.9907
slaughter	-12.9909
▁phillips	-12.9911
▁tier	-12.9911
enora	-12.9919
▁hasten	-12.9919
▁vos	-12.992
▁nud	-12.9927
▁gris	-12.9927
▁moor	-12.9929
38	-12.9937
▁loom	-12.9938
▁convicts	-12.9938
ishi	-12.994
▁anal	-12.9942
coli	-12.9943
cooked	-12.9943
cag	-12.9945
jay	-12.9947
▁subtitle	-12.9949
▁racer	-12.9949
ailed	-12.995
▁cherished	-12.995
▁deepen	-12.9953
▁desperat	-12.9954
▁placement	-12.9955
▁permissi	-12.9956
strong	-12.9962
▁temp	-12.9963
▁thermo	-12.9968
▁farce	-12.9969
▁arroganc	-12.9972
ker	-12.9978
▁stride	-12.998
▁undergo	-12.9991
▁prescribe	-12.9992
▁suffocate	-12.9994
uffi	-12.9997
rassment	-12.9998
▁johann	-12.9998
▁compensati	-12.9999
▁encourag	-12.9999
▁trait	-13
ida	-13
▁haste	-13.0001
▁metaphor	-13.0002
aller	-13.0003
▁differ	-13.0006
▁shaq	-13.0008
uz	-13.001
▁fol	-13.0013
▁cylinder	-13.0014
▁portfolio	-13.0014
▁predicament	-13.0014
▁sibling	-13.0014
▁superficial	-13.0014
▁cuckoo	-13.0014
▁swoop	-13.0014
▁eyelid	-13.0014
▁implement	-13.0014
▁comprehensi	-13.0014
▁drumstick	-13.0014
▁giacom	-13.0014
▁huki	-13.0014
▁rannu	-13.0015
▁crafts	-13.0015
▁fundamentalist	-13.0015
▁marma	-13.0016
▁elph	-13.0017
▁indulgence	-13.0017
▁sulk	-13.0017
▁guerrilla	-13.0017
▁slammer	-13.0018
▁donor	-13.0018
▁fiirst	-13.0018
▁sentient	-13.0018
▁blooming	-13.0021
▁quota	-13.0021
▁pending	-13.0022
▁ballistic	-13.0024
▁balm	-13.0025
▁clack	-13.0028
▁romanian	-13.0031
▁kato	-13.0031
mmune	-13.0033
▁acute	-13.0033
▁reap	-13.0035
▁meek	-13.0038
▁ric	-13.0039
▁rental	-13.0041
▁kir	-13.0044
onoa	-13.0045
▁dimensional	-13.0046
[...]
