[PAD]
[UNK]
[CLS]
[SEP]
[MASK]
you
i
the
s
to
a
it
##s
t
that
and
of
what
me
in
we
is
he
this
m
on
for
your
my
no
do
re
don
have
be
##ing
not
are
know
was
can

all
with
so
but
just
here
get
##ed
ll
there
they
like
##y
go
up
right
she
out
about
if
him
come
at
one
oh
how
now
got
her
yeah
ve
want
well
good
think
see
let
who
did
why
will
his
d
from
back
yes
time
##d
gonna
look
man
when
us
okay
where
an
take
as
going
tell
some
or
them
hey
say
then
had
were
would
been
really
our
could
##e
down
something
didn
make
too
way
by
little
##ly
never
over
need
more
give
off
love
has
mean
should
am
sorry
very
only
two
said
please
people
because
god
help
thing
doing
sure
any
thank
much
even
these
call
work
life
still
uh
day
night
find
nothing
great
##a
wait
anything
home
stop
talk
mr
put
first
won
maybe
last
again
into
thought
sir
girl
before
away
new
must
keep
other
their
big
long
those
than
better
told
old
guy
shit
ever
name
leave
fucking
always
guys
after
fuck
around
believe
ok
everything
nice
##o
car
doesn
does
things
money
##es
feel
place
remember
years
thanks
listen
kill
hi
fine
isn
father
l
hear
three
##er
every
stay
bad
hello
wrong
gotta
made
kind
understand
minute
hell
wanna
lot
left
##n
##ie
own
dead
1
coming
may
world
ask
someone
which
house
boy
wanted
enough
baby
dad
try
show
talking
care
problem
real
woman
came
mother
mind
next
another
happened
through
son
done
friend
huh
today
else
course
##t
hard
move
hold
start
looking
wasn
went
best
head
yourself
same
might
being
together
found
morning
brother
die
##on
room
live
guess
getting
wife
ready
many
bring
seen
job
ain
##ies
open
matter
saw
idea
trying
play
heard
happy
excuse
tonight
wouldn
second
most
mom
miss
knew
run
already
dog
00
once
pretty
ha
end
meet
men
use
school
damn
turn
family
without
week
days
2
watch
tomorrow
while
called
shut
door
hope
o
haven
face
lost
took
friends
worry
yet
bye
heart
myself
whole
fire
five
drink
year
couldn
close
cause
used
check
gone
such
business
killed
ass
ago
eat
saying
sound
since
sit
hand
stuff
kid
water
actually
phone
bit
change
everyone
hurt
under
says
later
um
both
pay
easy
##lone
everybody
em
c
music
four
thinking
deal
somebody
late
true
few
forget
hit
anyone
e
beautiful
anyway
looks
wants
point
until
case
part
wish
police
cut
each
##man
mine
ah
soon
read
ma
sleep
hate
happen
half
fight
having
high
##i
crazy
doctor
whatever
probably
eyes
side
kids
inside
supposed
nobody
aren
3
##us
game
##l
jack
buy
young
number
gun
word
trust
exactly
death
far
boys
break
jesus
##r
stupid
body
different
also
honey
bitch
women
afraid
shot
fun
hours
person
question
gave
answer
john
sister
cool
light
order
story
war
speak
line
b
stand
reason
walk
makes
important
asked
save
chance
whoa
taking
rest
six
working
full
set
party
power
husband
free
married
welcome
town
waiting
funny
making
hands
plan
perfect
hmm
f
goes
moment
behind
least
pick
ya
child
red
daddy
truth
blood
finish
means
clear
5
serious
times
couple
black
daughter
mrs
##able
10
book
almost
##th
special
though
shoot
shall
met
against
hot
between
anymore
captain
hang
dr
pull
sweet
drive
bed
touch
lose
hair
fall
y
trouble
000
president
ahead
promise
charl
tried
lt
died
anybody
alive
quite
front
##ness
office
un
sing
ten
hurry
telling
air
30
ship
feeling
##ity
playing
top
piece
food
return
20
01
fact
write
started
movie
control
p
lie
brought
##you
either
white
send
quick
4
n
knows
team
##al
comes
city
children
shouldn
dinner
small
##h
count
bastard
seems
outside
able
hour
ring
human
chief
sometimes
rule
##is
scared
voice
lord
catch
laughing
kiss
dream
lady
months
wow
bet
news
dear
luck
past
star
careful
sex
sick
law
sort
become
till
cry
living
king
secret
along
ooh
##en
lives
himself
de
ladies
goddamn
safe
sign
song
fast
scream
##ne
dance
test
sense
parents
christmas
cold
fly
cannot
beat
perhaps
country
running
mm
leaving
rock
company
leg
gets
lucky
million
enjoy
officer
street
class
christ
win
wake
date
boss
earth
explain
##est
tv
learn
poor
fish
words
seven
sell
la
u
paper
glad
state
taken
smell
r
happens
asking
follow
feet
short
stick
seem
##ton
needs
0
sent
##m
hospital
murder
kidd
alright
straight
peter
picture
sun
8
wear
drop
gentlemen
calm
blue
##in
50
ball
rid
throw
report
strong
soul
budd
meeting
worth
mad
pass
calling
smart
expect
park
box
yo
ii
somewhere
j
coffee
frank
k
weren
gold
figure
blow
quiet
paul
ride
busy
wonder
fix
mouth
possible
g
finally
general
eye
w
strange
choice
present
15
relax
mistake
act
loved
angel
round
system
deep
honest
less
none
bag
honor
bar
eight
nick
clean
sea
fuckin
wonderful
forgive
evening
##0
felt
age
early
bob
uncle
future
land
respect
moving
master
step
9
happening
court
marry
tree
others
birthday
bill
grow
##where
fault
continues
ray
fat
weapon
questions
machine
greg
##ce
worked
sara
doin
jimmy
unless
looked
pain
killer
h
lead
ho
road
aah
club
rich
dark
turned
longer
share
bobby
known
slow
changed
visit
forever
##le
month
speaking
giving
tired
wedding
idiot
cover
glass
charge
imagine
seat
dude
br
push
record
harry
yesterday
fool
gasp
accept
worried
agent
19
tom
tony
attack
michael
offer
hoo
james
near
destroy
green
born
rather
situation
##an
stone
sam
absolutely
grand
works
suit
jump
film
wall
sake
roll
##chinese
takes
laugh
fear
scene
ground
knock
message
radio
weird
ice
quit
lunch
join
college
floor
student
watching
clothes
thousand
ow
asshole
table
george
da
goodbye
12
goin
##ic
handle
arm
protect
spend
jim
plane
coach
york
dress
worse
##st
french
american
henry
fair
sad
dollar
island
simple
train
##na
broke
hole
boat
terrible
meant
mess
brain
bank
totally
mmm
completely
boyfriend
caught
planet
ran
##ion
window
information
lying
anywhere
girlfriend
except
max
holy
animal
dangerous
david
steal
groan
hundred
seeing
hide
given
peace
##go
kept
chuckle
pilot
attention
bought
building
amazing
tommy
dick
missing
mary
lovely
forgot
pleasure
warm
notice
surprise
evil
san
sitting
swear
service
kick
store
decided
field
hasn
cop
bullshit
heaven
gift
tape
chicken
letter
definitely
cat
missed
carl
accident
burn
##security
during
relationship
force
truck
condition
##ney
card
teach
mate
hungry
spirit
russian
bother
mama
ticket
horse
lay
station
interested
fell
match
wilson
killing
joke
tough
key
pack
list
##ine
##ous
##less
breath
rain
normal
talked
decision
trip
enem
wood
tea
lock
feed
fit
beer
suppose
hank
owe
patrick
needed
proud
##land
drunk
sammy
press
band
40
apartment
interesting
japan
smoke
certainly
certain
afternoon
art
victim
##illy
shop
computer
area
hotel
pants
dogs
level
middle
smile
##ary
position
reading
grace
contact
twice
broken
fucked
personal
suspect
major
wind
double
third
block
drugs
appreciate
german
begin
instead
dying
teacher
realize
maximu
bloody
##ance
single
south
agree
soft
carry
grab
create
difference
paid
form
##k
stuck
low
fighting
fella
deserve
favor
##ese
mark
cute
army
##or
freak
gay
across
##to
commander
soldier
van
cops
lived
bus
guard
group
space
standing
private
nine
disappear
professor
forward
especially
pray
darling
besides
english
keys
lawyer
exist
self
wrote
flight
histor
summer
books
treat
cross
emperor
crap
reach
suck
camera
board
25
##it
foot
tight
action
continue
##ment
motherfucker
wearing
crime
church
kim
account
##2
taste
100
unit
crowd
america
wine
screw
miles
stole
moved
congratulations
##ting
eric
sleeping
fill
named
difficult
daniel
##5
impossibl
crew
fresh
public
entire
whether
village
nose
mission
complete
sunday
memory
price
doubt
remain
pant
shh
spent
jail
beach
cook
prison
cup
patient
dreams
rome
risk
file
appear
nervous
ex
walking
natural
loves
neither
search
liked
writing
cindy
decide
stopped
upset
laughs
shoes
v
dare
marriage
cars
##re
cash
ohh
##ry
final
crack
calls
cost
victor
waste
mum
obviously
correct
support
devil
eh
survive
extra
command
feels
shirt
mommy
page
copy
partner
size
blame
upon
within
became
judge
mickey
driving
pretend
winner
singing
admit
whose
pete
arms
detective
richie
##ty
london
twenty
nuts
whoo
client
raise
address
worst
prove
dumb
eating
jean
grunt
naked
billy
bullet
pressure
x
evidence
score
11
chan
north
juice
wash
west
robert
beep
grandma
listening
mon
outta
al
pal
heavy
plant
thomas
li
strike
bear
experience
trade
camp
duty
closer
joe
magic
milk
clock
choose
type
promised
chair
figured
mention
escape
states
co
wound
speed
picked
18
paris
hero
jeff
river
faith
using
14
holding
pictures
neck
bigger
##ourselves
##eth
angry
blind
fail
battle
often
##son
dirty
sigh
hat
joey
bell
ugly
losing
wild
cell
chocolate
involved
asleep
meat
games
television
shouting
consider
cheat
moon
trick
folks
character
deliver
favorite
hire
hadn
sugar
race
drug
staying
cousin
##ighs
er
passed
orders
apart
usual
##4
guilty
aunt
pig
24
sweetie
lots
restaurant
crash
eve
bird
prince
##1
east
gotten
lights
leader
spot
flying
pop
suddenly
13
colonel
firm
el
empty
government
##age
selma
skin
beg
faster
monster
bottle
beauty
pie
male
fingers
stock
piss
queen
##emergency
##side
cheering
stage
breathe
dan
lift
video
huge
football
code
##by
##x
navy
thinks
kitchen
plann
breakfast
ben
lover
##8
bomb
hid
track
##ation
mail
defense
allow
##ful
##rcy
##g
contract
friday
serve
learned
weight
stolen
themselves
cake
color
teeth
incredibl
balls
energy
local
annie
suggest
base
market
herself
sword
operation
##dancing
main
beginning
jersey
##men
common
checked
##stairs
shooting
gas
excited
otherwise
princess
draw
simply
nothin
cookie
bucks
director
kevin
criminal
200
taught
sky
arrest
yelling
spoke
bunch
load
bathroom
##3
spell
crichton
jane
issue
ridiculous
##p
rose
however
national
above
feelings
##ism
throat
beyond
danger
kelly
greatest
lieutenant
bridge
study
##ers
remind
innocent
walked
allowed
bottom
depend
sold
travel
##apparently
dump
prepare
famous
farm
phil
pocket
further
##way
saturday
locked
driver
##ley
settle
wondering
itself
karen
##ard
cigarette
ali
term
buffy
##the
written
apologize
loud
interview
united
##aved
johnn
practice
##ory
mike
add
sweetheart
interest
chuck
##town
##ng
acting
china
##pregnant
weekend
##u
powerful
played
lookin
hanging
21
weather
writer
monsieur
rescue
##mmediately
excellent
ones
dry
build
lesson
signal
super
santa
cos
bright
saving
mars
whisper
cream
approach
stories
smok
grunts
sergeant
missile
fan
snow
grade
dressed
500
ro
ruin
horribl
heat
credit
creature
flowers
insane
##um
rings
jerk
mac
chattering
shame
eggs
engine
##c
opportunit
target
shower
large
talent
madame
fate
le
kuzco
##ve
weak
understoo
held
washing
professional
zero
painting
result
quarter
percent
rush
loose
gives
##gotten
nature
seemed
happi
##time
damage
##cy
skip
horn
original
biggest
season
luke
release
cale
plus
yep
nearly
project
comin
suffer
purpose
turns
corner
moya
adam
warn
due
russell
whore
sin
bedroom
career
player
prisoner
nor
plate
fortune
harm
shake
print
butt
knife
brian
swing
##w
program
bite
airport
recognize
repeat
truly
noise
opinion
chica
fake
alarm
cheese
medical
bodie
##putting
official
mountain
stars
scare
lonely
virgin
##el
##9
rent
pikey
somehow
allen
tongue
gal
egg
request
dewe
surprised
conversation
hearing
rise
awful
concern
talkin
whoever
lately
william
na
cheap
spread
belong
22
merry
earlier
freedom
cards
fantastic
ls
vote
carter
##ny
bike
rachel
research
witness
starts
onto
##me
event
bori
clone
built
tie
alex
yu
fry
chip
priest
discover
ifyou
dropped
nurse
cow
strength
universe
bang
nation
sight
following
path
mood
turning
gang
according
threw
usuall
helping
discuss
finger
lf
stink
yell
square
nail
bringing
total
responsible
particular
gate
aye
center
ross
##fbi
grown
style
josh
poison
department
health
showed
arrived
brave
among
##zzy
##la
storm
fucker
hall
guns
toilet
senator
trial
keeps
demon
rough
whom
divorce
kinda
dentist
indistinct
genius
tiny
roof
shock
dean
thirty
responsibilit
headed
funeral
agreed
dust
lee
##work
view
loser
teddy
expensive
##plenty
prepared
although
jones
hook
spare
stomach
##lept
heads
jealous
##b
process
##ozz
marcus
shift
disgusting
jo
aware
##just
##secretary
france
map
chuckl
cheers
several
tank
anna
mirror
lies
aw
split
regret
pool
older
##et
freeze
artist
##rene
hoping
hm
seek
brilliant
aeryn
penny
somethin
comfortabl
enter
climb
sexual
sneak
brown
desire
titan
speech
jinx
celebrate
direction
vision
grandpa
language
##ish
lab
pills
expert
introduce
advance
cheer
jacket
customer
memori
familiar
example
doc
pizza
affair
linda
scary
squeak
fourth
##ia
flesh
romantic
soviet
meal
rat
destin
mo
tooth
tigger
possibly
opening
insurance
cough
shoulder
ofthe
pre
photograph
bread
shape
eddie
hut
wet
unfortunate
sacrifice
lenn
post
female
military
actor
pump
##ta
indeed
paying
martin
tip
focus
swim
natali
xen
garden
senior
##ford
murdered
neighbor
knee
design
gettin
screwed
magazine
##00
necessary
diamond
physical
century
##board
steve
sheriff
manager
ear
switch
##nvited
california
abandon
breaking
loss
##hopping
willing
skull
stranger
shadow
##farb
effect
proper
honour
suicide
pot
tit
elizabeth
meaning
italian
model
pure
suh
holiday
grew
majest
training
st
##ett
bow
slave
larr
hill
afford
shows
waited
higher
desert
buried
degree
wheel
tripp
pair
golf
range
##coming
witch
expecting
fifty
##ville
brick
crush
charles
clue
ghost
cunt
ginger
paint
drove
rope
permissio
license
23
respond
yellow
##erry
bleeding
elliot
anti
spring
subject
prefer
babe
picking
social
wing
wise
fredd
chris
dig
ought
pam
lou
momma
whenever
medicine
pen
miracle
names
recover
lower
rare
mister
refuse
coin
routine
pounds
legal
bookie
investigation
success
avoid
desk
access
grave
nightmare
jas
plays
ears
candy
snake
favour
gorge
ill
claim
stayed
march
assume
easier
prayer
blew
skinn
kenny
amen
warning
bath
jeez
zhaan
rub
swallow
justice
##no
lines
silence
pardon
robber
sharp
barely
skill
collect
45
##hood
screen
rabbit
alan
personally
dat
whistle
soup
thursday
handsome
mulder
ocean
heh
caesar
35
fi
##place
##house
monday
slowly
sexy
sudden
assistant
value
creep
thin
sending
safet
per
numbers
image
regular
bark
ancient
positive
sentence
signed
rolling
advice
option
##lena
th
science
university
##ally
jam
clever
stan
doors
covered
punish
luc
unbelievabl
##water
argo
england
gene
##alone
grinch
deck
proof
##your
pro
sweat
birth
##ah
hunt
sidney
awake
excit
flash
cast
mu
confuse
shine
fed
##ive
edge
appointment
societ
kronk
cap
retire
##eries
wh
pissed
ate
48
bate
statement
towards
##monica
dealing
tyro
ln
attitude
alien
pour
easily
tear
chest
threat
debt
thoughts
diver
chandler
toast
28
sally
downstairs
tour
belt
pussy
bay
gerry
kip
wave
ends
note
vacation
political
##z
nerve
##ar
row
concerned
touched
heading
moan
negative
coat
blast
##junuh
fellow
technolog
roy
perform
doug
di
sid
tone
cather
bust
##laid
guest
uniform
secure
susan
obvious
eagle
richard
dive
tail
fuel
cares
staff
##ey
monkey
invite
jerry
challenge
trash
tradition
pleased
letters
ruined
earn
sat
competition
pathetic
seal
sooner
coke
bone
##and
lips
punch
schedule
arrested
healthy
treasure
papa
realized
roger
jake
crown
delmar
palace
bro
forty
audience
circle
trigger
julia
sub
manage
object
mayor
ra
horses
separate
caravan
tall
based
telephone
eun
knowledge
amount
attempt
raised
joking
manner
illegal
received
memph
clearly
syd
aim
##as
fighter
ahh
taxi
cancel
cure
courage
doll
drag
gimme
gentleman
slip
ch
grad
pigs
chian
glor
birds
dawn
##complicated
chow
narrat
fancy
fred
32
bowl
chester
unusual
surface
resist
smooth
castle
rip
russ
pound
below
finding
develop
hung
click
80
avi
madam
popular
distance
edward
script
photo
role
followed
borrow
##pe
babie
oil
fox
##om
agreement
protection
300
murderer
inspector
walter
indian
thy
generation
reward
forced
pink
bless
donna
guarantee
stood
atmosphere
trace
tuesday
marion
brand
nonsens
jesse
forces
cod
junior
propert
chain
odd
goal
concentrate
##rselves
burning
screech
crab
roman
hart
cancer
giant
maria
prize
alert
kong
wolf
demand
##te
flower
hon
remove
sebastian
solve
ne
loving
saint
polic
grass
embarrass
brains
hop
fashion
pulse
link
sensitive
mass
betray
nasty
defend
kicked
replace
governor
lack
badly
gale
technical
owner
##laughter
31
sherman
scull
##ted
flow
gee
ouch
bride
##well
younger
confess
launch
caused
lane
hearts
doctors
cab
liar
pee
attorney
bo
mi
ways
cuba
44
boring
cruel
moron
member
joint
solution
chi
period
vampire
midnight
violet
site
##aggie
bump
defeat
golden
twin
dragon
##do
robot
advantage
ships
aya
device
basically
winning
##ll
ashame
prick
affect
incident
interrupt
fought
malcolm
circumstance
temple
coward
direct
nah
studio
beating
dirt
shout
torture
##dick
disease
eaten
twist
sand
pace
squad
louis
decent
##ball
aid
drown
alice
mill
letting
bugs
unlike
##sh
belongs
ko
librar
leo
slut
twelve
randall
woke
buzz
##that
connection
exercise
including
reservation
stress
mental
material
pity
##eventually
##down
moral
package
lindsa
##ling
becomes
flat
community
vian
jewish
boom
revenge
33
hug
limit
carrying
represent
janni
##my
tires
hong
iron
friendship
phoeb
dozen
showing
connor
29
yard
silent
current
wherever
wide
changing
engaged
fairy
mentioned
complain
hail
chick
details
woods
champagne
spy
impressive
maid
insist
90
ba
runs
darkness
34
marquis
scar
grandfather
punk
ja
coast
##rice
simon
transfer
raymond
murph
extremely
pulling
marty
engineer
forest
equal
spit
host
sniff
thunder
ken
treatment
bury
thief
fruit
bing
passing
cock
blessed
##ada
rude
honk
##bility
recall
angels
charm
wire
gracie
oz
lads
shin
knocking
chop
transport
uhh
marshall
members
root
diet
poem
toros
metal
led
hunter
channel
impress
describe
pitch
commod
sunshine
##ger
throwing
rate
##elling
boo
reputation
sunny
instinct
##refore
stake
council
growl
possibilit
gifts
vessel
siren
dave
heal
winter
chosen
plain
lake
##ner
##seriously
precious
ignore
tyler
##io
bones
sometime
rev
activit
blowing
lo
bored
reached
otto
provide
silver
con
panic
served
adult
leonard
bags
museum
min
z
lion
alcohol
pipe
##ha
rick
rocky
thick
underwear
anger
progress
culture
shoe
performance
deny
net
bound
steady
guests
neighborhood
someday
falco
rhode
mixed
emotion
movement
union
comfort
boost
personalit
caroline
aside
burned
exact
##ship
spending
mountains
su
signs
factor
damned
faggot
grateful
florida
denny
dough
kathy
sale
comte
kingdom
bud
crawl
grandmother
thankyou
po
seats
producer
gain
##anouk
05
##kyle
gosh
##rmed
corpse
##alyn
location
product
button
meter
brake
pattern
regard
guards
buck
alpha
arrive
photos
##ck
miller
malen
legend
smith
sports
suffering
##up
shield
motion
blade
##ality
exchange
curious
closing
tiger
walls
sol
##ian
rile
spin
curse
chat
kitt
400
standard
disappointed
presenc
teal
anytime
sandwich
notes
whit
##poken
experiment
highness
##ence
tied
chase
garbage
cleaning
empire
kate
tunnel
attend
data
stab
lifetime
thinkin
sue
royal
europe
lily
habit
tryin
tattoo
species
##ember
rud
violence
float
eleven
foreign
##ler
route
guide
fir
outfit
chill
central
cowboy
exit
49
port
val
stopping
##wood
novel
##ily
spoil
mystery
kissing
rocks
tube
leak
##ast
trap
wayne
hollywood
applause
tears
widow
procedure
emotional
crossed
behave
##oise
humans
trapped
##hem
iike
billion
tale
beast
africa
relative
##more
journey
plastic
lisa
loan
mostly
demons
slight
border
##gher
##like
delicious
baker
##rucker
mix
cheung
turkey
pappy
##ko
cheerleader
sadako
continuum
bat
mile
flag
response
colour
##tty
dancer
warrant
mid
potato
##committed
streets
thrill
chicks
solid
reckon
embarrassing
mask
motor
escaped
##ummy
commercial
gyps
measure
##rold
dies
butter
##line
minister
##recently
effort
carried
awesom
llama
average
##rnon
42
falls
##ist
constant
filth
pride
albin
players
aii
cave
strip
opens
madeleine
beloved
warrior
##field
cliff
deaf
##transfunctioner
orange
attractive
insult
behavior
influence
ambassador
##neill
intend
q
##we
opera
matthew
towel
cart
false
argument
traffic
dial
hous
dealer
bets
##enate
campaign
christian
highway
cells
patch
afterward
pierce
scott
former
learning
frame
##our
explosion
cotton
title
subtitles
vice
fans
wipe
jobs
worker
sail
reaction
##neath
broad
blah
successful
confession
lil
catholic
pa
broker
##da
brief
prom
transferr
voyage
gates
chlo
ca
lung
bull
est
bug
backward
##am
rape
julie
eleanor
marie
hitting
exam
album
coincidence
drej
rumor
ellen
ambulance
boone
electric
joy
dawson
fifteen
religion
trained
harris
stroke
##at
politics
colleague
fabulous
equipment
impression
films
leading
associate
salad
shell
element
##ka
hip
express
miserable
en
rob
gail
blows
farmer
##lody
sheet
##ius
areyou
guts
terrific
require
ranger
chin
scan
##ier
virus
passion
poetr
starv
considering
faces
committee
mustn
bible
terri
pageant
breasts
unknown
powers
chose
campsite
production
fund
tick
garage
grant
##kul
gross
homicide
explanation
uld
capable
foryou
matt
threaten
mist
swimming
scratch
cage
08
statu
remembered
clon
section
non
jackson
tap
delivery
mysterious
task
chef
education
38
nuclear
hidden
##bbing
string
##ur
##zma
valley
sport
symbol
##began
raine
##be
goa
treated
maintain
newspaper
davis
volunteer
moments
##herry
nut
cum
touching
##exico
##lipped
studie
ordinary
proceed
satan
##uana
citizen
charming
##back
apple
oxygen
hans
servant
lousy
##ber
receive
tu
raped
donny
flip
gar
counter
concert
offense
sample
shark
carrie
faint
whale
visual
wednesday
##light
actress
failure
guru
chamber
offering
penis
##arla
argue
akima
wreck
millions
elevator
dope
directly
apply
##lyn
normally
article
authorit
commit
couch
diving
yang
kidnappe
circus
##ware
piano
fifth
painted
fence
bos
steven
guitar
focker
##taly
##il
shrink
modern
remote
psycho
beth
maya
studying
pile
duck
jenn
nest
chant
angle
09
fur
arrange
cole
cleaned
messing
busted
unique
claire
bett
immortal
lesbian
##ceremony
oliver
turk
##out
dylan
johns
considered
teaching
##vy
snap
reveal
league
52
##dennis
tower
pervert
##tic
cycle
ka
pin
suitcase
punishment
##ois
slide
##ium
vehicle
chances
frankly
cutting
##mon
cy
woo
jen
spanis
surrender
sunset
instrumental
doyou
attract
entirely
wore
toward
bend
individual
abby
wha
##urke
griffin
assignment
closet
conference
admiral
mere
smash
taylor
collin
casino
capture
bout
ending
recent
purple
genetic
soda
superior
survival
pole
repair
apolog
ritual
laws
quality
smil
popp
hack
surger
arab
##ron
jury
patrol
workin
comment
##gan
spaniard
##ities
##yama
musical
latest
intelligent
international
convince
distract
roar
sec
connected
injur
joined
survivor
dreaming
04
petey
urgent
congress
mistress
glove
basement
sire
bum
desperate
shelter
jessica
windows
##what
03
junk
##rs
useful
steps
succeed
##ability
react
55
parade
bollocks
boot
managed
jin
singer
tiggers
assault
headache
fist
##british
inch
threatened
version
weir
vega
sack
sean
tricks
instrument
##lois
nights
lean
wicked
paradise
fever
minor
mighty
chew
detail
bond
intention
shy
signature
assure
gear
hunting
convinced
humor
del
friendly
favourite
shak
frighten
horror
christie
##pacha
51
struggle
cloth
sabrina
doofy
##cordia
feeding
##of
02
wings
fascinat
williams
audition
basic
wail
mobile
chopper
marshal
accomplish
goddess
properly
jill
crunch
dolphin
gangster
theater
marks
squeal
nige
##ntelligence
barry
bounce
deed
erro
knox
whack
announce
earl
helen
suspicious
searching
nigger
##ture
mortal
##ev
##rapy
champion
##nd
ryan
belly
ryge
nelson
peacekeeper
surrounded
zone
##cha
selfish
wal
jennif
released
virginia
loop
flew
duncan
unhapp
##ial
bare
gero
rank
liz
melt
thou
appearance
salt
hits
likely
wallet
fetch
francis
kicking
identit
cris
drawing
charity
jews
bald
federal
embrace
baseball
struck
reverse
log
tune
fu
effective
everyday
##ter
ju
boots
medication
parts
custom
auto
engagement
pat
##ichi
burst
##his
gum
math
vic
confirm
##ong
dam
##ayday
javi
fianc
brush
##ra
salute
herr
judy
kelso
mouse
robin
##ud
robbed
whimper
##nimo
##edex
rod
compare
serge
##chev
mall
recommend
dessert
loyal
43
collar
announcer
hills
confirmed
comrade
##ant
heck
permanent
balance
antoni
joseph
##hane
custod
nephew
vegetable
gunshot
anonymous
wondered
removed
torrance
coffin
gentle
kath
ar
martial
##chasing
han
await
breast
mc
##one
##ch
bi
source
antho
##ace
jan
bak
##with
jokes
##rank
##f
reporter
pierre
similar
thirst
necklace
aaron
precise
sailor
noble
hundreds
witnesse
believ
##ternity
ugh
ease
donnell
include
pearl
shore
steam
anniversary
pepper
ingrid
gambl
tribe
hose
yee
whistl
compliment
laser
drawer
##he
corn
##rsia
scientist
traitor
blonde
disturb
bail
blank
bicycle
greek
fuss
realise
gig
permit
gibson
evan
##gency
passport
nazi
oops
duke
cats
morgan
##ble
severe
39
ultimate
employee
ward
payment
tapes
##ina
serial
barren
digg
propose
mistaken
##ski
medal
flame
jacob
##radiation
supplie
setting
leather
polish
humming
crai
internet
tastes
flush
clinic
margaret
defendant
laura
fried
closes
##nthia
88
wisdom
imagination
rehearsal
goddam
function
puff
sons
daily
skirt
temperature
sayin
tag
odds
maureen
##born
award
fulfill
barn
guilt
pax
tries
pops
declare
shaw
mud
150
rm
beef
mel
amy
58
cloud
vince
lamp
sausage
tricky
stands
stairs
gabriel
submarine
hagen
review
basket
entered
asks
##eless
muscle
admire
noodle
##emily
lynch
russia
palm
steel
solar
obsess
potential
lend
blanket
bullwinkle
jewel
fag
scoff
len
document
fii
##sen
lecture
revolution
capital
fisher
tak
frog
peasant
visitor
lewis
pleasant
cried
tragic
squirrel
##ied
##mine
organ
pinch
syncord
collection
fee
ripped
beans
campbel
escort
communication
##kyo
consequence
drill
drama
bloke
lester
##gun
massage
vi
tax
principle
stoke
sway
forth
albert
fez
beam
complex
praise
borrowed
chickens
principal
wrap
##drew
eternal
retard
cheek
##dallas
pit
##here
nova
yea
##ut
bench
sweater
method
bowman
pod
polite
##ya
##ris
##mmond
stare
division
steer
messages
crystal
##ad
wheels
fingerprint
acid
lap
crimes
sang
charged
aryan
tech
gravit
prevent
marlin
##ring
possess
dum
peanut
slipper
fade
sacred
ga
53
chad
##this
rabbi
hood
laundry
increase
abbe
59
arts
restore
##all
inform
author
begging
nam
sap
socks
depress
grann
worm
supply
obey
##not
41
##ating
forgiven
sorrow
proxim
waves
cafe
ee
centre
##iest
plot
chantal
discipline
##ro
slam
freez
spray
che
broadcast
motive
wax
fields
cease
rats
specific
engines
families
weakness
spiritual
heel
philosoph
tend
skipper
johnson
ditch
benefit
negro
contest
boats
wrapped
99
suggestion
toke
reminds
slice
yup
jar
granted
ann
conflict
championship
arrangement
gabriell
cable
occasion
impact
lipstick
petty
brav
chemical
labor
##artha
##v
thrust
fold
relief
editor
expression
rage
candle
##sworth
jani
massive
coma
publish
disaster
dismiss
envy
quarterback
chairman
prof
select
brad
invitation
discussion
explode
conclusion
typical
blessing
occurred
madness
##ixth
carlo
harvey
objection
tracks
sales
gather
whoop
conquer
bait
deput
foolish
daughters
squeeze
active
reported
terribl
##ized
adrian
delay
du
rhythm
approve
greater
hopeless
deni
joon
technique
mitch
arn
nap
partners
##andra
##onnie
instant
costume
sensor
spice
joining
texa
bonj
brenda
tragedy
gune
pub
prime
recording
##away
absolute
stream
gamma
##niki
cam
doo
bender
determine
los
religious
nder
##spite
lit
54
merely
##nn
deposit
disguise
jungle
answered
waiter
bubble
gray
pirate
violent
cd
creative
timmy
libert
reject
wander
locker
thieve
remarkabl
invasion
feelin
backup
asses
makeup
hyde
soprano
jonathan
trunk
ego
##dishes
enormous
roast
josephin
narrow
commitment
wu
bounc
pet
christophe
partie
troop
yards
lauri
facilit
aaah
cord
painful
brashear
shove
exhale
hatch
##ran
extraordinar
bon
tae
western
worship
##ai
delta
cameras
organization
stretch
2000
jun
appeal
orbit
chapter
possession
folk
scale
background
bells
august
concept
copper
frozen
satisfie
instance
miser
mob
luis
trail
ancestor
fortunate
distant
confidence
kidnapping
##red
atlantic
monkeys
counsel
##nie
##nt
fischer
dropping
silk
mercedes
##lee
achieve
fame
carol
##rd
jordan
bart
tissue
casey
media
peaceful
reserve
junkie
poo
calitri
valuable
yank
judgment
pill
upper
auntie
batter
invisibl
worrie
celebration
alternative
repet
trouser
niece
rack
##don
scheme
##appy
mick
##den
cabin
wive
tense
content
sandy
buzzing
feather
drain
guid
kron
phase
scout
magnificent
##co
pu
sets
tan
uncomfortabl
aggressive
retreat
ror
ski
fax
unh
walks
lick
serving
##ious
##hannah
95
vincen
july
sta
assistance
georgia
privilege
bitter
conduct
mutter
nk
deb
spike
flatter
mari
sucker
beside
galaxy
vlan
investigat
pio
##theless
hum
april
basketball
righteous
richards
lame
pays
hammer
environment
##ully
vow
drift
establish
entrance
core
##for
aliens
giggle
ignoran
pillow
fond
mornin
smack
rotten
clatter
makin
##stronger
replacement
shooter
footsteps
steak
octo
bra
##bert
interfere
piggy
bann
aki
lesl
assholes
vanish
register
slayer
##que
ri
sink
bars
butcher
forensic
##inog
practically
##dium
statue
greed
throne
relat
gesture
financial
clara
purse
poker
ham
easter
southern
commission
dee
experienced
bernard
stubborn
waters
##ji
alfred
anne
puppy
ofyou
flood
bid
poet
##rtier
generous
friedrich
motel
psychic
##ryl
india
tiffan
##ano
cases
availab
##mano
infect
slap
wins
teams
prescott
detect
profile
liver
nicola
dracul
authorities
involve
bomber
investigate
protocol
balloon
brig
dignit
##ground
avail
contain
literal
rais
eighty
cracker
michel
pork
alvin
harbor
transmission
soap
reflect
manual
fiction
grabbed
underneath
critical
torch
minimum
taelon
opposite
zoe
sept
industr
discount
stanley
foul
attached
dag
pos
thus
latin
addict
naughty
identify
column
pumpkin
humble
mario
minus
##otte
nun
talks
##dy
landing
muslim
civilian
geek
jung
profit
##rnie
monitor
marine
##greta
reyna
kills
goof
construction
nipple
disappearance
warehouse
mart
##ge
graduate
hooked
##cusi
armor
ghosts
ki
neighbour
soccer
##arranged
magical
rag
ransom
lola
bent
compromise
connect
sung
pere
operate
accus
vital
griss
##rmande
##how
passengers
ink
session
prostitute
ta
bruce
savannah
structure
surgeon
tha
minds
utter
riot
chao
ge
##fire
skipp
##riel
##un
claudi
bailey
ur
grac
choke
##aren
treats
beard
butterfl
bold
intense
stable
gi
alley
##can
motherfuckin
benjamin
executive
reception
gym
##esla
##room
battery
indicate
scum
previous
gut
##rwin
import
oi
timing
arse
aladar
painter
cries
dis
800
jamm
##chus
rocket
menu
irish
porn
grounds
amateur
vault
kresk
personnel
##pain
rap
recognise
charent
handed
dora
delight
june
whip
expand
stephen
julius
rumbling
clover
copie
cargo
adventure
furni
mosco
cemeter
robe
grain
knight
tim
cherry
lawyers
cles
powder
carpet
pok
confusing
passes
##her
weigh
district
tool
sympath
forbidd
episode
fork
harv
tender
invented
valeri
wealth
defence
appropriate
##ke
graduation
farewell
belief
boxer
##ryce
sobb
complaint
fa
brazil
straw
xander
network
##ou
hay
##abelle
thumb
tire
##anny
##old
located
eva
illusion
politician
scotch
neal
imperial
observe
shown
communist
##loyalty
luci
clouds
debb
heavi
rot
supreme
analysi
sultan
claus
brun
##ite
sal
handl
##rdon
flirt
sauce
fantasy
annoying
helpless
duh
et
civil
divin
chug
##tree
pond
disgrace
coyote
avenue
spark
reverend
european
elvis
terror
actual
##ick
dash
cyr
op
helicopter
centuri
budget
shave
buddies
electronic
citizens
harp
yun
yumi
informed
sjust
ye
communicate
cleve
directed
entertainment
faced
##oufl
internal
mourn
spider
dong
##lin
owen
forbid
wit
nile
surveill
unconscious
virtue
shotgun
caus
dish
##nato
kors
##amiya
fridge
pause
marku
dearly
##ew
franc
priva
dragged
unfair
fascist
potter
##self
weep
les
andrea
denis
##asty
abuse
weary
cinema
satellite
banana
whirr
##ure
jap
previously
laying
danced
##fully
##nice
hyun
helmet
dramatic
triad
debra
meanwhile
ramp
conscience
investment
estate
breed
inter
fran
translate
badge
gloria
combat
##eung
gustav
region
feast
homer
erin
morris
sore
depth
comic
straighten
argu
kin
losers
pan
republic
strategy
kit
predict
stiff
grip
hostage
meaningless
quietly
roommate
temper
kun
pale
giggl
entering
pabl
tweed
theatre
inherit
candidate
franklin
torn
chains
##roy
neil
barbecue
triple
wesley
##some
##karan
bishop
samuel
decade
##itte
shade
##rasier
solo
wrestl
vent
halt
gladiator
brod
spinning
celebrating
relations
hitler
knot
chap
bass
goose
dime
soil
83
ideal
sweep
cassi
classic
lam
grief
lightn
lime
dull
fearless
francisc
jade
display
tellin
##ified
wrist
hologram
maintenance
shatter
volume
valentine
notic
negotiate
toys
poster
tij
portrait
doorbell
mafia
##territory
offend
rust
anderson
instructions
mona
mount
sucking
sim
ironic
snack
confirmation
requires
zip
##ak
colon
sucked
deeper
fo
vietnam
judith
inner
por
##umbling
##worthless
temporar
fraud
groom
lazy
tbe
harmon
subtle
airline
carbon
depart
tulip
adapt
waitress
##ts
##j
occur
african
##half
rig
produce
monk
leer
awkward
brooklyn
pancake
lunatic
cocktail
grease
boston
##beck
lad
terrorist
tude
##ez
##skies
creation
summon
barbar
cleaner
clown
koo
haircut
##ans
institution
strictly
exhausted
mature
raw
queens
contestant
eli
kira
israel
protest
fowl
airplane
expense
shrimp
abb
hah
heir
jet
height
description
dynamite
impulse
samantha
undercover
romance
kay
bee
destructio
limited
##nee
accent
mississippi
curtain
pier
glorious
haunt
bai
##berg
damm
journalist
cor
dana
bake
damaged
dale
unexpected
flavor
extend
inspiration
error
larger
pacific
##job
journal
campus
oyster
devote
scatter
harsh
condom
creating
lugg
goat
videotape
millionaire
reform
chopp
champ
frequenc
combination
noon
jaw
crashed
sequence
speaker
allright
slaughter
louder
chatter
alter
##rlin
##ir
pope
gossip
pistol
grocer
preparing
82
##uen
84
dix
drone
stev
disturbing
ping
assign
si
burden
plague
romeo
rib
##uary
allerg
entry
theft
cia
alliance
unload
85
election
thai
allah
##ee
peach
##roth
seventy
delicate
naomi
daph
uni
lighter
travell
stall
sh
##injured
candles
vibe
offensive
suspicion
booze
bunny
elder
breeze
takin
##life
lent
##oln
lip
bears
hare
traditional
##broad
##apping
throughout
##itz
recruit
winds
initial
whiskey
northern
lemon
##elix
groove
disappoint
dock
shan
reader
grind
nj
awfully
stamp
endless
ranch
geez
photographer
elephant
genuine
dreamed
nino
scent
wooden
samir
greet
pager
rivers
turki
battles
grid
behaviour
semester
muhamm
bankrupt
encounter
realised
hobby
muffin
handy
illness
louise
herb
prep
worms
gai
valeria
knuckle
scenario
hound
qu
wilma
shu
##highest
whin
entertain
##ible
pad
hint
##aid
sew
nicer
resident
zeke
native
jere
lawn
wak
##xton
sticking
stew
advertis
embass
contrary
violin
##ison
rover
teenager
overnight
draft
##hrush
meg
mode
extreme
clay
disorder
testimony
novak
dizzy
tar
pr
gwen
intended
poe
priorit
sincere
happier
grill
##ma
snapp
tai
trauma
##vaughn
surprising
hostile
laine
curt
axe
##donald
gil
approval
schre
aircraft
testify
##while
zoo
cooperate
##tta
boarding
pimp
ei
regulation
stain
liquid
cha
rising
playin
bugger
rubber
grey
##ca
patien
condolence
humiliate
torment
adjust
fak
development
##id
tahiti
##tory
bacon
spill
advise
isabell
willow
eyed
ol
supper
surf
plato
fart
safer
clan
dialogue
bruise
ninety
bucket
darn
98
practical
envelope
assassin
boyfriends
##head
##hi
##beaten
provided
gathered
kai
cooked
##joel
flour
isaac
residence
sides
accountant
amongst
lodge
vick
dann
profession
disco
relieve
ruth
circuit
runnin
resistance
pip
meow
marco
hunger
hobb
chok
brutal
colored
cade
flea
girlfriends
remark
commissioner
carrier
electrical
basi
keen
##agement
henri
chery
summit
moonlight
hallway
blagge
##swore
appetite
stash
rebel
##screaming
cur
##nethe
bachelor
bargain
cocksucker
quote
satisfy
##sky
immediate
spotted
##sophie
##over
##ripping
perspective
febr
vomit
rubbish
craig
wink
ban
tons
tomato
tested
##piece
tray
nov
grows
una
##ham
fugitive
##ja
stark
##stepped
splash
global
scrap
ador
##ten
terrifi
hog
juic
flie
endure
beware
hurricane
kilo
static
stu
nd
rail
economic
##harmless
mexican
sixteen
trent
bodyguard
radar
independent
sixty
atley
tension
formula
legion
brass
uses
##olyn
prey
tobacco
syrup
##countries
outrageous
limb
generator
mankind
evacuate
peak
lifting
runner
##olved
exception
##ullet
gina
estimate
reliabl
leaf
portug
picnic
cosette
wendy
linc
tourist
facing
drake
tide
##ical
ram
uptown
##lby
application
insect
kung
stargate
##anna
lordship
promote
vein
fe
##boy
tools
bombs
scandal
##ggins
##inald
inches
tab
feature
prosecutor
mcdonald
nike
fre
fanny
crate
herman
doughnut
scorpi
primar
##are
bunk
liquor
occasional
leaders
patty
peek
ofyour
felicit
##face
##vok
imam
flu
exploit
escaping
wizard
random
padre
elegant
havin
##ow
stud
pss
##ise
underestimate
cadillac
homosexual
##popcorn
tracking
web
executed
refugee
mor
worn
##rence
##iami
wheelchair
ifwe
counselor
colin
cocain
improve
wa
spine
hallelujah
temptation
keith
pooh
joyce
gilmore
##so
fragil
pets
shiny
soak
compar
##goodnight
##discovered
shovel
phoeni
gamble
preserve
shipp
carne
tuck
##ronica
waitin
borg
bleed
##rick
##ik
pledge
iove
##nstein
shankar
fourteen
aureli
preparation
cigar
venge
den
##rsch
canyon
mushroom
grape
cartoon
population
cents
##expelled
cancelled
torpedo
din
##firing
kei
meadow
marij
hush
literatur
barber
##getting
slack
##ara
blond
belonged
execution
asteroid
coconut
kennedy
corrupt
##day
shallow
##ridge
ulf
gathering
tease
hal
blink
enforcement
barksdale
artificial
boogie
creak
zurg
phrase
##vatel
snatch
item
sarge
scientific
resource
pursuit
stern
shaft
fig
wi
lucill
cannon
fr
stations
##erine
##oose
champions
##dd
container
activated
nurs
bureau
rascal
essential
thorough
lottery
oak
gaske
glow
bam
logical
vari
hoot
sum
ab
##ue
scenes
shi
##issy
##ice
loosen
pi
par
briefcase
hanaya
chirp
putt
keeper
dib
locate
neat
ypu
starve
horizon
pickup
##rading
queer
climbed
##ignora
faithful
##enig
##nnie
##rsus
##sley
##haring
festival
recipe
scoundrel
sphinx
enlighten
pressed
roam
##erty
parole
travis
brace
##ate
todd
cruise
##liu
##ailing
##right
wah
250
hag
swift
nathan
annual
accurate
mule
ambush
garret
zo
chess
arthur
##art
panel
linds
crossing
homeless
##bel
##iter
frustrat
confident
impound
apologise
leap
va
republican
sissi
plumb
##fall
movin
formal
numb
jew
puzzle
shepherd
murmur
muffled
operating
retir
alcoholic
arrives
rico
transform
whoops
boil
##rie
demonstration
multiple
stunt
resume
xiao
dedicate
relate
stack
##off
det
vortex
representative
kobayashi
ladder
tent
breach
lin
wagn
khan
raid
reduce
ew
eliminate
tub
iot
reynold
nigga
stripe
##carolina
ballet
automatic
galla
violat
accuse
wil
traveling
199
beers
gunn
lise
needle
foundation
##spring
jerusalem
juan
capacity
shuttle
##lord
tables
rug
perr
81
jank
referr
dimension
grasp
wormhole
oath
civilization
specifically
honeymoon
modest
diesel
##au
thorn
##omeda
gra
bore
rang
fooled
bash
comb
greeting
##musing
##hole
inhale
scheduled
reference
angelo
conscious
marianne
initiative
shackle
bin
daisy
canal
bush
mal
##ticed
##nancy
flee
cent
expose
disagree
shite
militia
tournament
tremendous
vacuum
persuade
alibi
seize
daria
recommendation
expos
anxious
panick
##captured
ant
boob
struggl
lamb
judg
assum
crock
absurd
independen
cape
sustain
scholarship
autograph
granddaughter
profits
salesman
crank
eastern
hath
quintu
##oggy
##shire
hoi
perfection
cursed
dug
tock
chart
intimate
truffle
eager
vicious
jessie
brat
dressing
infection
coo
hopefull
##have
##ot
seymo
coron
inspired
mutual
ash
inspection
subway
fleet
freaks
nar
##phone
tempt
bitche
employ
##acour
donkey
messenger
headquarter
forehead
##roit
educated
programm
hicks
bloom
invest
organiz
gro
arena
bribe
babs
knocks
hats
puppet
biscuit
deploy
proposal
vest
lazar
oven
francesc
wished
kings
ofcourse
cheerlead
cooler
puss
jazz
##jack
duties
deceased
hatred
railroad
lid
nickname
heather
carver
programme
stripper
edit
finn
dorm
com
blend
spoon
universal
##ves
reflection
pentag
limo
##cca
sorts
clang
hips
echo
krus
##stone
sole
chen
virtual
ru
mug
elbow
passionate
##pside
##there
tyre
trailer
bulb
hanged
pension
wang
wage
octavi
parent
gogolak
turtle
excitement
storyteller
resurrection
ambition
destination
sheep
abbie
##ette
nickel
craft
refus
##rich
bly
convent
bombing
examine
overcome
yuck
sour
rumble
qualifie
admitted
gab
marked
tackle
ramse
hence
##ries
purchase
reg
perfume
ketchup
quill
salvation
##yonnais
jelly
jer
dice
stray
yen
##olo
tart
doom
rac
designer
butch
compani
length
accompany
sermon
mineral
thud
barrel
interrogation
##ich
emma
bind
legitimate
halber
januar
niem
##she
oy
lu
ensure
voted
toad
kent
bikini
wallpaper
confusi
##stram
controlled
trophy
hue
hatti
mint
compete
amuse
increased
descend
logic
##wept
erotic
mokelock
outer
shanghai
umbrella
absence
winkler
##largest
autops
sadness
strict
jeann
lili
chidduck
cramp
loneliness
hypothetical
holly
ou
protector
cal
##ania
barks
academ
##iness
resolve
peel
##robe
dina
##soever
sphere
hunch
##nuh
ferrari
vain
fuzzy
que
juliet
drums
wile
baron
suspected
convention
walt
yuki
pudding
dickhead
sinner
psychological
bizarre
mansion
household
replica
racist
assembly
##ington
quarantine
##cus
raja
rear
ron
andrew
continu
adopt
convenient
##ahashi
mademoiselle
entitled
democrac
regain
nell
ramir
ji
planets
trainee
hull
pint
advisor
hearst
songwrit
##rogen
gap
##him
casual
glide
paranoid
association
affection
tango
##hattan
warp
collapse
##rnau
stefan
celebrit
maneuver
supervisor
rifle
hesitate
cellar
organize
relay
pickle
isert
stor
messy
rival
courtesy
diar
rally
withdraw
cartel
briefing
aisle
quid
##oya
deadline
publisher
##ojo
##zy
maniac
gretch
walkin
promis
bluff
produced
certificate
consent
kinc
violation
leadership
peppi
positions
lust
isolate
cleans
##amara
semi
covering
failing
activate
athlete
mermaid
conspirac
december
spook
sidewalk
collective
maiden
clerk
stevens
types
##ii
dink
##was
wrestler
##hook
critic
gile
##now
toss
verdict
triumph
brazilian
applaud
fluid
##itude
##addy
wrinkle
##ated
sch
##ther
##eka
umm
dunn
hawaii
klump
singapore
thunderclap
couid
sittin
elect
oo
returns
meetings
passage
compt
companion
##ze
invit
delusion
substance
underworld
workshop
legac
ape
repay
anson
motherfuck
yah
moo
##rizon
##kiss
##stream
coup
satisfaction
elaine
lump
ducks
##mit
nichol
preliminary
bugg
##za
##lene
erase
nico
tok
rach
pronounce
risky
necessari
##jo
isabel
bleach
milo
missy
##ttle
harvest
paula
rupee
transplant
rosebud
felon
blockade
swamp
zini
amazon
eyeball
nanny
enchant
sanit
##ide
demands
daylight
clip
susana
undress
swell
##drake
administration
disrespect
creek
yankee
racket
linen
wagon
packet
rubb
ota
jay
dispatch
fatal
rattl
glue
fries
dearest
ashes
leviathan
licence
marble
sophisticate
filling
disappointment
funky
hoist
tumbler
reporters
marc
gran
##speed
olive
hab
pine
ridge
blar
prior
cuff
acknowledge
dome
##owitz
australia
prospect
identification
preacher
adore
cleo
hereby
divide
assist
guardian
##ammy
define
yan
tactic
sandwiche
divers
##dental
therapist
portal
attacks
luca
crop
wick
unto
las
jr
gloucester
##mighty
text
pawn
frell
fears
beau
erm
##years
kwan
discharge
disgust
zolt
crawford
conceive
sector
arrival
merchant
consciousness
authoriz
burger
anod
##made
academic
##ore
info
lyrics
##mouth
realm
pow
misunderstand
discovery
##will
prettie
pratt
gin
tomb
practic
lobby
install
operator
janitor
beggar
altitude
barbarian
masterpiece
investigator
##iana
yasmin
convert
bandage
avoiding
invincible
ph
##tion
drops
salvage
chancell
encourage
##ach
freezer
chased
molest
yam
leela
cuban
snort
brandy
flop
luxur
infinite
wandering
maker
valve
monaster
demonstrate
massacre
proved
juda
stereo
invade
kicks
rosa
##lock
lobster
razor
hump
charter
##ho
bein
forthe
rue
americ
##fk
##led
contribute
trans
pac
inmate
affirmati
inflict
swedish
hilarious
huddle
disconnect
disk
carmela
prowler
mandy
unnecessary
branch
seas
bully
##risten
heroic
remy
mechanic
martini
jaro
darlin
intercept
neglect
essence
relentless
clark
kuba
presentation
drunken
carat
dragg
explod
nutt
col
wars
ankle
engage
kidnap
banker
##lng
committ
owners
neel
metre
brittan
stammer
strung
hyah
##lai
disposal
nietzschean
intellectual
furious
gently
finance
remo
donation
norman
debate
mini
soo
penn
probe
##penalty
mock
aha
##master
##adele
humanit
##jung
cecil
dove
intent
kettle
rogue
addresse
##ola
livin
specialist
##bodies
##get
##got
bur
initiate
wo
anxiet
neighbourhood
announcement
pei
casualt
mae
setup
quest
checks
thighs
sip
##itage
fl
clearing
##kova
fog
maestro
morocc
roo
assured
au
ivan
sonny
oooh
anders
##llivan
oppos
##bound
mic
slim
cutter
onion
thread
blackmail
sworn
logan
continental
chuckie
yi
madonn
911
hike
crippl
##vous
120
standby
##apped
##corporate
kindness
blam
comm
##lightyear
rash
annoy
fiend
confront
prescription
octonal
##gt
receipt
thanksgiving
obsession
regional
strawberr
bathe
tess
hooker
lauren
##planned
technologie
##exas
claw
jox
##lo
choos
brut
historical
defensive
mont
##artel
corporation
arsehole
vague
salmon
curiosit
salary
detector
negotiation
stump
huber
psych
wav
wiped
cryin
howl
cass
##uba
raj
mare
##sboro
##if
##row
extract
orphan
blossom
gammel
departure
slapp
##wallop
resort
dixie
scanner
##moto
owed
timer
ere
cooper
starr
##dith
##nce
claimed
bulls
worrying
freakin
millennium
nishizon
taiwan
vo
destroyer
oser
participate
stat
undo
guessing
ada
argh
cere
mikag
sperm
malfunction
ceiling
##quantum
cornwall
esteem
madison
occupie
dicks
promotion
partial
##ansk
stitche
scann
altered
chili
grove
limp
tina
bouch
##moses
##ass
1000
reese
198
##ino
##sis
##mont
filming
##opie
ecsta
blunt
proposition
##cleod
peep
jabber
essay
humour
##du
dip
##ome
porch
attendant
haul
dani
slash
##rryl
##fish
pep
simone
burt
roz
antique
strangle
update
sentimental
##ins
graceful
gardener
##iko
seventeen
psychiatric
shinji
volvo
nitro
panty
##harvey
foam
outstanding
##worth
##ru
careless
##bar
##itch
chu
fires
starter
##cq
para
##98
mcn
assumed
brit
aspect
grenade
increasing
handcuff
cond
##ade
wig
##elia
receiv
##ood
##ado
swede
schools
pursu
injection
comedy
naive
unlock
fitz
civilisation
flaw
infinity
kyung
translation
classified
pover
waist
tips
##inha
presto
reign
crook
treaty
##kin
diner
sleepy
##ila
puke
renew
iris
##nder
chic
##hill
##people
climber
oscar
conviction
zipper
##license
vulgar
vast
rapidly
discussing
##mination
cosmo
growth
marina
frightening
94
thumbs
evans
shorter
korea
flap
evolution
ministr
cinna
rumour
typewriter
puert
jon
bearing
swords
formation
kidnapper
sober
lasse
disable
wong
teenage
carniv
tolerate
rita
concrete
reindeer
vodka
slab
stabbed
refrigerator
##dermot
symbiote
jumbo
chatt
magician
jai
##ori
thoughtful
zee
91
##tcha
##know
killers
hallowe
venture
##ieu
comeback
##hold
addition
urge
auction
romania
corridor
extension
blair
##les
overreact
castro
heartbeat
sinatr
finals
hoff
villain
tyson
##ver
suspended
jez
bothers
##mo
typ
scramble
springs
##space
##ging
##ff
##titude
hocke
##essa
disc
firework
exhibit
dragons
antenna
##ustin
petra
merciful
brownie
poke
sufficient
roro
hamburger
##ntact
##tith
##thing
physic
##dies
rode
tossed
masse
##aux
##blouse
93
giovanni
pencil
foster
errand
savage
##ain
kell
rum
##abouts
grande
crow
dex
bolt
rider
convicted
##nit
##eema
##box
refer
##caine
era
plott
priy
pregnancy
carrot
ronald
shameless
objective
reply
cope
catastrophe
martyr
atta
choi
rizz
##mah
##ol
##gar
expedition
mcgui
ounce
database
brothel
piglet
consume
overlook
midget
characteristic
dork
explore
##stock
##dding
tops
sewer
mecca
institute
##hat
satch
roads
cripple
ni
pursue
redhead
swis
exotic
cosy
gulf
ribbon
dutch
##wock
settl
saddle
##lazar
bio
foreigner
##asan
##ayan
outsider
genes
##oux
ag
verge
##ek
##reem
spectator
patent
confidential
transformation
agenda
primitiv
bount
##bc
garment
pastor
barge
coordinates
dummy
pedal
hitch
paw
judges
restless
##burn
cola
label
surrounding
cher
##nson
bain
proven
buckle
slick
pals
buster
strippe
##jana
##raju
sophomore
registration
concentration
abortion
graphic
turf
groov
##wealth
courthouse
microt
consideration
bonus
ax
crane
##ardo
redeem
thor
trader
sneeze
##lb
agh
##chi
deception
hollow
bartlet
sahib
cofi
conceal
throttle
yahoo
bathing
##shit
##20
##paid
edg
ros
fumble
significant
presume
##sako
##stage
##oul
variet
beings
ace
blues
examin
thirteen
unpleasant
cricket
shriek
bartender
pipeline
##sunrise
schna
coal
crick
sullie
mis
terminate
pul
##lly
strap
vagina
plead
appointed
##dale
92
sources
fellows
topic
glimpse
opponent
quadrant
jaguar
sapphire
quack
banquet
holme
verse
classmate
##gh
gown
butyou
warmer
##suke
dar
jorge
celesti
constitution
##ok
troll
##mett
observation
carpenter
lawsuit
cackl
##begged
mustang
##ipped
earning
preach
spots
##25
##nos
##ni
rhyme
manifest
##rst
##og
deliberate
pharmaceutical
timothy
starburst
merchandis
hamlet
ruthless
altar
zombie
hassan
spaceship
revealed
shibby
authentic
asset
challeng
nebula
fracture
mauric
transmit
yar
##duce
contempt
marvelous
yacht
lemonade
scratching
kam
gracious
rookie
vivian
wealthy
##noring
valid
##ki
megan
pry
milton
asian
twi
lighten
carnotaur
guinea
anchor
crucial
radical
purit
diane
slug
myth
##gates
attraction
##bo
##gen
ethic
mild
oppose
athen
strangled
tutor
spank
salon
cue
##drip
##iscons
chor
morphin
sesame
enlist
recite
terrifying
molly
scumbag
pose
dagger
repent
selection
kake
##inevitable
tomas
restricted
##ntz
remi
##days
ke
yay
je
##ba
beatle
kati
lever
##retired
fundamental
grabbing
fierce
dim
hercule
friggin
##addie
110
trish
porter
innocen
memo
kat
##adly
grants
multi
jamaica
mcgill
shirley
cattle
achievement
launched
overwhelm
whitey
fabric
duel
teen
dolls
husk
##lipping
kidney
insight
sled
touchy
souvenir
cultural
gopher
reunion
barrack
module
equipped
cloak
behold
sanders
lsland
##woman
hawk
refined
sting
drifter
ammo
layer
corps
##tv
heartless
untie
burmes
ramon
hamp
ohio
obedien
snicker
compassion
spa
disregard
galler
motorcycle
##haved
##wife
avn
erv
##ana
##unbearable
exhaust
##oo
oblige
whores
roller
origin
accord
dur
trainer
kneel
##jean
suri
miraculous
rainbow
lama
greenhouse
truthful
##tation
suite
hideous
##oval
fil
decline
##dtime
onboard
hiya
willie
##elite
##children
##uston
##gb
madi
##uese
defect
##nny
tickle
marguerit
seminar
admission
##eventh
mew
dreadful
invention
kitten
jian
outlaw
caf
##ged
pasta
hu
wool
kiddin
##sylvania
profound
taxe
liam
naval
choir
scht
dodger
sasa
##dom
##grateful
##together
daring
liking
##manda
fitting
headline
##biology
grim
tuna
quad
##vana
ell
clapp
apparent
distinguish
##power
prop
prob
trump
canadian
earthquake
manuscript
enkaran
cunning
venus
thug
posted
breakdown
resign
dew
fidel
roberts
##ology
troubled
coordinat
gus
shag
advis
##tan
##iranda
##king
lang
##chester
alternate
tek
llbe
awaken
idol
trooper
hassle
dauphin
kilometre
obtain
psychiatrist
solomon
obligation
fritz
drummer
cupboard
locks
##ita
integr
za
playful
ankles
tramp
cooperati
assess
tropic
edis
##aline
misunderst
scissor
rahul
perimeter
eighteen
approximate
sympathetic
boiiing
nude
mute
executioner
##ernie
connie
baba
ants
haw
pm
duct
drape
kilometers
flay
##ri
owl
getaway
improvise
gr
tito
bu
rollin
homeland
shaving
##from
dahl
##lask
tenth
splendid
lethal
blubber
##mmunity
corruption
##eated
cellular
interior
burglar
wanda
pizzas
booth
wretched
batch
##de
thesis
##44
##ster
compos
stroll
exclusive
architect
fright
jumper
paddle
orbital
##lexx
drivin
hairdresser
snarl
minivan
vishal
petula
geoff
##ell
merger
rebuild
diplomatic
pony
meatball
hazard
regardless
revolutionar
robb
whipped
teammate
insanit
apop
hugh
##ram
beet
invent
audio
mold
lamps
##diana
suk
yoshi
beeper
frost
pulp
gagg
copenhagen
deactivate
marley
sensation
unleash
chapel
sleeve
mag
arriv
chang
congratulate
philip
fernand
bubbl
blooded
promoter
##mind
##accept
meteor
strain
##ire
authorizatio
jona
##ord
##wain
braver
##istic
194
toya
camill
vin
##cher
rebels
gag
vulnerab
##hand
egypt
baltimor
province
facial
morgue
chemist
alexander
##gi
garrison
runyon
involving
##play
arrogan
shipment
##llo
hunk
earring
heroin
plum
execute
retrieve
##ere
##they
inspire
pheeb
redcoat
probation
##roll
##iio
settlement
##fi
##witched
hector
distorted
##child
hippie
kinki
poop
underway
bert
ofthis
##saw
dose
##identified
incoming
stein
##50
auc
victoria
precinct
microphone
unluck
predator
kindergart
tribal
sinking
digital
##30
lovin
ethan
ciao
carved
oui
freely
##good
digger
##ux
##eal
requesting
hookers
ohhh
karat
scope
bog
nip
##nyah
recorder
thinkyou
##lini
##ache
seld
##press
mongol
chrissake
shakespeare
##ended
flare
coz
vial
##ault
donate
nev
##natasha
glamoro
##pies
psychos
dumping
fraternit
##mi
##ren
emergenc
slot
##eni
token
gur
jama
graves
killin
ralph
introduction
strand
thump
examination
pillar
trance
cosmic
##bush
realistic
lui
judgement
##milton
psyche
villager
belonging
wir
falcon
fled
reel
lupare
astronaut
hormone
yakuza
replicator
islamic
##welfare
jiang
labour
vista
landlord
broom
zen
tendenc
inject
pia
##nmark
aft
freeway
bic
captioning
crapp
correction
hugg
bean
desperately
##ang
bangs
##advil
professors
##livia
hom
##zar
hydro
poof
gel
sarcas
asylum
gigantic
specimen
pigeon
precaution
corporal
acquaintance
luna
benke
revolt
##ought
ku
##hou
##omed
bunt
karl
stir
bandit
squawk
buddha
waltz
merit
acquire
litter
wan
rosie
condemned
hub
gerald
rave
trumpet
expectation
##ura
##ggio
##prophecy
prophet
mascot
scroll
douglas
donut
helsing
password
emilie
##pike
cours
grav
##laza
backyard
shameful
##arren
apples
flo
##xia
performer
imagining
hangin
gram
##yn
smokes
trim
##bag
tara
sha
psychologist
graveyard
rapist
##q
gypp
crisp
wudan
##idal
successor
##elves
swam
whisky
ifl
camel
fare
orgasm
##ostero
psycholog
lyd
##tle
appreciati
gaze
##eum
nois
kev
distress
kiri
rina
cube
porsche
occupation
superintendent
ignition
sarcastic
scotland
gaff
savior
fountain
clamp
chun
lurk
span
eugeni
follows
##escent
##had
liabilit
lai
talia
##vald
vanill
##nsign
lorel
##rc
##yourself
##bertha
submit
aaaah
tun
##13
riddle
scalp
despair
legionnaire
toothbrush
sparrow
leash
dealership
transition
##nal
weasel
perception
danish
##ammie
rubin
breaker
jockey
##loane
perk
drip
bona
philosopher
##ela
consult
kel
artistic
propos
etc
evict
cuisine
harkonnen
kramer
michigan
wimp
sensitivit
cheque
lifestyle
shack
confine
jeep
micro
treveth
cult
scooter
##youb
##weight
erik
mia
gru
fastest
slid
explosive
gordo
##nda
attic
peri
shal
manipulate
##lemish
givin
calendar
hebrew
dmv
schmuck
unicorn
constituency
claude
caw
mortgage
prettiest
rebe
inspir
ger
##headed
##about
##icero
hoora
monks
fro
marker
patron
##tomic
accidental
##ora
warner
inquir
convict
##com
vile
irrelevan
apprentice
complication
mahjong
platform
grapefruit
greasy
firearm
franz
skinhead
peso
employment
depression
leavin
fluff
ripe
ladyship
liter
visions
cl
##erek
singin
##racy
brooks
ursul
##homa
avenge
##39
groupie
##odoo
##ung
ut
boll
pea
minded
rescu
memorial
adventures
bron
ver
cu
resurrect
squash
feminin
veteran
##wollen
chateau
gender
competitive
jackal
poodle
nicot
oral
maternity
##uan
eats
sven
recruiter
##actical
##bat
lining
rou
concerning
fin
##cp
barney
seduce
dodge
drinkin
negotiat
madrigal
redempti
superstar
contribution
commerc
chimney
dumpster
rambo
continent
sharon
mole
##cal
via
overload
swearing
download
bagel
boiler
chiefs
terrace
prosper
pellet
##ay
yong
hallowed
lease
loyalt
symptoms
nene
##kawa
forman
troubles
kawa
til
##body
dah
dedicat
interpret
jaroch
pun
tracked
spectacle
tribunal
ninja
cabinet
income
siddh
scam
moore
fiancee
ottoman
kurt
##45
wrestle
reli
##lay
##ears
##audel
##zac
eighth
flyer
boner
surviv
##pus
##owa
##ea
jose
restor
##enile
##moving
##charging
lounge
czechoslovakia
convincing
devotion
inherent
nightingale
pajama
solemn
diaper
beaver
kiln
psychlo
stutter
distraction
mar
bowel
##han
alga
shithead
contains
##yale
##ryn
illin
replac
##uiz
wats
pointless
180
doot
##ww
julian
knoow
coloss
paramedic
mainframe
jaff
lilac
barrier
##ix
raft
##tz
islam
mitn
twitch
##love
humilit
implant
flick
priests
krist
gorilla
dinosaur
psychopath
convertible
cupcake
joan
aggression
exhibition
fide
discretion
karaok
excellenc
needles
dc
yummy
##li
musso
overheard
tzu
##ories
##limited
asia
denie
villa
pupp
sp
##dude
##controlling
advanc
civiliz
jogg
sling
pluto
vulture
mattress
infantry
mcgin
absorb
dungeon
##ikram
##lanta
notion
striped
intruder
genie
bushes
communicat
substitute
dany
##point
vocaliz
mechanical
##clair
tee
##gett
bella
veto
traveler
##mother
##yard
tyr
wanker
imp
##ealed
refuses
backpack
bits
athletic
definition
spawn
arsonist
fibre
meditation
physician
manuel
##trident
abbot
plio
scrub
asgard
##ever
zu
rye
##uddy
garl
nag
lotion
lex
##10
lone
allowing
interfer
linger
sticky
roth
sprinkle
buzzer
##load
spur
##pot
drum
dart
vegetarian
pelle
fudge
snakes
emili
tennis
extinct
cath
##clumsy
balcon
biological
abomination
diction
drool
holland
declaration
##did
obstacle
flawless
resent
##etera
##levant
additional
payback
cheerful
fung
##paul
mutt
fuse
delightful
masters
sade
cherish
uno
breeder
danil
hk
bums
commence
##itanic
plug
mimi
smuggle
##fest
nav
eatin
##equila
bathtub
parlor
premature
supermarket
bracelet
evaluation
walnut
descendant
glance
napkin
##father
circl
tollan
##orben
cork
vlad
##text
##hin
##night
perish
faked
##dh
kazuhi
fertil
bands
mend
mat
dudes
yama
350
dissect
fad
acquisition
ingredient
intimac
massachusett
laptop
stewardess
volley
patriot
doreen
enigma
reynard
olympic
inappropriate
gauge
miri
battlefield
##dandy
marseille
respectful
despise
protective
jacobs
porno
passenger
##ockie
irresponsib
##who
industrial
tel
cho
bled
quarrel
screamed
overdu
##having
transmitte
##eeds
##hoven
arrang
##insertion
joo
hav
fang
##alkov
##bury
matsu
skat
jingle
birthmark
praetorian
humiliation
snowhill
calculation
slurp
##itya
##buque
transmitter
wheat
bronze
huds
floren
maru
deer
brighten
##bias
##ello
jets
##otta
analyze
quicker
walker
blurr
##jolly
beacon
prudent
tile
hostilit
handwrit
introduc
covert
abduct
pup
clarify
lantern
seizure
tumor
nineteen
rigge
notorious
pika
occupy
##rrick
amnesia
wai
##24
zepp
weaker
liars
toshio
enterprise
##ferno
hysterical
presented
reaches
##asedo
##birth
carton
##few
curl
frances
identic
ration
##eun
coch
anticipate
receiver
##orah
##arno
##aba
iife
kite
disrupt
gigi
automat
suzi
enthusias
##pie
##letoe
cleopatr
disciple
sloppy
leopard
railway
indication
connectic
composition
crypt
karm
spade
collector
lynn
defy
iv
rains
horns
galaxie
loans
ole
offence
##win
handicap
mop
shira
sniffle
torre
channels
teens
bitte
experienc
shocking
ambitious
pupil
puddle
revelation
redneck
prohibit
rooster
sessions
omar
poisonous
##aca
peck
##oki
##aries
pru
documentar
poll
##onya
rational
##flown
heap
rad
pe
generate
audible
##sse
##mmi
##retta
promot
veil
sights
##mer
malh
pl
unreli
symphon
tavern
caution
landscape
sanctuary
sabbat
cement
compound
flock
investor
dante
croak
lashing
scratched
##nya
lucia
legit
##craft
hoe
##paste
optim
void
##aving
scholars
hel
prejudice
translat
##elin
tow
nan
definite
##nde
ox
dud
shim
##ennesse
antidote
equation
heidelberg
inconvenience
shudder
fanatic
kansa
hamster
wilderness
grudge
boulevard
dexter
beetle
courtroom
daydream
disgraceful
portion
tails
raven
##ken
pol
jeweller
##ini
postpone
calculat
handicappe
glen
##atches
hustle
##married
##parents
pillows
bunker
##stair
ple
seeyou
##nita
##aume
sickness
##arez
##than
janell
##ike
humiliating
swastika
triangle
makoto
graff
coraz
petition
sylvia
disposable
accelerat
velocit
1980
##bano
mysteri
boycott
guv
visibl
parasite
mocking
nazl
kal
thigh
##dad
archer
pike
tidy
overhead
##ique
squid
##nia
##nton
boundar
nich
##ility
##omin
recogni
ofthese
reasonabl
neutral
##nished
##12
stella
##cott
scoot
cottage
thompson
trilog
egyptian
nat
henning
curry
legged
warren
pag
kess
reactor
berg
christina
ce
insulting
proportion
##lation
##whimpering
##een
dine
categor
##fleet
##secure
bac
medic
##borg
swimmer
propaga
capi
coon
yue
##show
overdo
teeny
elf
floors
miner
##young
##moose
ywe
dryer
posse
survey
wrench
margarita
buffalo
conquest
eyebrow
bimbo
bourbon
awol
conductor
prompt
semen
vasco
##ats
outrage
##ethel
bund
elaborate
sergei
perp
shelf
aqua
childish
melani
sayid
sells
jess
##shore
hitter
##91
##nderson
caffein
forcing
render
munch
exaggerat
functions
relation
##ecker
##duced
##ngest
##lot
tur
deceive
##49
spite
banish
##enver
declar
jos
flapp
##uad
doggy
gurgl
sushi
rodriguez
neural
prosecution
burial
align
consist
millimeter
luxan
stepping
amish
curve
strategic
555
heartburn
consistent
refuge
ec
##tches
stained
rehears
cla
domestic
creed
explor
vivien
palmer
retaliate
##cake
##supply
exceptional
##ac
fei
org
##lle
##eaman
##ane
booster
corners
indulge
rom
guillotine
##yle
anguish
evasive
everlasting
diagnostic
comparison
amendment
krew
bosom
weaver
skeleton
paralyzed
robinson
##ose
obregon
barrow
embarrassment
##ght
##pared
ploy
peggy
potion
kaj
skate
easie
hardware
parish
stagger
deceiv
challenger
condemn
##ido
dino
medi
##apper
harass
luff
shiv
rates
beverl
beck
whobi
##hen
vicki
reproduce
sketch
##done
visa
##jali
##going
##randy
##orous
abort
bonk
caspar
simultaneous
spontaneous
arcade
bouquet
geller
consultant
bosco
southeast
wilkins
kangaroo
rebellion
kentucky
##ward
##iddle
classroom
protein
terminal
jamaican
playboy
alec
##eau
vegan
##ties
brag
emil
cynical
dreamer
explosives
holi
140
ker
fiddle
##reide
shred
elt
sock
democrat
thankful
hubb
traps
spanking
econom
inspect
practise
adjourn
evident
ghetto
jupiter
pyramid
shroud
subconscious
technician
bleep
endanger
boiled
analyst
kyok
musician
shov
burke
warden
acre
womb
dwell
lz
##hh
bearer
presum
phony
tenant
##ashed
arise
##foot
bp
##itzer
##atsu
sponsor
jag
moisturiz
harle
##quentin
suzan
von
ofthat
chim
banged
cordel
injuri
##ninth
##let
##hazza
##pence
dusk
grin
permitt
gradual
spear
alejandr
roadblock
telescope
dyke
doorstep
assassination
brood
salvo
parallel
edu
quinc
wantyou
sob
nomination
dared
##rgen
##andro
latte
hua
impur
##28
##ourne
voca
brow
##kins
##tt
scars
squat
##use
blush
aura
harmonic
gen
crocodile
reckless
fingertip
##op
referee
paragraph
##claren
zoid
unidentified
##eah
alo
korean
##rturo
highlight
helm
nominee
##pp
gustavo
##sensitive
##eval
exceeded
blueberr
sri
stunning
slips
chore
##bul
kar
##beeping
shhh
##aditi
##lt
buff
complicate
overwhelming
##stable
saul
vicar
sidnoey
intervene
abraham
webster
cappuccino
zach
filter
mush
plea
##31
catchy
amaze
##wa
ridin
vittori
##bird
particle
machi
5000
insert
weaken
meyer
dictator
jab
expressed
compensate
clam
rockin
buyer
lauz
##year
mack
trina
follower
sentinels
ned
##see
##itza
joann
trend
component
erratic
exquisite
facult
horoscope
congregation
narcotic
portray
evacuation
colonial
crib
nightclub
juvenile
harness
diversion
anomal
plunge
deposition
##ight
carriage
##storm
spic
vermin
ti
poacher
nerd
melis
ultra
##eaches
##uchi
prune
##ters
##state
152
pointer
##earned
##welcoming
##pa
puk
dri
kana
vivi
analyz
##ael
##diac
probs
##oline
vas
crooked
loo
sabotage
gardas
floy
suburb
hye
knack
taped
chastity
fragment
adversar
destructive
tyrant
warfare
immense
singular
qualify
spectacular
hampton
hometown
morale
steward
vinn
betrayal
trevo
gregor
##vale
rul
##gaby
##nel
##live
##anabu
dela
revive
##mara
##met
seller
pans
##rine
clutch
##cu
sync
schizophreni
aleksandr
autumn
exclaim
intuition
namgung
undetect
##lich
brigade
surgical
klaus
screening
debut
##rov
malone
copycat
poni
ache
##look
##wich
empti
tighten
eld
##eparation
soften
nicol
jeffre
##okee
##lan
refresh
##rester
sar
lotus
vc
wailer
wor
flourish
bottoms
hou
##rugged
##lli
mam
cheater
fier
gill
improv
shap
extinguish
##tha
##nara
keg
stun
kosty
cabbage
extensive
misfortune
unmerciful
dialect
alaska
uncover
cautious
psychotic
##xter
leone
rewrite
disturbance
##ikes
##theist
craving
anton
elude
whizz
carthag
##shot
feng
mustache
asap
bomp
##book
capabilit
govern
##eb
wanderer
192
liv
coop
achiev
crims
josi
kaor
pornograph
##ooper
distinct
pilgrim
##tribution
deceit
beijing
decay
communion
context
##murray
mitchell
velvet
lizard
uncu
burp
reflex
coul
blowjob
playoff
tux
slammed
sings
imply
##ery
messin
scoop
justin
exile
##oir
merc
##im
kiddie
arrow
swine
##90
sensibl
mira
maure
compet
pigg
##chio
combin
clap
##rout
##game
whe
surround
inventor
immigrant
simpson
byrnes
eyewitness
unemploy
hypocrite
smear
premise
continuous
tractor
incomplete
##isi
holt
stool
schizo
loner
##rt
##feld
kee
medium
cyber
bypass
robes
voil
alas
kor
violate
eel
tsk
##gara
requir
standin
smiled
crude
fai
##lton
classical
oversea
shiver
joll
gilligan
removal
cossack
almond
proving
napoleon
##destroyed
spaghetti
motivation
yield
witt
ravell
indifferent
##raham
##crabble
##nelle
##amura
rabb
chole
##gas
welcomed
clearance
cer
tele
gt
runway
##base
regulars
believer
iraq
tread
ooo
input
ignite
rott
##14
splitt
rustl
cul
##mm
usher
preeto
mechanism
staple
hilltop
uncool
orientation
hallucination
osi
postcard
padd
involvement
delete
##olina
##18
##home
nuns
voluntar
limitation
##rendez
##cable
evolve
leon
optic
bah
##staff
##bra
moth
superb
outcome
foe
creates
ifhe
##34
clarit
sweeping
edgar
##rina
##em
##32
##parky
hanna
mozart
squirt
swordboat
cornell
cardinal
##nando
irresistibl
accompani
##ook
adjustment
newfound
slit
newport
flank
lookout
##zed
sneaker
shelve
##ually
yap
snore
quell
pepe
buffet
89
swill
notify
zel
##pan
##pants
hyper
matrix
cind
amber
dictate
##shima
garda
esp
ching
bre
homo
parachute
abilit
##keeping
##starbucks
##iner
##inity
vase
neuro
slic
amulet
consensu
immoral
gauol
precede
tiptop
prakas
##ations
membership
climate
ledger
cocoa
infirm
yearbook
frelling
tri
##rmont
resemble
leibo
identifi
avery
cling
##bus
##lasco
magdalen
clowns
##vil
sophi
saints
youknow
frown
doggie
cutie
wejust
rite
flipped
crazi
despi
bal
blinded
##zra
##say
km
##mercy
colonie
mcqu
measur
##bular
##cats
scrape
mumble
decorat
##wright
dribbl
penetrate
repeated
conn
##flair
supporter
ostrich
callin
incendi
nebari
virgil
##leen
fruitcake
paycheck
instructor
##ov
awoke
quiz
baptism
confrontation
nonfat
installation
castaway
optimistic
deciding
representation
console
rital
chump
##terol
override
percentage
dissolve
arun
##ndrome
starship
##stick
##poetic
zan
bb
dislike
##nan
##core
##awa
##bot
nagg
construct
pang
##kuma
exaggerate
abus
##delphi
explorer
scarf
nets
motivate
imitat
##naq
prem
prank
printer
##pact
##hiro
##ncluded
weirdo
##run
guern
communis
decree
##accused
chem
historic
rehearse
sensei
eject
##42
##mph
imagin
##milie
marsh
reinstate
304
accomplice
marvellous
mckinley
mediterranean
agricultur
##hanukkah
elisabeth
northeast
interstate
parrot
premium
miniature
gorbach
intoxicat
battalion
hygien
##23
shont
asthma
restroom
hangs
experimental
lure
##ounds
mcconnel
aspirin
monte
dvd
spaces
desecrat
##ock
radiu
##wards
vot
godfather
reliev
##ellie
lau
ac
flooded
##everage
nami
bagg
paulett
broth
emerge
dealers
caps
##glass
sofa
retain
hamburg
##otto
##bridge
##cuto
##hutter
##itis
phila
##dios
foryour
whee
administrator
bermuda
crucify
telegram
casper
switzer
bulk
screenplay
inhabitant
buttock
clamor
orphanage
crucifi
reconsider
santen
variation
admirable
ethical
operative
##ga
##ushimi
##illan
scorpion
bliss
deli
honz
klan
##umi
##misunderstanding
ferry
##winkle
vacan
##ndell
amoro
revv
marian
dresser
flags
christin
##95
shigem
##ught
dru
##19
pette
scorp
kink
calculate
##mar
sdi
conclude
##addin
persuasi
montgomery
mosquito
theoretical
blister
resolution
fuchsia
chopstick
substantial
flashlight
civic
##athrow
picks
divorc
edition
armour
intrigu
coupon
goid
array
concentrat
##mallo
efficient
##inned
roma
cora
##dance
attacker
melon
freshen
101
##sight
trembl
##itlin
##ddar
webb
reef
##utti
troph
pest
##around
##dalai
goo
rai
##vedt
reload
sunk
##ddy
dame
ofthem
har
intellect
compartment
midterm
snoop
stewart
wrapping
isolation
slump
informant
regiment
baptize
sniper
requirement
nursery
percy
##48
keller
behaved
homemade
mamma
##omi
stocking
tex
joker
babbl
##dan
shoo
ska
doorway
collaps
istan
sur
grub
rewind
ahhh
ey
separat
formalit
decorated
sicil
kosh
xi
healer
talents
##yush
##vito
accessor
##ative
dunk
##airy
diabet
disobey
incorrect
crosby
testament
compass
dread
drugstore
jonn
flunk
chizu
bulldog
quinn
shakes
beaut
bygone
fiive
watchin
magnetic
##shining
wack
gallow
hover
turbulenc
gour
reopen
##arity
brenn
forger
bod
chul
##lonesome
##riem
justify
##flower
exchang
##lling
destruct
##nsa
suicid
wheez
num
epic
golfer
pleas
##roe
##ving
overflow
lev
##rops
lada
lesser
lands
tasteful
##uce
diploma
rudd
##dated
collision
shampoo
trajector
penguin
jacque
cluster
baggage
cobra
textbook
decoration
frenz
provok
addiction
##shi
vcr
curb
rehab
allowance
rapid
raymi
disser
prim
yorker
##yuki
suspend
marking
idle
##zone
snail
##vested
##ono
sticker
##uang
certifi
noot
##icker
aches
##eman
nee
tad
chunk
restrain
##oon
##nage
##eerie
195
deaths
##accidentally
bureaucrat
##oxide
##hai
inhabit
chevalier
comprehend
entrepreneur
interstellar
exterior
conform
saturn
saddam
toxic
armani
shizuk
mcgarr
scarran
chechen
unfold
yotz
##airborne
guill
screwup
##oper
##signation
jumpy
greener
nurtur
keyboard
headmaster
cutest
##ofus
mega
gloom
kwon
retriev
tougher
reco
##rabin
ahkb
jepp
valentino
thruster
scold
menage
##aqua
bien
##ito
##gami
##lain
royalt
##elena
koz
sniffl
biker
parolee
homesick
reek
lens
stub
swap
spins
nasa
harbour
cavalr
stench
elevate
twirl
deserter
##lla
sicilian
immatur
hottest
chung
transit
establishment
##ata
lum
##nerri
##oka
warhead
##rath
sonia
vera
organis
australian
lass
##dieu
##long
shao
##availab
babysitt
##test
tack
turd
environmental
burnin
andreas
##take
hwa
granddad
##edication
shorts
preferr
##hit
##ngil
##uk
premier
cynic
pickin
describ
adulter
shui
cr
bong
##alem
##tting
ante
##oyd
oink
nikola
##cky
pygm
whil
longing
##urgo
impose
unsto
##51
##nash
infra
transvestite
creator
ominous
phyll
barcelon
concussion
sinister
yelp
misplace
simulation
cereal
abras
cherne
anatom
accomplishment
cyan
frostbit
sens
choreograph
comply
##presley
wuss
damas
leftover
kirk
##rey
supplier
bj
manipulat
##capable
shutter
pains
##ige
stasi
valer
##clean
##erie
agenc
premiere
banner
zorin
hides
ref
sleigh
slay
disabilit
companions
##ably
##yet
jackass
buns
##dah
mit
macho
stewi
##rres
##dini
obreg
##laine
apprehend
gospel
pedestrian
smuggling
arraign
wiener
dublin
veal
parch
bogey
pikachu
ewald
janis
##ucci
ignoring
wacko
##unich
bead
laurent
testicle
combine
phenomenal
##auna
finner
determin
gush
aspen
##efer
##litary
providenc
archive
kenne
dispens
dung
##tching
implants
digest
##generation
troubl
##wise
fantasi
##meister
##works
##mark
##abel
##come
##matrix
tyne
stumble
tipo
entit
captive
logg
##itten
##tention
noose
##nard
##rra
##clay
flori
towns
veer
##rim
##list
snaps
chico
harden
allegiance
chauffeur
montausier
maitre
supernatural
buffoon
piercing
##tzel
penetration
practis
determination
dirk
raspberry
holler
implie
tamper
##nor
diminish
exorcist
roose
friar
reschedule
##think
bubbe
siam
yoo
##rax
intentional
stoner
brenna
##01
##ci
gree
halv
bashing
alamo
rosal
peculiar
milan
chil
shige
valenti
chronic
askin
##onoe
ruler
##obs
sitter
##92
##od
dominate
niner
##awai
##signed
##etcher
apologiz
watcher
##yatt
sumo
clink
contagio
secre
appli
uzbeki
mistranslat
##astato
chimpanzee
necessit
structural
bilge
external
serpent
##ologne
swimsuit
chewed
dayton
indispos
##lbert
squadron
attain
whorehouse
chalk
poir
slain
index
globe
##onsignor
bri
piker
##tel
navigation
handbag
flange
gripp
##baum
pore
##would
rio
rattle
##eft
intercom
##mprisoned
plucked
sucky
debri
moro
qualit
purge
##mes
##xma
##jury
polly
arouse
depriv
##erot
##lar
carve
arrak
unfi
##ira
mcna
deteriorat
rips
hiro
##eye
pla
giraffe
stairwell
remorse
expansi
monstrous
compulsive
unanimous
rouge
snitch
fibro
roadrunner
iong
agnes
burche
koko
##med
microwave
organism
##ludes
tranquilit
probable
uptight
mascar
##rose
commando
feminist
puncture
jolt
lax
sane
woodland
ofour
sued
##trained
shortage
snapper
##iro
##83
finale
brew
forsake
boomer
stealth
conventional
scrambl
furio
trades
##leyman
##52
##jesus
piper
bach
##burgh
##urine
recycl
chas
sho
yoga
heartbreak
##pool
unsur
##ification
##rella
els
crumb
##pless
scotti
oof
##into
##easing
##rway
convenience
norwegian
stonagal
festivit
fusion
unaware
erection
apocalyp
feat
cinderella
assumption
circulati
alvar
dub
fiind
vocal
enable
puttin
cro
whereas
handles
comf
petrol
baton
##rate
##net
seeker
treason
gilles
##15
freed
##orlock
##aki
ofmy
##folk
hami
splee
##pps
##sey
ishika
alexi
##stania
##beat
extracted
##vich
casting
knit
##saak
##41
chum
provoke
binocular
concubine
skedaddle
zatarc
robocop
malign
striking
timber
lombard
pancho
martian
exterminate
sanction
larson
##oissan
lewd
invad
loft
lank
poopie
##wash
mami
archie
intersection
megha
##03
leve
191
cir
barnab
bl
##eidel
tknow
hild
##after
sighting
unpredictabl
maxi
##joe
chai
flipp
jock
oye
greene
##kok
chubb
adeb
forge
sever
##ervo
excite
vitamins
macke
amour
##sured
od
##setting
##mu
clause
romm
pic
##ested
##unmarked
awakening
evolv
##idian
##ugged
laz
froze
newly
swingin
dilemma
dyslexi
qualification
intercourse
walrus
##tsuko
maintaining
crayon
tuxedo
distinction
courtyard
starfish
disposition
dahn
##sterda
phobia
glacier
overdose
##hinner
territori
tilt
compose
reminder
##nic
rumpo
##oud
israeli
poly
##suk
apa
andres
narcissist
vil
adi
recogniz
##ranged
##wald
expire
##leans
##educed
##shoot
giorg
##ghast
fiance
spec
##var
anise
char
funni
enquir
ellis
itwas
##58
zi
##sson
seren
eu
##21
consum
pinoc
omelet
confide
efficienc
involuntar
tranquilizer
machete
promiscu
sierra
trifle
scripture
pitiful
cretin
yodel
surpass
##port
hangover
itinerar
fingernail
##something
loot
vis
bonnie
passive
##ickling
incense
gu
aprile
mann
spitt
fec
taro
headlight
infest
##ainted
ashle
##fcon
marlo
##999
camps
takeoff
##tte
dazzl
trespass
##gerald
##nickel
##wide
wald
ulys
catastroph
##dia
siege
heroine
symbolic
beds
##aviar
trainees
rep
##jected
versail
##mw
##ookie
decorate
tucker
marshmallow
assailant
peruvian
streak
transparent
vintage
urban
slumber
mackenzie
aurora
philippine
tanning
interpretation
prat
windsor
polo
yaga
dynast
snowboard
musicians
assurance
gp
foo
##ideon
tofu
democratic
outdoors
preservati
closure
chime
newborn
comp
##napping
crumbl
##filled
whim
##fold
surya
supervis
##maker
##massive
##lore
prefers
delegate
muck
##ruman
##ala
eater
manufactur
itjust
mural
vouch
pap
##keep
cocks
##end
clog
sank
##po
volcan
bosu
##velt
avalanche
catapult
embryo
holodeck
mizuki
ferocious
consolation
equivalent
evie
viking
export
succumb
yasu
##view
complet
deuce
liberal
twentie
snowball
hallo
waterfall
bena
epa
mim
excel
gibberi
nay
utilit
##84
##put
breathless
##dominant
##rlock
##otra
outline
observer
yuu
outrun
directors
loath
attribute
##mogen
imitate
##rusty
vienn
unite
##lima
yeo
feder
##94
heist
crave
exclude
integrat
refreshing
adventurer
commie
cran
##55
rating
rightful
jeopardize
filing
tingle
babylon
schwei
##nstructed
##dema
stalin
delinquent
devastate
hydroponic
machinist
aeroplane
discern
matinee
controversial
blitz
gravitational
barefoot
gruff
prawn
patte
predecessor
unreason
corona
chock
woe
plasma
rhetoric
##tial
##avert
partnership
theatrical
castel
shitload
##omura
##wear
retro
##33
menace
ballard
lasz
pave
scarce
britt
nix
virtually
assassinate
##girl
##nuck
mil
hospitaliz
jule
verifi
##mple
glas
kn
lassit
devils
disorient
coca
spiral
itchy
orb
##ystic
canine
decen
##81
##when
designate
##ex
platin
rhet
vagi
doodle
##09
##gree
coco
crumble
##iggs
##kka
##riton
##gga
mcca
##liest
##enoir
##topia
##ln
130
tailor
caller
##iena
whirl
milligram
undef
vineyard
mariss
emerald
mould
shortcut
bueno
accommodation
microsoft
chaim
bookstore
loveyou
##connaiss
perla
patiss
##quin
imbecile
tolerance
saxon
racial
blacks
roach
transporter
##halang
maple
tighter
playground
sprock
runaway
threesome
cappell
perceive
##working
sizzl
hacker
##hose
columb
ark
##zama
##sex
overrul
greens
naok
##rdie
attempting
knicker
mali
broads
merci
haruk
purgat
jang
##xx
pater
nana
##ark
invalid
extortion
cathedral
charcoal
maverick
oatmeal
electrocute
mislead
climax
schram
appliance
platter
wank
whiff
montai
mcmi
chevy
animation
persever
bozo
##won
denial
##ugula
##cobi
encrypted
##ped
acorn
pong
plex
inhuman
##eplay
vivid
ports
crushing
yardie
beta
##mina
invoke
##strom
##oola
##zio
barr
reunite
sil
zing
thrash
##ipping
##rrill
maki
##leasing
thiev
imprison
preliminar
##lyle
assemble
klein
mumm
moss
revers
chantil
fras
sup
mev
proceeding
##ena
boyzvoice
generosity
homicidal
migraine
patriarch
sequel
distributor
appease
unauthori
prodig
dragoon
pneumon
stove
spout
##ezinho
##peer
intervention
quaa
specialize
ritz
cone
progen
judicia
projection
frontier
proton
presidenc
smug
spore
buffer
painless
##lady
##auser
##uscat
kickin
dodg
stow
chon
maze
kase
jell
sanju
knick
adams
jude
toaster
nu
cub
attach
miu
chipp
encouraged
sparkle
crackl
demis
graduat
##di
columbia
##ngsoo
reno
squeezed
manor
jod
##akota
arc
instruct
pom
##idding
##send
clint
##bragging
slope
nerds
dimitri
subscription
turmoi
website
steroid
rooftop
interaction
hostess
perversion
stabbing
pront
housekeeper
thong
dense
relic
##arrow
heru
##midt
withdrawal
##aking
shush
##lent
##eskin
##teria
checker
baptist
petrifie
wager
##oh
odor
##heard
cheered
shay
iran
wand
loin
##azar
##erian
sentiment
darkest
polar
##drop
observ
weave
traveller
arch
##ssex
patt
##dolph
consummate
auguste
canvas
ratt
ascend
mash
haunting
pluck
stunn
baa
##bac
tru
##ave
##ize
##articulate
##ctic
tribes
stomp
yester
##elevent
santia
revolve
##schuldig
administer
constellation
espresso
rebuttal
agostino
preoccup
transaction
rawlins
maroon
musket
laborator
lucifer
vibrat
neurological
##zing
lunchbox
##significant
improvement
thermal
scram
##ited
##ced
carving
emitter
muscula
kool
spunk
huff
residu
eee
##hl
taboo
habitat
##kov
fri
marta
palerm
gland
ze
moi
vary
appoint
abdom
lace
absolut
fixin
iq
pur
##injury
##atus
overture
##bona
ira
##andini
scratche
conditioner
accusation
##john
torpedoe
fiber
shaken
paulin
##stein
notch
yum
##angled
##asco
rabi
##99
chops
##ph
sacrific
##jurisdiction
eclipse
messiah
plokavian
impoten
mussel
dwarf
favre
mentor
buick
detain
nia
luxurious
oxford
misha
valiant
sprain
##jection
ulla
reconcile
tanker
toenail
##53
depraved
125
impos
raf
pitt
ads
##hoo
peer
dribble
gua
##linda
neer
stig
susanne
##hq
##gish
##oromo
pitts
honda
itch
edi
##85
stalk
stimulate
##uld
##grown
##mann
##ona
##bide
##ica
nibble
##dried
sook
##ensen
frequent
node
holo
##ancho
views
secretari
kyot
digesti
##inho
stabiliz
fins
carm
bla
superstitio
##want
##ios
shoulda
##violi
##ckford
battling
chardonnay
dishwasher
kafka
phantom
michelangelo
delvian
joshua
ouai
yawn
defective
esther
newscast
gymnastic
fickle
kni
frustration
christians
superstition
metro
ufo
spouse
lava
himalaya
mow
lei
ruben
advertise
askyou
##chilling
fume
##mage
cred
nuke
lea
mainland
contrit
kennel
laughin
##chez
cuth
mazz
mak
##baby
##talking
kirst
cli
nora
listing
clair
cuddle
ahm
tal
bellow
hopeful
drumm
echoe
##proof
##bath
##enne
##ella
isolat
email
##nna
gps
jug
##gonna
cruelt
##usie
produc
##audible
commend
brrr
parlour
modification
sacrament
competitor
mongrel
flounder
tuition
numerous
amigo
boink
maggot
dobry
eruption
collaboration
collaborator
unres
harriet
buddhist
##boulder
hittin
##rjun
overthrow
woof
bummer
malaysia
parental
arson
peril
caddie
##nkers
sculpture
gutter
maldi
pussycat
shrine
loaf
##hey
suppress
publication
retail
condo
intrusion
sasha
##rami
vay
ella
##little
##anga
##written
pp
kier
##kind
##own
caper
biz
##mond
casa
##iti
adri
chimes
##ization
##levins
shuffl
trot
pakistan
adventur
tra
malt
##29
##mpathize
recon
tup
##ller
frankenste
southwest
franco
knights
carava
##tra
recital
impulsive
melodrama
teresa
courier
hippocratic
cockpit
sprout
footprint
sensual
armband
wiltern
pedi
##omaha
deviation
##usilla
lulu
amin
applie
calamar
cashier
schlepp
##oto
silvi
barb
lith
blackout
waffle
smuggler
nigh
fringe
cadet
hardships
##con
##eague
##mus
hale
stag
productiv
whinny
swan
sideway
employer
decaf
vu
wonderin
powerless
romano
##iagra
shootin
kr
##cala
mast
wasjust
##dedh
kg
restraint
##bed
##pity
kisser
##hara
900
##hire
tang
sai
##skar
hipp
herring
chino
camper
##aria
##lade
rejoin
pizz
dissolv
cavit
albania
vibrate
badass
##nin
##tin
chech
##has
outlet
impostor
magistrate
flemm
forfeit
pharaoh
entrust
unnatural
speculation
gormen
mortens
freud
fundraiser
conduit
sedative
translator
grump
cellphone
xana
prominent
whites
disagreement
abstract
dynamic
indiscretion
diplomat
sponge
##liberation
dolly
##usten
fortress
architectur
genital
cannibal
##lne
midst
newt
dev
fal
appendi
##low
##edna
nai
sera
colorful
##iyuki
teleport
luen
kyl
pharmac
syne
##ggy
gumbo
hateful
##shave
actin
##lina
pri
fenc
jest
tonic
sponsored
lenin
brady
##ahu
rus
##22
whine
##stop
##arius
pil
##most
organic
##ovak
chiu
def
##matter
tac
##yon
enslave
##gure
yaz
simulat
thro
brita
farts
intern
accomp
steep
fauch
auxiliar
belgium
bourgeois
crotch
hemisphere
nosferat
stockbroker
antichrist
repetition
plaster
unfamiliar
lavend
loophole
summarize
gulp
therapeutic
notebook
sandbag
fisk
##stia
disney
attentive
reserv
hearted
archon
tempo
##pei
##93
8000
##cheb
spinal
refund
granddadd
vindo
knowwhat
##god
britta
##weed
toodle
intimidat
divert
startle
undis
hottie
##nonstop
finder
bodil
mono
pedro
##quette
##ordon
##ickle
announc
emerg
##watch
helper
wher
bumper
plent
dj
##lsen
##iang
pooch
loma
defin
##law
kels
##mov
##cing
##puted
molecul
lizzi
udo
coaster
inevitabl
##ap
##era
##odin
sharpen
electron
arrows
slate
##orado
dye
inferior
oblivio
trojan
mercenar
miscegenat
hajj
rasta
indulgent
mistral
burgund
lapierre
##ucked
extinction
tyranny
halo
midge
elise
cluck
norma
##andre
layout
hideout
caddy
nourish
captiv
brewer
conspir
sherm
quake
miyaji
119
knitt
potty
bene
sargent
##shed
tung
barricade
sedate
griev
degrad
##skin
benz
##sweet
mmmm
dicken
suz
irregular
viewers
amp
disqualifie
oblig
procession
bland
rec
indoor
finer
nobel
##set
melanchol
##pm
slime
##give
soho
##writer
memorize
##cock
ifthey
miki
##pose
##nding
##mission
majestic
curly
##vered
##cast
gere
##35
##tone
##ches
##02
scab
stil
brink
hiccup
improper
mausoleum
obsole
dysfunction
fergus
imperative
squander
swirl
plunder
mosque
automobile
bichun
abnormal
radiator
disarm
impatient
apron
hazelnut
crucifix
telemetr
chimp
reversal
swordfish
hypnosi
dependent
abo
##them
cushion
##things
insolen
panc
dae
saucer
##grassi
bor
pont
neigh
##cki
##hair
##11
dima
crystals
porky
cheri
##confined
puls
##olko
grader
navigate
##ann
melod
ci
degenerate
compell
##mitted
lair
midwest
##panic
##ruther
##54
annabel
airway
hedge
rak
##bank
bloodsh
everytime
bruis
socrat
##nfl
lance
compensat
oiler
yog
##rez
alleged
aerial
##honda
##orbi
synchro
poul
##tical
alzheimer
nuisance
disastrous
domain
interval
nutcase
calvin
venue
jovan
gulls
comedian
dickweed
larsen
organisation
discard
imitation
##ors
glitch
dyin
commute
lurch
dumpling
##opped
distribution
dorset
acquaint
souvenirs
hustler
##atomi
whinn
suction
205
##help
hangar
moto
##aek
enhanced
consumer
telepathic
suitor
pyo
##ennis
clank
thoughtyou
versa
voi
bot
stephan
accusations
##40
smilin
yip
##lier
kall
intens
diagnosi
##kay
pits
souffl
jens
##izing
##die
extent
rafe
grouse
##apple
tunes
##rity
milli
ashe
gains
sexualit
damag
discriminati
doughnuts
##chial
obeyed
carvel
duchess
reset
##olec
hijack
eta
picket
gallo
mustaf
##ador
lema
skateboard
ea
sima
##omingo
wolve
##ppable
tetsu
nolan
gem
##pilt
##abstinence
akrennian
decathl
grotesque
heirloom
hydraulic
tribbiani
aziz
burrito
laxative
squish
caliber
sororit
rigorous
indictment
deacon
merciless
protestant
calculator
kevo
biograph
fleece
ammunition
halc
glitter
##hogan
hutch
lippman
singh
distributed
loony
cot
gunship
##pras
##dead
##nose
sorens
##amien
loneli
##didn
sketche
vir
##ency
builder
peti
onoe
wilt
##ille
cooperat
##isation
##fuck
bred
##orita
penal
dreg
contra
tragicall
##ps
##important
##darin
##ethical
err
dumps
interact
##gown
spat
rivet
##ustard
demo
rajan
##epsi
hol
opposit
##leigh
statistic
amor
##ruce
##rada
oppress
##bis
cons
esca
clams
##ifer
##walk
##naiss
flaming
ashtray
gribb
parliament
peppermint
vaccine
moustache
fauchau
ornament
patterson
incline
terrain
seashell
mailbox
extravagant
angie
beverage
heartache
clash
##och
##adie
youngster
##heeit
unrequ
exec
workaholi
virginit
mcb
vertical
firefl
upgrade
strengthen
mandat
bennet
jia
bahia
empath
kaja
##fer
gre
inhal
blaze
restraints
henchm
technological
##tious
discreet
##nare
backfire
interviewed
capp
seism
##der
futil
##ric
##uck
bagh
vitaii
klu
##ven
terrifie
spun
##ectom
chees
##broken
bras
##uration
##lkin
##000
190
ranking
##again
founder
lp
flor
##dest
shrivel
##iki
discourag
gaz
foresee
##89
toxie
frat
##yeah
##gc
##orbet
grr
##trick
succu
berry
##toplasm
berserk
implication
reclaim
schwartz
tribute
syringe
superhuman
bloodhound
##care
mishap
##agan
listener
dirtbag
jukebox
adrenaline
leper
##enny
credi
clinton
pubic
transcript
empower
hick
testified
ceremoni
berke
pester
pus
techno
mystical
vale
suspense
inscription
freighter
##sric
##magog
deede
pats
purchas
setback
##went
daytime
stimulat
##slaughter
phillips
tier
##enora
hasten
vos
nud
gris
moor
##38
loom
convicts
##ishi
anal
##coli
##cooked
##cag
##jay
subtitle
racer
##ailed
cherished
deepen
desperat
placement
permissi
##strong
temp
thermo
farce
arroganc
##ker
stride
undergo
prescribe
suffocate
##uffi
##rassment
johann
compensati
encourag
trait
##ida
haste
metaphor
##aller
differ
shaq
##uz
fol
cylinder
portfolio
predicament
sibling
superficial
cuckoo
swoop
eyelid
implement
comprehensi
drumstick
giacom
huki
rannu
crafts
fundamentalist
marma
elph
indulgence
sulk
guerrilla
slammer
donor
fiirst
sentient
blooming
quota
pending
ballistic
balm
clack
romanian
kato
##mmune
acute
reap
meek
ric
rental
kir
##onoa
dimensional
salty
toge
sundays
rand
##warm
##ico
madda
##onzo
wrecking
edwin
##bone
##ead
insider
dispute
manti
bun
diagnose
depths
tremble
piti
brute
##arthur
claws
signor
##nji
detonate
mingle
##scent
cleanse
shann
admitt
##lassie
smother
##timer
freight
pasqual
##iu
ravish
mcco
##dio
qur
grue
gyur
##ihachi
commotion
cosmetic
cradle
obscene
sylvest
gelula
bisexual
cheeseburger
detox
womathe
yamamura
internship
devastating
verify
##riage
despot
abyss
toothpick
truckload
submission
accordion
cact
nannie
schizophrenic
outdoor
##eck
terrier
##orfiri
variable
sorr
gateway
fictional
atlas
malp
correspond
brunch
##oma
##chu
bel
interrogate
captions
brock
##bessie
##lower
payday
dupe
##turned
eventual
glider
stamped
cooker
marx
##88
##argh
wallow
##strongest
completi
##tile
fasten
wales
grat
lured
waa
gallant
sonar
##chen
anu
underage
intimidate
##cz
##opy
sama
transpo
##yubi
enormously
fib
traffick
##constructed
##said
shakin
provision
##witz
280
##ntine
##arvin
damp
##placement
##sburg
inopera
decor
verbal
##jump
##urance
expel
prepp
##reasury
roche
bobbi
conf
dominic
##arily
##systems
##idori
##drou
ofher
branche
##link
yoko
##tre
##gren
##mere
##rel
compli
raphae
treacher
allegation
councillor
dishonest
excruciat
hemorrhag
kazakhstan
picasso
taxpayer
conceit
alumin
mutant
lazlo
charade
peking
shree
compatib
anticipation
excessive
gumdrop
cristal
gadget
muster
advertisement
cohen
alfonso
akira
diabetic
radiant
earpiece
jae
handkerchief
oddball
##ethro
yuko
constructive
ethnic
marrie
##tto
hj
flore
kraut
rim
pasture
mower
##mada
alphabetical
revisit
partridge
##waiting
##daho
##otik
##hitting
mace
lucind
dispatcher
nikk
hardship
marital
audaci
##toris
122
##tes
sheen
##82
entertainer
narc
cater
##dler
##pian
gul
##ems
monitored
curs
offender
##yo
##semble
##dark
##pin
paro
##eban
##sure
acquir
##week
finalist
craftsman
denounce
##ika
##lander
##finn
##inary
prosperou
gambler
hana
##lies
##car
##ub
##ovsk
klansm
##ggie
lifeless
##liness
##umps
##path
adolescen
seasick
wicca
mara
luther
vamp
currenc
hesitation
sebacean
vibrant
vertebra
tibet
spasm
crossroad
navigator
biggie
alabam
mindless
photonic
resemblance
quail
megaton
##wry
wouid
preference
rb
medina
beecher
compress
adoption
gent
betroth
##mid
cpr
flutie
lapd
witter
physiolog
hippo
giv
##ator
bravest
astonishing
##inal
##dice
##tems
##owing
cove
##ebee
##nyan
concur
realiz
##ardner
##ludi
costa
ofthose
argued
##lie
concluded
fling
giveaway
darle
lotte
pitcher
##ailor
symbolize
##joy
barque
induce
auditor
caption
frickin
memoriz
penitent
wiggl
##kill
##ssure
##ul
##fraction
asif
handler
taco
##hearted
maur
digit
gook
modell
thi
postpon
##bitch
##borough
##but
atmospher
##ummies
precis
shores
##itties
orso
philipp
##wita
perse
adder
huhh
honoured
kamikaze
rupture
masculin
reuben
absent
suffice
tarzan
tumour
consort
glare
devour
allergi
gloss
ordeal
initiation
blob
lexi
wbat
troupe
bonehead
pushover
##59
caca
conjure
devised
forecast
shar
##dog
twat
vino
str
orchestra
sac
metropoli
rugb
pagod
##rone
##ulous
tsai
geezer
##atrice
hash
ferd
obscure
##coff
prostat
finesse
##ned
startin
mah
initiat
##minent
bonds
yuh
boz
duff
cau
ari
##tique
##find
oceans
amaz
ach
electora
booing
##lize
##stray
mung
dire
eey
##ama
aria
fightin
##aq
phenomen
tenders
##vi
##illion
suspens
flak
##guel
##airway
##almar
untouch
##crous
armadillo
centimeter
gogoiak
impediment
renounce
emphasis
smooch
convey
ponytail
blunder
saunder
byzantine
derive
frederick
intensive
churchill
heterosexual
distinctive
scots
cobbler
sidekick
blur
##uix
scalpel
##udoir
siberia
restriction
dialling
powell
extraction
suzuk
##polis
##ives
jefferson
shih
angelic
incurable
garland
coral
mellow
minne
syndicate
acquitt
atari
posture
contraction
worshipp
##rock
frames
rehabilitati
uter
whenyou
norm
##colleen
flier
psychon
exfoliat
##stler
##agged
jee
penalt
##anya
blurt
hobo
##melancholy
blower
coordinate
##minated
capitalist
##detachment
coached
teller
masturbate
hinge
castill
##cile
##amed
rejoice
senor
presid
tish
##war
defender
continual
##kun
cooks
scor
marquise
poise
intake
fiz
##bi
##scape
hurtin
qui
lough
rockets
surveyor
slaver
whup
##oelectric
cockroach
credential
gunpowder
mannequin
flavour
charisma
leisure
decisive
medicinal
prehistor
refrain
bulkhead
garcia
omelette
strive
prevail
persian
metallic
memento
prototype
copyright
raving
flexible
stallion
##temporal
##oww
phon
arter
##wick
twig
poppin
payoff
bureaucra
brant
##mail
assembl
popplers
controller
mumbo
##rn
frightful
outnumber
astronomer
##jev
statues
dominat
slag
supervisi
commandant
ugli
needless
densit
##jailhouse
mull
##982
mayb
wedge
##rl
gou
##eville
##ndez
injustice
##anabe
hoop
hooter
yearn
##educational
poca
hmmm
harr
##iff
##lio
distra
##top
spectr
tobin
lashe
shagg
heave
indicat
##helm
##vre
fritzi
##ration
fret
mater
mound
buoy
sect
yin
clich
conjuncti
beak
##ucker
##ugie
182
shota
genev
distribute
##famous
physi
corra
inflat
ragged
funk
##tech
cram
morse
eggnog
banzai
incarcerat
ernest
prestig
gruesome
unfaithful
penthouse
cedar
morbid
bologna
diabolico
mirage
remainder
brainwash
protester
trapez
mixture
florist
interface
surge
paramour
kek
jasper
mammal
##tipet
prose
tame
buh
tweak
frantic
##propulsion
##nu
convoy
projector
devi
flake
llfly
thishakur
dakota
calf
##very
##distinguished
consul
locat
deja
lighthouse
rox
finalize
jog
ballot
cutlet
aggravat
mantle
regulate
tripo
barne
##umbi
##loo
rah
unforgiv
##ui
deduct
makeover
savin
diff
##active
eras
mills
omen
exceed
matur
simmer
herbal
rays
##cour
voter
meditate
##challenge
##cuse
uneas
##professional
##lateral
##jail
vip
##umu
lynds
shinin
aff
fontan
##found
##cid
##oogie
overhear
nominate
##tier
##esley
analyse
##mary
lear
owing
whiz
tylenol
unconditional
belgian
encyclopedia
nostril
pawnshop
baboon
epidemic
gnaw
perverse
##stat
counsellor
bamboo
fragran
lullab
thudding
malicious
preview
flatten
indicator
bookshop
refreshment
guitarist
deflower
##evak
lowlife
obero
##uma
undertaker
spencer
antoine
enroll
swordsman
espn
ostriches
410
mig
##emer
##really
##ping
dosage
gull
discourage
shabba
vard
rosen
pietro
##hop
admir
heidi
##camol
canister
duc
##star
hai
juli
##uch
calve
stumbl
nasi
starin
wasp
fiddl
##unk
sig
##pree
cruell
perv
##lma
befriend
surreal
csi
titt
##rkan
moist
und
luz
sato
loathe
##ig
##eep
##ril
demonstrat
polk
olympi
##ending
##eur
stitch
##arna
poppy
reichs
happenin
morg
docks
##track
bombard
leech
accur
embrac
jeopard
##tted
profil
blasphem
##pollina
##oregon
neutron
brochure
dawg
explicit
fossil
hymn
liaison
viznik
misdemeanor
dutiful
reptar
##tentious
newcomer
trenor
twinkie
dipshit
benign
knucklehead
mutilation
chrys
brawl
pins
bayonet
syllable
cassette
subscriber
##ricardi
cupid
conspicuous
ap
unthink
undig
nobu
deadbeat
gracia
pimple
braid
detour
##cary
sinful
kree
jeffers
##bean
communal
cables
##ids
obligat
galactic
##vonne
##trapped
mahes
bibl
pinn
processor
borne
relocate
intestine
pubes
decimal
dispos
drd
crater
alba
rafa
lard
retaliati
gius
##ttie
arden
thrones
##clarence
##band
montal
deprive
tsuyo
sax
quer
yearning
mai
cruis
imag
##udou
riches
absolve
tao
seein
##mesh
thrive
punche
grandp
cain
##bola
mort
stirr
bases
snuff
##ugh
kamp
seldo
##lu
supervise
##pierre
##raiser
##lorel
##attractive
##considerat
##too
##eps
jur
##oratio
shad
##evich
picken
##hiko
##agin
scot
##tie
##name
##ertes
##sota
splint
##their
##ip
monarch
fulfil
gust
shifting
yolk
##uous
grieve
payin
audr
contradict
culprit
kosabur
omega
pheasant
uncommon
wiretap
bladder
bridesmaid
decoy
muzzle
parameter
delegation
firecracker
billionaire
revenue
apothe
bambi
precedent
carpathi
breakthrough
copilot
queue
perpetrator
prolong
beseech
skank
unprecedented
unpack
incest
famine
raincoat
installment
hotshot
ida
headband
janos
dillon
trademark
lyin
weld
airlock
scavenger
offiicer
zoom
socialist
irrational
bloat
offworld
crusader
hive
holli
swab
fearful
authorize
panda
allegedly
frisk
levit
eccentric
##ubby
##break
whisker
latch
termite
hatche
cyclops
##ent
ilya
combo
outpost
hyn
barbie
ancestr
adversit
millionaires
giulia
takeshi
crest
primari
myung
trio
provid
sumi
##closure
dement
chunky
##ets
##inski
conge
dancin
132
blanc
##bad
alca
flyin
tickl
peas
incompetent
organise
##sleep
spence
carole
wip
christen
manolit
##quixote
cuss
taps
barone
##world
nimb
002
##959
##gate
rosin
##giving
scuttle
##phine
nina
##drift
##oryo
##chik
undertake
##anything
##pack
##cer
##chon
intrud
inability
confer
##hunk
barto
##tti
notjust
oversee
##mier
astronom
duma
##simmons
lm
ifit
gonn
contemporar
lasagn
mephistophele
counterfeit
pamphlet
participant
reprimand
thermometer
enrage
honcho
potent
bailiff
pulsar
clout
undoubted
embark
pilgrimage
atrocit
cannonball
drench
diagnos
fatima
masquerad
##nverg
salva
colombian
carmei
devere
##tricky
contingency
##anka
hoover
washer
liberated
bristo
scooby
adoni
guild
masturbat
111
appalling
deafen
##harlot
stretching
caterer
eliminat
##exist
##mesis
iii
tedious
uncontrollabl
discs
##lph
##tter
##fa
graph
manoeuvre
deem
kwai
##last
raisin
meditat
whipp
aide
##rtoir
##jim
##riction
vener
##asia
ner
##priti
benni
##bs
##pl
erect
hind
##mia
##these
speculate
preferabl
##horn
##ndoz
ames
ul
##emanj
##eh
vicks
vamo
orient
alias
##rhus
##uthan
humbl
##orthodox
##loaf
##normal
##minute
##gnac
getyour
##stand
editorial
atlanti
bangle
##first
hor
craz
##acade
contaminate
shittin
##myko
##venor
hemi
colombia
crusade
##remlin
globetrotter
knapsack
snowflake
embroider
unravel
skunk
cayman
aquarium
genome
hurrah
refiner
##niket
shopkeeper
torso
joaqui
eviction
bombay
squint
carib
kimmie
suzum
cranberr
lupe
ballad
vector
architectural
zein
foil
whoosh
backdoor
activation
##competent
enthusiastic
bryan
accelerator
exert
##leef
##stal
999
reroute
##ulation
##fkin
moralit
##gow
checkup
##meg
storyboard
##uh
cron
lookat
shagged
bc
##rapper
stance
tars
tem
##graph
##ised
saliva
##rated
envi
aaa
##hari
suspender
viva
moe
##va
viv
levy
##zoo
112
swarm
kra
advocate
##04
##uran
disput
##ami
##ersen
joong
ieast
##asaki
barring
##ngles
##clu
carr
courts
accelerate
fuji
##olph
##level
##three
##erson
temperatures
##astri
buon
strangl
##oming
cess
telepath
laker
injun
##even
##halt
corresponden
##zak
##lash
ops
trek
##tow
lug
infant
##quis
valentin
scrim
knob
121
vulcan
acoustic
alligator
cahoot
deserving
fredrik
turret
venezuela
hypocritical
rescind
salvator
dishonor
tinker
evasion
painkiller
sikh
conversion
##pit
feeble
##math
seagull
boast
shilling
groin
spotlight
sorcere
##urn
vola
encoded
##lovi
coil
##gimp
filmmaker
fiendish
lark
##ti
##strik
headphone
huan
boysen
warship
fastened
##communication
breakup
##course
zipp
arteri
##08
blackboard
dangle
hola
dept
heater
reconcili
##lmut
creditor
inflame
displayed
sieve
constitute
winston
deform
##vo
##table
##shell
mime
cecili
inc
##marine
bestow
irritat
chromosome
gord
##oughta
##ebay
cair
##left
pusher
halls
##gler
gaining
swat
mystic
fram
toget
##yung
##being
appetit
stefano
##dnr
##grade
emancipat
putter
##gone
##urt
recess
eligib
##float
##heimer
##fair
renowned
##healthy
antiquit
ifshe
persecuti
broc
##could
herod
dispose
##aldo
withhold
sherri
slob
scrubb
bim
merri
##itano
regime
##tune
##ishra
iook
antibiotic
bludgeon
incision
definitive
musashi
stogie
ordain
affliction
default
neska
typist
rodent
pheromone
graft
gros
##plant
scribe
distortion
echi
warlord
lumber
##alsa
##calpur
clutches
##nske
sundown
##iix
##intz
undermine
extinguisher
rockford
pf
exercis
##ft
mori
##big
wag
193
##lithi
np
aspiration
unbeat
gaul
fireball
##brahim
interfered
lovabl
bulletin
salut
##cleft
lense
nooo
##lauz
surfer
refill
fishin
ministers
stac
pakistani
##ckers
succ
chanch
##pb
##two
reconfigure
##inence
bom
aroma
##chiko
##aft
prad
tug
yau
##briar
hallucinat
##illo
strut
hypo
magnet
saltykov
hazel
magn
honky
submitt
intro
flippin
##vier
watt
##maya
lila
##ritt
domesticat
dislikes
gah
gangs
##version
adjudicate
##fired
##oli
##join
##inted
canoe
##rry
dares
cerebra
alphabet
goug
##thinog
##rsh
pots
marvel
##ab
crawf
artefact
ceramic
djerba
envoy
kaleidoscop
poignan
schoefield
tamaroa
##curricul
correlation
gnome
minimal
chaudh
stylish
chariot
pepperoni
glutton
quilt
ravu
deficit
cavern
sharma
nonomura
##ralti
desirable
rigid
horrific
saori
blindfold
gringo
##val
##kite
feck
reassuring
wanot
alexandria
czar
auf
calorie
guardia
refuel
innate
researcher
##eshar
tenure
trivial
lillian
##ula
##ically
##arry
willbe
miwa
benning
##loud
elope
salga
swelling
##sham
##fe
quantit
pas
##hart
ahah
roxi
ein
cleave
##lifting
impersonat
admirer
fay
hiv
playmate
##humann
loc
##ister
pears
##mb
nur
##oi
motherhood
##ague
##elle
togep
estell
slant
##training
naw
constantin
dea
pens
trawl
##ioner
smoker
##under
duplicate
flashed
stings
##boat
splashe
recreation
blaz
aero
brighter
dover
##competence
##protect
##person
sweeter
##court
tsu
avert
ogl
##ignore
##oey
clench
##never
##ride
##gul
parr
##decent
cali
amend
glid
lobe
nato
##arne
yourjob
##rid
##els
catalogue
hooch
##wind
quo
##ahog
warped
ster
##ndale
##inkling
iaw
##acious
##pped
obstruct
anonym
kinne
bunuel
blizzard
prefect
watermelon
modify
glauc
quench
latke
seul
hairstyle
##dassi
abiga
spud
courteous
unnotice
##nprofit
primate
walther
##aigon
schah
consultation
concede
rockefeller
##wung
dampen
##lace
shana
flaunt
amphetamine
pallet
cocoon
##inster
brows
##door
jiff
craven
hejust
beginner
##opping
sleaze
sadistic
##sum
madri
scorch
metaphorical
pear
chitter
##zz
aristocra
itta
fable
yamazak
sightsee
kuri
plantation
fashionable
zeal
##aw
##ghan
manufacture
forbes
##cuz
wiggle
poult
lye
##therly
whereyou
sweeps
fills
##jos
geographical
rhe
##min
morro
celest
dei
##05
volt
wearin
##why
rocker
aching
##rta
##43
lauda
##wad
suckle
##cule
##scow
embezzle
abba
reinforce
##raft
expir
wove
preserv
mille
##start
nit
pb
squall
dent
##nika
leeche
maris
##gona
##upped
fem
##came
poss
psyched
stead
humb
bitchin
dries
sandal
jodi
sicken
vacanc
ident
##stern
peru
stifle
##unimaginable
smut
caii
##comparable
rex
enhance
stylist
##je
##smartest
bayon
##ites
penni
waterfront
##cap
trivia
repel
aagh
astrometric
furnace
ravage
reincarnate
skeptic
uruguay
paranoia
pebble
surname
darrin
subroutine
uncann
geologist
scarlet
vigorous
treacherous
thinok
contrast
prelude
mastermind
persistent
blake
engrav
fpr
plank
##ucket
tasting
prais
affectionate
shopper
wade
##arge
flopp
steril
##free
kano
interpreter
cited
remand
ceo
artwork
unhol
sanji
##aternal
##tnight
bab
tonk
contractor
##gunther
##vor
##oid
##ilia
##cider
indiana
civilis
foon
##maid
oop
##wanted
commandment
leery
##sulin
irritab
snigger
##pr
##cl
confiscate
1200
grate
marque
##icha
##uf
schem
herald
##inisi
valde
##remen
##gashi
##story
rustle
trampl
holdin
##nnis
gau
ryu
conservati
overall
tumble
shuffle
nab
bayle
swinger
##cester
##cs
##gm
birdie
##ewn
zin
##letta
lind
staggering
##ipper
juk
saxo
##rma
##osa
##rris
urinat
##twerp
divid
##jockey
##elsea
jeb
##inthe
##uffe
evacuat
haci
gl
##towa
##viera
defi
breasted
##maybe
misbehave
cataly
montan
astor
unhinge
##unmi
##force
credib
wretch
unzip
enric
bellie
ballerina
crochet
delicac
doorknob
hybrid
incessant
receptor
rhino
rosenzweig
skirmish
sovereign
subsequent
unprepared
artifact
glamour
mathlete
caucasian
banshee
threshold
##nacea
apollo
halosian
hancock
optrican
annihilation
ukrainian
sleepyhead
tiara
combustion
orifice
bunion
drastic
sonofa
reinforcement
industrialist
gravestone
fifi
crossword
physicist
abduction
pisshead
joys
incite
drainage
mocha
guzm
lib
##aneh
wiccan
osman
dal
alteration
##ient
bizarr
cardio
resourceful
outward
pecker
##loos
##eww
pino
##uzi
kane
##gy
##ebras
muddle
turnin
mcclo
##ular
poses
##etta
garfi
canteen
rebound
sabotag
##alloy
congo
tonsils
lament
atom
cliche
tripping
##cious
budge
logo
##sel
trench
##yim
##cut
este
##sdale
##lando
##tb
##oba
##olving
##medy
aldo
evaporat
##shika
vex
##etal
hanger
susi
germ
##lack
lunche
eden
priv
##lek
##zi
convene
##citing
johan
##alton
##section
incon
##cliff
##jacket
borde
gunner
##ederse
dehydrate
##iousness
fuzz
vive
wedd
##kids
aristocrat
wield
catcher
dispatched
sein
grrr
septu
##ero
swee
advantages
elia
exorcis
elegan
algebra
artillery
cabaret
monogam
parcel
perpetual
simplicit
syphili
yarmulk
skewer
coarse
mischie
hulk
najar
pineapple
tuscan
barcode
welsh
jaridian
galile
timmi
salami
nadine
chevron
pinhead
regent
##ntex
magnify
chipmunk
deodor
agitated
plateau
troublemaker
incomprehensibl
skimm
delore
politic
loki
lightweight
tran
crutch
lowe
fumi
flutter
adolescent
interruption
alleviate
mutation
gallon
seiz
cinder
unjust
dren
domino
##chan
wagg
zhen
finch
maura
yuan
niels
bundle
normand
samson
##zulu
hos
conclusive
##pur
##shu
##zo
basil
schoolgirl
##prah
guido
rinse
nikolaev
caste
beneficia
fetishist
shipmate
adj
prude
##aker
santo
patroll
molecule
iraqi
##tu
hoh
subversi
faction
##metz
unf
lb
##rtical
nether
males
##cm
faz
sw
##definitely
##kichi
##rton
lancas
duet
saek
lifeline
##wed
ridicule
##print
##make
mach
##berry
##helan
steele
##ingham
federati
##tothe
marrow
coerc
regrettabl
##lov
##school
##num
ifthere
heim
bouncin
##wassup
dab
##ional
nic
hup
##plate
##forsake
##legitimate
withstand
homecoming
lest
infiltrat
pc
restrict
naot
stem
##sgood
##were
talker
nause
##ieri
kwo
hoss
##chard
##case
##fliction
crust
alp
retract
##special
lori
##ax
prit
disperse
##ople
##laska
nash
##mate
stratos
ug
stank
bichhu
connoisseur
decapitate
disadvantage
faucet
inconvenient
leopold
membrane
motorbike
urchin
embedd
tristan
amputate
##andalf
braciol
superhero
yowl
denomination
projectile
##trife
figurine
seafood
lambert
cashmere
pouch
launder
strei
gaulle
aka
jacuzzi
voltage
trample
remedie
##ontas
##pez
giddy
kang
url
fatten
decipher
reluctant
maj
##odore
zit
persecut
bergman
waddles
thatwas
sanctifie
strang
perch
interpo
fou
dignif
zest
toxin
timetable
speck
katy
##forth
hindu
##ree
##haya
##ruba
blabb
familia
ange
dem
fami
##pium
hurle
eur
##ury
choler
admiring
marcell
##su
forme
fah
rested
thirtie
marsha
gaeta
##poche
photon
sic
mika
lists
##reki
202
decompos
##funke
peniten
##pay
##agger
summers
vicom
nisha
nomad
thesame
##ef
##ancy
##tilla
##trude
rugged
##wo
gaw
sentenc
cancell
considerabl
doubl
aj
##sutom
sloan
##rain
##ota
##assy
criticize
##dl
liberac
pulsat
mite
##difference
##gave
##ghee
ravi
##luxe
220
##1988
immigrat
rut
##wall
missionar
##bit
##uzzi
reich
##ben
##rocco
handi
norse
nielse
cesar
kami
indict
refrigerat
celtic
hooligan
invaluable
matrimon
nitwit
smurf
talisman
windshield
bavaria
concession
megazord
casanov
flintstone
cougar
mistreat
distrust
apostle
saffro
screwdriver
vinci
zimmer
clasp
grammar
iguana
sommer
quag
praline
eunuch
slither
pharmacist
ingenu
appetizer
exorcism
deport
appreciative
vibration
##ntong
novelist
armchair
slagg
##standing
rallie
stoop
verification
##ilow
prowl
phat
turbo
malice
quarry
sturd
radios
branca
contagion
##hard
whichever
##ltana
##maral
sandmanz
tartar
hagar
bbc
semite
vigor
clem
##tchat
historian
airfield
##roz
thanok
##wang
##ilno
mair
calcul
ob
pox
madmen
129
verb
quai
starla
sussu
outbreak
rake
amnes
exposing
michal
yond
##ossam
##ariane
gung
durn
haz
gogo
ofhim
embarrasse
composer
commenc
procur
nish
##gum
##ali
unchar
smokey
kelle
jumpsuits
jig
##ect
##outta
glaze
##cola
strat
kara
##hya
oku
##heid
hammers
##pi
esta
##phew
slop
##sumption
scour
friendships
slander
takeover
##fline
cous
##bang
##rika
##form
##guys
##khar
andonandonandon
##hoy
crazies
fetching
elit
inflate
posting
##etti
montes
marga
nodd
##hrle
##feel
engag
##ordan
fogg
verit
considerat
knowthat
##doing
shapes
210
##rk
calcu
compromis
inning
##pelo
##rado
dependenc
rook
lik
##acent
reside
##oically
pk
writ
analys
##esz
paradox
##idden
##ouf
administrative
respirator
rottweiler
squeezing
##consequent
multiply
abrams
auspicious
lagoon
tatters
harrisburg
deviating
critter
miscarriage
understudy
leuke
grammy
urinal
gavin
nuance
abstraction
ecstatic
obituar
modifi
clinical
pamper
nostalgic
bonfire
seatbelt
crackhead
caretaker
ellip
##died
babysit
delude
980
placing
peddl
##per
dismantl
bouncer
rebellio
dodo
mousse
philosophical
misuse
hoops
##hic
laps
##orries
suffocat
##avail
sgone
olymp
mcman
caress
##miss
electrif
##leave
snagg
uplink
dow
stoli
soothe
skid
##amford
forwhat
uran
##sumoto
##haven
kon
##nails
inward
civilize
koos
hysteri
##tification
##guy
universit
##gnon
thenard
alban
##ju
fuckup
bray
methodolog
beech
##post
twinkle
##usch
humane
##ibert
##times
##onga
og
sicko
wrinkl
terr
distressed
votin
##rmant
##ops
gwendol
##step
stinger
liner
##tomed
##hope
slur
candid
##dva
scarre
##smith
##stay
##weather
##pretty
##arkus
##felt
##wow
##trace
pagan
functional
poli
wog
##taker
ponder
##rinov
precipitate
shiro
sleaz
moli
##xious
aqu
austria
bulgaria
chea
garris
innovat
indefin
anesthetic
baskerville
contingent
derelict
indigesti
premonition
scapegoat
manicure
renegade
pioneer
truncat
misjudge
hesitating
supermodel
troma
windmill
ordnance
##atonic
scowl
casket
ultrasound
candlestick
preceding
rambling
whittle
mccar
deign
andrei
grail
flout
toddler
replie
transmitting
buchan
mmmmm
scaly
##viation
##uri
phobic
##spicuous
clump
armand
dio
##stral
850
eugen
unwelcom
cello
201
ponce
##yvan
##aneous
fb
##ddling
##cking
maim
conrad
splinter
weenie
presently
hangout
bask
blinker
##ofthe
##ement
fuckface
freebas
missin
cordon
##rde
225
comma
##mire
##erker
forte
subtitl
##bell
lego
costing
##tara
##obno
dinar
lenien
##rner
patricia
honorabl
craftsmanshi
##lmont
##mbek
wana
ful
infiltrate
##nnari
tablet
mortifie
perjur
luka
hyperspa
##anne
darken
##seen
depose
activat
lars
##latter
waver
dpn
cec
snare
##arvati
##ht
offthe
thaw
foll
feud
augustin
##raub
rani
tif
442
eti
##wasan
damon
nig
tanne
graz
##linging
##etic
##llah
silicon
##fathers
##aunting
gelati
swipe
##void
nook
gout
censu
##eira
aboutyour
robbin
slippin
atone
educate
##azoo
118
##garin
##joke
##annibal
decaden
scamm
##upert
slav
lander
##announced
devastati
randal
calligraph
impolite
proverb
tabloid
gleam
coworker
toupee
cheju
tanager
foremost
raptor
nacho
constable
dimple
detonation
fluke
schwa
excess
fantine
boysenberr
armpit
unscrew
zhu
laurel
restoration
egghead
barbra
gloat
shoemaker
chisel
monopol
##ontreal
cheatin
pseudo
scenic
supplement
olli
visi
109
flashback
septic
cuddly
losin
petoria
nasal
statute
madden
rv
paints
stalker
adulterer
silo
clueless
salarie
boden
ribb
##tide
##anderson
eeh
##oan
rene
overtake
mathematical
stefania
ikeep
alexandr
##obie
##choo
taber
participat
##burg
luk
105
nevermind
animat
exclusively
fantasize
##mars
koja
radi
##yah
erick
tarnish
sala
mango
mytholog
##pard
sogg
dp
chano
exceeding
fraction
##saka
uncertain
horri
##rr
##ua
chaperone
coy
##rat
##ruti
##tung
##rtem
punctual
##ologist
inaugura
iceland
accommodate
##figuring
##cent
##another
##act
gry
haze
billing
##lund
231
fanci
tornado
##achs
intoleran
##thane
gall
blanch
##pole
mayo
redecorate
deplet
mau
getti
arle
##much
conga
hype
leli
girlie
danne
hens
revoke
sublim
##train
##efficient
##ortez
solicit
##flation
##bred
##fl
jing
##scotti
##money
mathematic
cultivate
##aquel
##okay
springer
##eech
##che
tact
pleading
blocker
intrigue
vacate
lund
aerobic
agitator
kumbaya
occult
odyssey
tarantula
complement
torturing
piedmont
humanitarian
pistachio
hoodlum
sweatshop
unbutton
eloquent
murakami
somber
ransack
guerre
archaeologist
churn
triumphant
texture
pacino
plough
ratio
benevolent
yech
blueprint
horde
holographic
barnery
##achim
handpick
landmark
grouch
electrician
faye
pyro
##enono
##80
blackbird
recollection
sensational
doorstop
remarry
fraid
hara
oracle
cothr
pleasurabl
vendor
trickling
rustic
defie
mutilat
succub
##quille
floss
##minating
houseguest
frau
##nunnery
twigs
wholesome
financing
reciprocate
kudo
purr
unsolv
mutin
assimilat
anew
hispanic
##ile
##ppe
pout
pulley
turnout
anoy
##earing
analog
tada
##onic
reduction
pide
saiv
animate
vig
vexe
seo
conversational
##nio
##mata
##backer
persist
cliffs
oc
allocat
##ujo
tentacle
uk
takashi
shredd
spangle
zha
sideline
ferri
##nick
##ager
##yriel
purifie
dual
goats
blaster
##justice
buyers
memor
caresse
fon
uglies
outgoing
135
luv
##iversity
viet
upload
##yoshi
##iva
donnel
snag
##holm
oar
tripe
gao
servic
##still
archaeolog
##rrant
endur
blushing
##defiance
laborer
##bonge
communit
##easy
##bouche
##ooooo
autis
locke
##rengi
##tr
lon
##hares
##acc
lan
##midship
##guard
##ilian
##paper
hurri
##refined
##debt
##sunday
##allright
##brother
cele
##ots
##rin
##sabe
##aaah
ooze
##pennies
sleepin
suv
incriminat
whatcha
##iia
lorn
sti
##lical
tlne
creativ
schlep
babble
##hunt
paddl
milwa
belle
horsen
##oke
rhine
aesthetic
arthriti
cornflake
inflammat
misguid
perpetrate
silhouette
aneurysm
hedgehog
czech
expend
bazooka
diagram
carcass
salaam
stacey
moraes
mutha
trillion
pinata
innovation
morrow
eggshell
obstruction
mariachi
bahama
impeccabl
popsicle
ripper
capturing
jettison
deuteron
flute
vader
relish
kamat
boja
tunis
grau
arabian
prediction
higashi
stipe
reinhard
libertine
##ngus
lol
rican
winn
##kleber
habitual
morton
directive
mutate
snowmobile
gege
criteri
lyrical
chivo
superfl
manufacturer
##ouska
glyn
chien
kh
kuro
vulnerabilit
##date
rivalr
cruiser
##lley
ingenious
fuckhead
catti
##ondo
rained
cathars
##anama
nosh
collide
requisition
##hild
##roc
fend
kimo
neutralize
##such
##blum
prostituti
bonn
##catin
saki
specif
##ypho
collie
bilbo
papu
##ennel
ldon
##voice
croque
##rras
toleran
rump
walkman
detach
dustin
sancti
shiba
sender
viril
ot
raff
##sias
##tell
##oda
zoh
sakam
striker
##strada
reassign
leoni
nil
fla
##ranium
thru
##uv
downward
##orn
ove
##hell
molt
kook
##other
fragilit
reminisce
fue
##cho
bolted
mandate
##remember
bigot
rattles
##thesunnyside
##damone
##conduct
tranquil
nitrog
##million
twists
##kari
##planetship
##jaw
pg
##avo
chewy
clamm
trends
##ob
ajoke
clans
##ists
##por
##american
dre
##mez
##aze
##dust
pyl
markov
equaliz
influen
muse
geograph
bosnia
swindle
nostalgi
hurl
collaborat
lansquen
arakacian
dharma
disdain
dulcinea
halliwell
intubate
marlboro
pyjama
rheumat
subpoena
holzer
pendant
seamstress
segment
jekyl
ghoul
mistrust
##ogrod
shoshone
slogan
rural
queef
almanac
unsanit
chambermaid
delirious
tuggles
##atorium
whadda
resilien
##ndler
tinkle
hubba
garini
shenanig
propeller
dalmatian
nazare
intangib
severin
obsessive
capito
porcel
klar
emcee
regroup
compact
abruptly
##limmer
suggestive
garble
##igi
originate
airhead
clipping
volcano
guil
etched
sorcerer
vanden
##olino
plight
jaeh
##rald
##att
yuk
wraps
winkie
hawkin
scra
hinder
axle
prescrib
persecute
##nco
draco
##monar
gunny
passers
hak
oinker
voucher
##ptuous
##anned
radish
assimilate
peed
unreal
bloodline
streamlin
destabiliz
##range
##obali
bethan
flushe
##dox
cameo
##intimidated
bao
##urs
shawn
brandon
##giri
gala
rapper
informer
raz
##seif
wankers
yassi
##eased
rodr
##nik
urg
rhythmic
mura
##uzu
nada
grit
golia
slacker
sao
sympathize
##boys
##gu
akag
morph
243
##uda
replicate
##inai
##nzo
aspire
unre
dispatche
transsexua
wol
sham
##edric
##nori
##hrer
##ario
##grove
spik
##parable
##niro
amari
unpu
lef
fest
##worm
bias
##before
##pelt
##slide
##virus
##prang
##lass
##pes
##ilde
##yang
ble
##bane
masa
##eppe
##air
pippi
aery
##hbo
##oos
lipp
##wolf
wigg
heredit
deduce
hypnoti
nosed
##athena
ect
gei
chalice
marauder
rectum
sadomasochist
zloty
augment
congrats
metastasiz
semifinal
vizier
bawl
euphori
covenant
mislabel
frohl
usurp
hungarian
##kinesi
arsenal
bottleneck
disband
ferment
##ros
datastream
abran
trolley
fray
electromagnetic
snook
recreate
untouchable
moham
fahr
daint
patio
ascertain
##ercole
fiat
instinctive
botch
##great
vander
bjorn
##tricia
mot
subjective
brunette
dimm
marten
scuffl
icon
petal
chink
##appa
waldo
broaden
jumps
hickey
specification
##ante
inflicting
ifthe
overthe
oaf
fredo
beautif
clogg
adjudicat
camar
##hurt
prima
heinous
slutt
penetrat
unlea
flora
##hanta
lagg
relates
peu
submerge
furi
outcast
enriche
##eamwork
##friend
commemorate
indign
##arina
invader
##wan
##rolf
yipp
##inky
boon
moderate
kou
##rabble
gir
bacteria
##sick
fer
stretcher
##rconi
##rocha
russki
disabl
##aging
hades
##front
bumm
socialize
##izzi
smarten
gret
##sanctity
mouthful
##call
var
warbl
patrons
fancies
newton
##rque
divorcee
##ivory
centered
##else
branc
##lka
evade
##lk
##lunk
chaste
marti
grovel
vern
##mos
##cario
##ox
##tute
##santi
ess
##held
230
##rker
##youcan
cob
alc
##statement
##each
##quam
##rigate
##mox
keel
jed
##tired
##juice
calibrat
##limey
cept
##forward
##guez
manag
gurk
pros
##plan
##fact
floats
##type
##lia
##screw
##chall
##ku
interrogat
##scope
##bertine
cellul
birdson
##ligo
124
virtuo
monument
##yutt
travei
cobb
prosecute
conni
beret
##insula
significan
spr
##ake
blo
eulog
catalog
##ssembled
##paleontology
activist
clarinet
fathom
hemophilia
lemur
miscreant
potbellie
retrospect
sophistication
wcw
equator
frankfurt
lacquer
macedonia
admonish
andonandon
crematorium
libido
sputter
philanthropi
extremist
sunbeam
risin
paisley
escob
menopaus
memoir
breathtaking
magnum
reassure
pretzel
vesuvio
dressmaker
subordinate
oriental
delben
promenade
fab
tunic
plump
##talian
##sunt
derby
##anui
1920
devon
experimentation
battleship
pernill
cassav
chlori
joyous
lockup
astounding
boundless
batty
revision
accura
twit
mixer
socket
##rman
heartbroke
gentile
clot
inquire
suburbia
##tine
323
basin
##news
galind
verde
##ntree
##eee
##ents
prosecuted
nak
alot
pane
##dea
oppressi
##tim
emh
hither
mimics
##odor
silicone
bringin
##raught
##ridian
phaser
ideolog
##erole
slaps
buffa
rotat
##assup
pelvis
mince
sav
argentine
predictabl
kuan
cbs
##mart
##every
piu
inse
##position
blinds
epi
bef
felici
##need
improvis
freeman
lubricat
##rus
swatt
kyu
skidd
##atta
##ink
##asked
validate
expell
covet
##lapping
##anders
##etes
##aco
kau
##enov
stale
##match
deathb
samu
##ready
##othing
bellev
deflect
andthen
grea
##discreetly
##asis
##groom
##undo
##scious
staffer
##gele
oid
##los
##hmet
tidying
sheathe
##today
104
##nte
##istics
##cloth
ava
##wire
##rm
git
ste
##morning
##phrase
slamm
##haul
##women
##trot
##read
##crest
petit
malk
yaku
##thought
antiqu
grannie
mats
proclaim
converse
kirb
##iii
rona
##rap
smokin
snob
rami
##ming
##eady
102
floatin
##emia
futur
electro
glaci
##nex
##zena
##helia
offiice
resolv
##dolf
##ronto
thr
northwest
##tendant
fuchs
burkitt
chandelier
dooropen
mediocre
menthol
oeuvre
rainforest
repossess
rhapsod
geppett
kolchak
illiterate
nefert
pfeif
quintessen
implore
encrust
jiggling
piyo
##assist
quartet
figuer
mcpot
pinpoint
barnyard
##penetra
boutique
thunderstorm
nucleotide
conspirator
livid
compassionate
steppin
grievance
clement
playstation
manipulation
kebab
lydell
raul
tetan
smidge
kali
brien
laver
latitude
litre
guise
clunk
hawaiian
clare
riff
detest
traveier
infatuat
deduction
varie
damper
measurement
bop
##oz
floorboard
headstone
screamin
mariner
##fort
resurface
untru
##someone
jimson
evad
hypnotis
kanna
##rgency
scorn
##lch
bave
ingest
touche
##rider
cherr
lice
nutrition
canosa
##key
##frequently
sprint
detonat
sedan
##gdr
##ismal
##ngers
jeric
##ipstick
mourned
uta
##compilation
argentin
##lyman
instill
darin
passin
identifie
kura
sietch
sampl
memorabl
matte
##word
##asses
pari
endorse
server
alva
##hof
##sima
corda
polluti
##erci
##rrel
pizzacol
jocks
ent
berk
ashb
##joining
dune
crowds
choo
atten
decompress
omni
##2221
mun
##ppled
gente
betrayer
tsug
charit
influenc
##aga
skinned
nibl
shik
##shaw
vine
##akawa
crem
128
##355
##problem
##osaur
diggin
##enchant
nelly
##flyer
lmp
##hards
##soo
##hora
conspire
bower
angelica
skiv
negativ
##social
##pido
sooth
##ubert
dismantle
##number
xiaoy
##mila
carp
##ame
##ption
luri
##spers
##ayama
macaro
carotid
clandestine
dandruff
endeavor
imbalance
precept
provincial
vanquish
abolish
squire
unveil
horrify
pinciotti
stooge
transgression
catheter
financier
thumbprint
fluent
condense
bernadine
ricardo
travest
styling
riend
tibia
buckeye
erotica
fonz
flatfoot
fertilizer
kynes
retinal
hasegawa
mafioso
scald
baggins
blacksmith
fiver
undertaking
flammable
tether
entree
##beque
kendal
thorpe
whet
comprise
fuhrer
olympia
heighten
conservation
monumental
shol
authoris
novice
offyour
crumple
despis
overlapping
shambl
bogg
##forgett
headset
1900
143
quaker
recognis
kobe
muller
##lmo
swann
lanc
##arrell
##jill
typh
##har
##vis
kant
liftin
bibi
##razier
flipper
emmy
##pass
lumino
lat
spurt
regis
grope
##eter
cong
hanne
barter
##realis
waterston
edinburg
##epa
koda
tryst
farthe
jumpin
##fare
##chacha
yanni
disengage
sentinel
fitter
##bla
nikit
hitom
signorin
rahm
##idan
morten
troi
widen
kurosa
##rle
##oldt
jall
rem
##western
##urga
renting
##rylov
conch
##teen
posts
wouldyou
gears
zemi
##ibble
unha
emitt
##utu
##gets
badger
pim
##pate
becauseyou
relive
stepdad
escalat
mallor
ramble
##ari
offside
##quisition
pms
misce
##touch
nobles
ejaculatio
##chamber
##japan
##actually
##esh
##hawk
##chuk
##cuba
offi
##experienced
celestin
atyour
leno
terroriz
##fax
coupl
uhm
##nitive
app
unatt
##hardly
kendr
loren
##urism
vaso
##ference
whips
slugg
##oral
ayud
unt
dang
##antee
nymph
##nemo
baden
cambodia
##bhan
chit
##ecutive
anesthesi
aphrodisia
applicant
circumcise
cleavage
flamethrower
gizmo
incantation
lifesaver
magellan
cinematograph
kowtow
##airvoyant
gramophone
vouchsafe
##irdre
##ypra
fleck
existential
vigil
dismember
overheat
governess
bakker
splatter
constru
capsule
pathologist
vasily
##geot
spanner
bolivia
endorsement
kapa
jokin
defuse
gymnast
consuelo
phle
epip
cyborg
baja
lyceu
alabaster
spruce
bronco
##assic
washroom
marino
argyl
bhai
##must
flogg
lengthen
placid
revolver
tomcat
bix
aversion
arous
misdirect
##jari
patter
##ernst
hatter
earnest
##berto
##ostynowi
##hany
##lowest
rodeo
jimbo
falter
salve
jb
lyon
proclaimed
trep
##oooo
kno
##yota
shyam
##iina
importer
brigg
misfire
##lad
##spastic
emit
##nell
generat
##thren
wench
qin
wooly
twerp
asaba
goner
programmer
morte
fraterniz
##nothing
economical
parad
lapse
moy
lyc
##ynes
shri
ifthat
##pollen
brutalit
signifie
pressur
repuls
##andonandonandon
soar
coutur
hagu
##gle
yeh
##rite
##hive
bir
##ltier
hur
##bay
##crosse
oat
partisan
##nout
squelch
##iring
negate
##lau
lull
argent
##dora
##opic
tenor
##alim
quot
jace
stereos
pretender
##ema
dazzle
##ual
outrank
sats
burner
disqualif
attire
##haveto
##yv
misspell
##onger
##any
##eyte
sandi
brr
##owchev
boarder
##tomo
holb
##opp
113
opt
taur
##handl
confiscat
loon
ep
brook
##jah
lakes
450
##rai
fetish
minorit
sheri
##white
haha
##bana
serbia
sak
##culture
##radio
ofyours
staten
participati
##cidentally
##imony
##wight
wilder
compel
doop
bloo
##duction
##bringing
fornicate
longtime
pai
##mountains
##elic
format
gobble
shrew
sparkl
conserve
##qui
##sho
wat
koch
##bach
##otted
pepp
purg
bougainvill
##istan
##dible
##petitive
afghan
beaucoup
bushwhack
huxtable
microscopic
morgendorffer
multiplie
ointment
remembrance
sulphur
trivelin
valkyrie
insubordinat
infrastructure
camcorder
brazen
cortex
##caust
merlot
enact
fidget
woolworth
zucca
deviant
fluctuation
##rcadia
strait
zoro
banjo
hokey
mimosa
homeowner
##av
diabolical
sena
bumble
proficien
hyena
##phlegm
shitzu
scariest
manipulator
morsel
zap
upwelling
##turati
ronny
acne
carpark
solidify
condone
blabber
phenomena
##atien
timin
glee
albe
flamingo
oreo
phan
truss
##smond
lmagin
moat
inscribe
saver
otes
developer
alar
gan
pli
knockout
orchard
312
##uya
tracker
##uffed
hopin
##pilot
##rahim
pictur
pathway
##movie
lager
##eering
zion
moot
valle
kerne
##ooking
annihilate
##always
constitutional
diarrh
##iful
##rach
plat
cai
evaluate
##thos
moran
overpower
##afferty
afar
##fie
##lden
vid
tweedle
xin
bestial
provider
hydr
stimul
adviser
##oa
##foryou
wannabe
##oc
aspir
leban
cytog
##try
theyjust
##ermen
raiser
mandel
##imian
trustee
##shut
melano
calciu
nutter
##voc
miya
endow
snatcher
##matsu
##akatsuk
stefani
fibers
##mura
hodge
##talk
lisb
capo
geo
145
squabble
##surgeon
stickin
##looking
##pid
##eger
##tripping
##bara
kao
countin
##innie
euro
whims
##itner
shish
##nost
gam
toil
reputed
accommodat
arne
##isse
terra
wiv
##praying
204
handout
showin
leav
burg
##rohit
##beta
raider
ingar
##mori
displace
specialise
##ubie
priss
##nama
bling
##rit
##anith
chau
##nternet
pollute
poach
meta
##neck
cou
pedall
infidelit
submerg
marxis
##lable
##rious
hysteric
##liac
quart
revel
##ripped
hic
clos
##conclusive
##yue
##gentlemen
##jerk
141
##enough
103
whateveryou
##arva
##elope
##myself
koh
##erman
stockhol
##fred
fp
##nino
gyu
gav
resuscitate
##nberg
patronize
##tis
appled
123
cc
rastafari
brillian
extravagan
##cklie
kipp
recollect
pash
frigid
alphons
arkansas
chivalr
contusion
energetic
gauntlet
grasshopper
inconceivabl
synagogue
censor
obrigad
klingon
neptun
synthetic
mohammed
crouch
unwilling
ulcer
vinegar
rudolf
pitchfork
archangel
emissar
wafer
nylon
alcove
ledge
germain
alexei
subtract
pauii
sulei
nanop
humid
shun
contradiction
hoax
##holom
loiter
##taro
regimen
eyelash
indochin
attachment
evoke
registr
sweetener
underwriter
straggler
borzo
buzzard
##raggedy
whopper
squeakin
supports
brusse
##iph
##urando
bran
blowout
1800
boobie
ehh
intensifie
salis
reptile
wicker
messina
wakey
diamet
worshipper
##meras
##adda
##cc
electrify
reunit
housewi
ovari
##ouri
swapp
##idea
rau
toots
soliciting
##mates
##interim
inge
##gui
christo
nal
plais
gat
##ib
exonerate
gratin
##because
tedesch
##ried
##hang
neuron
##entrop
neon
maids
##stro
##pen
saga
##oby
shallot
belch
klas
##tiles
cala
clemenc
nim
##rld
paltr
genu
##cup
premed
##dyne
##joint
##ign
vie
189
ditt
alternat
acknowledg
cremat
010
chugg
##afari
reproducti
mason
possesse
saro
##khan
##azzo
cp
##uirre
goalkeep
##itt
##owth
imean
serb
nabb
##radu
##nom
rams
uncertaint
##lona
enema
##teau
215
##green
##south
supp
dahm
headlin
211
##rative
134
##nuts
totall
dbe
kos
decrease
kurdis
aorta
##ashi
##been
##making
##ior
dec
reall
##hy
##zell
##rapping
##adequate
##practice
##commission
##augh
##jac
##peace
##itterbug
##wound
pasty
prag
##melt
encrypt
##raj
controvers
astonish
##riko
darl
regenerat
observan
##lix
costanz
bello
##eous
laure
##aille
##sco
##eng
##lc
anka
##mmon
gula
##napalm
lash
##eras
nietzsche
wooz
circulat
##chun
enorm
##anthrop
disinfect
commissar
drowzee
gesserit
guatemala
handshake
incapacitate
limousine
quadruple
sphincter
wycz
defraud
unmanned
swimmin
shouid
bazaar
dustbin
##strophy
gyro
adverse
chaddock
disclose
impair
##zbet
sumbitch
distill
provocative
imprint
glisten
arctic
spew
custer
##kachu
pyth
masturbation
vivre
rampant
##weez
navel
matron
heathen
mongolian
drows
saber
bonta
turnip
pucker
showcase
denture
firebird
bern
1990
assert
flirtation
farf
##gn
mercur
fatigue
##taking
hors
cesare
sparta
showgirl
fiddler
420
##zek
gregg
##icated
##yner
seis
##price
##osi
##nication
##ill
stifl
##ussain
##uckel
lara
##dnan
paste
savor
composit
crean
displease
reconnect
natu
domini
##ackie
kur
##vid
##unnies
trill
##zzard
##andon
geometr
430
inf
atm
##onne
foolin
sweats
favourites
##nesia
spender
dres
##ched
ventilati
##athy
##ceptive
allgonna
dominik
verdi
informal
vitamin
##clipboard
disintegrate
##ohein
310
provocati
##ermination
buk
lube
revert
##page
theywere
hallucinate
mich
##lux
##those
joyful
##suits
##izum
tangibl
##foli
##ccord
grandchild
infectio
##ute
flinch
##then
faker
##grino
dai
enforce
##thole
##imi
workout
hypnotiz
zed
grumbl
##mumba
##does
memorab
##ethos
##aii
tombs
##yborg
capt
##nter
##uru
##keeper
parod
##player
astro
##goes
rendering
stables
##cin
##imbal
##ubu
siu
##eliu
##kega
##trin
##ack
##runner
325
tula
##ishment
vapor
##eat
##dufus
##ulf
##ments
##pourri
nationalist
##constant
##jeff
scribble
##finder
reappear
visionar
koi
##cade
##dez
##ancey
hawking
repaint
callous
##idi
opener
georgi
##rp
vanishing
##gola
boar
zhi
elop
##wouldn
algeria
bil
alon
circumstan
checkin
veterinar
bonbon
cavalier
cheetah
clergy
constipat
demolition
diagonal
frivolous
genocid
mulroney
stetson
surrogate
tantrum
ultimatum
unmistakabl
clyde
extermination
thwart
gerbil
chomp
escapade
skidmark
umpire
marzi
congenial
glib
unpopular
benedict
crescent
traips
veterinarian
perplex
cumming
wholesaler
sioux
burrow
##dlck
cinch
exalt
kurtz
cartridge
subdue
colada
regulator
##vies
##colossal
barrio
mugger
##eiro
##part
swelter
caramel
refinement
kye
heavyweight
polyp
ginge
haystack
roji
swish
conception
obt
televis
##hatch
manicott
eros
##nstructive
dua
vuko
agoraphobi
##irko
##ossan
##urquoi
950
conqueror
kanga
progression
rotor
flex
vandaliz
##ept
kazu
##lez
fick
##bek
444
##skov
bis
pooper
abdulla
abou
##urco
affiliate
##psy
chaser
lmpossib
embolis
wasteland
sharmil
##luck
##delle
##crap
##non
pta
##rries
kenya
llnever
carb
injure
loos
viney
##park
##ermit
snu
illus
plow
##nine
kol
115
##perun
quibbl
jac
##splan
##far
##cuff
reins
sheath
##omalian
##istine
yarn
##ograph
dun
##ohei
##lons
##aruga
repress
accumulate
##aro
ope
espi
entr
##cina
##uva
lyric
##ety
finalists
kasa
##mile
##ag
boule
slum
irritate
##iz
signe
jud
bonso
disapprove
malik
shaka
##nc
swip
##vagan
impede
##mproving
kil
##ofil
thur
pina
breather
##ase
navigat
accessorize
instruction
##miles
##ati
ljust
sampler
funn
##kar
pullin
punctures
crybab
natha
favorabl
bol
cabr
cra
sul
okey
associat
##ums
repairer
##believe
##oray
##lts
psi
##hhhhh
tract
##iander
intra
scho
##mund
##schner
##genic
##should
palett
optimis
crinkl
starch
390
##mp
spac
##lust
cascad
bub
##educated
##suspect
emulat
cleon
stabilize
##leader
immigrati
##dig
evaluat
shabb
##scheduled
abdul
##ude
##agma
##bett
##traps
##ians
##vit
##halla
##rrier
ohhhh
tigri
##eg
##acquainte
kryptoni
mol
brava
santor
syria
kerb
##sei
chey
exempt
##mesen
splat
snorkel
antarctic
brassiere
candelabra
discomfort
granilit
gravedigger
nietzchean
plaintiff
politbur
relinquish
proletaria
shrunk
telemarket
salvador
corvette
debrief
envision
dissolut
gauze
shipwreck
landowner
abracad
##calf
renovation
secular
libya
mccleod
##fecta
lati
endowment
##allyho
picard
##aculate
aoyama
genre
tsar
marathon
horseshoe
gucci
extol
##ambo
##feed
keyhole
nauti
mattia
caldera
##rtie
pinoch
fender
##hrall
pisc
920
##berde
batting
parisian
##umbar
enclos
##incarnation
##lnat
blight
respiration
##kagi
##enski
douche
##mboy
542
wll
sponsors
olivia
waah
bullshittin
commune
kumj
##party
##bars
##nette
hitchhiker
##dek
backtrack
murdoc
necktie
deadhead
earp
gedd
ramada
eze
yule
##uro
bragg
##monious
butters
##lik
mire
adequate
##ral
##cat
noki
marksman
misinform
hemp
madre
hungar
westm
jellybe
##tism
dunce
raged
bama
##ele
##owski
saito
buoyan
thu
##orgio
zig
##ricks
capon
rink
infern
##ules
bij
builds
##rreira
##llen
##nati
clothe
gavel
babu
cox
horrib
##robes
fiinger
##new
taunt
##astic
elda
catchin
ensu
neo
perlm
##dev
grog
##boot
##hito
crass
aristot
212
ramm
criticiz
##fucking
##oots
grinn
behead
dunc
##vox
vida
##city
##rhea
##ethe
##cres
##talked
percepti
##meo
forrest
##ojima
##ria
gaetan
nips
##iiis
428
##ceiver
eng
902
##culos
##youjust
geographic
##rod
##shka
##stuff
##risen
##roche
chauvinist
spect
##cathed
angeli
lisbo
##kai
conner
##eta
##business
libera
##kosh
##stroke
##which
##screen
##privilege
##jealous
##karta
confii
##uska
##lus
##mock
neurot
##obay
armi
##custom
##death
##icular
##raze
##rotti
##dept
sweatin
##nery
114
muc
lita
liberate
lact
##uglie
unplug
scaveng
savio
##ilbur
dema
##953
pronoun
##ppy
leann
glob
##uits
##checked
tribun
afflict
disciplinar
##nonat
##puzzling
lollipop
metallurgic
neanderthal
pediatric
schneider
scruple
undesirable
unforesee
upheaval
disillusion
surplus
remnant
demolish
fetus
peacock
brisco
premeditat
lancaster
candidac
trapdoor
bogart
zaou
newbie
unofficial
frazzle
elastic
molti
flim
garnet
biologist
postmo
jesuit
inclination
recoil
stakeout
humanoid
synod
pembr
franchise
sawyer
schme
doggone
1950
##tefa
##glish
##aviour
glorify
petting
sculpt
bulge
##osha
##lon
fascination
otherworld
larva
blare
yugoslavia
boug
intel
courageous
como
sneer
shrewd
juggle
mou
draught
mywife
aces
hornet
elysi
##bug
straddle
##ravishing
##itsy
shehna
lif
checkmate
##arci
satin
##cas
dizzi
figur
mistak
circula
reps
mcgra
plugg
lucie
kelv
sandstr
disreput
chile
parle
pava
##arm
##gression
##retto
##assee
##nami
##ippy
downsiz
protrud
contemplat
minion
pigno
haga
dir
beacons
ade
hus
##immo
infuse
bruiser
corco
robo
planner
##plane
##1500
##street
zie
pff
##next
nant
##stead
castrate
maybeyou
##ilant
##secluded
staked
outlive
pranks
jingl
spirall
##nunciat
retaliat
##ptl
causal
grubb
ruck
blemish
cara
##iyaz
scholar
##exposition
terl
138
wis
teak
railing
wayist
antibod
##rises
urin
thriv
sonic
debat
hearyou
ferret
circ
gian
alloy
glorifi
553
trapping
headin
##angy
##seat
drinker
rerun
kru
thoughtless
cree
##hangs
##ester
electr
craze
##true
159
trott
sharpe
suppos
residenc
pessimist
desecrati
gure
destabilize
lfl
##pression
topping
sleeper
unrest
##thal
subscribe
##peset
cas
##bid
##acna
strategi
##flame
rind
af
##crust
bari
##marital
##rot
##skirt
sardine
bris
mong
blissful
sorcer
traged
marr
exo
evaporate
somefin
##ijan
nudge
sill
lur
##continues
picky
##fore
saku
##ulu
abrupt
crimin
##munition
supple
calder
pele
morta
escalati
larkin
##alumni
stinkin
caugh
bough
altruistic
ambiguit
ambrosi
congenital
consecrat
larcen
leprechaun
milwaukee
mussalman
overestimat
piranha
staircase
strumpet
tomahawk
venetian
incentive
vladimir
diablo
exhilarati
fiftie
hypothesis
reconstitute
scrot
incubator
altercation
##ocaid
prasad
derivative
proclamation
entrai
orchid
##tisone
clutter
tentative
dominar
pariah
ailment
strove
edmond
feyd
screenwriter
diffuse
zhang
immerse
mcmah
##sign
harpoon
kowal
forcibl
infestation
jaywalk
cancellation
hoohoo
decorator
tellme
soiree
cervi
centerpiece
wrapper
lafit
cambridge
##inawa
parson
rearrange
ukrain
phonograph
bedpan
gupp
schroed
##creams
bleedin
waiver
whipper
handcraft
##bucks
imm
scragg
angri
##epin
##nerated
##tronic
bren
courtier
lazybo
lain
cockfight
kilt
##risa
##995
bongo
instabilit
tupi
whatareyou
viper
canap
arbitrar
rez
reconstruct
dane
##amaic
hendri
nepo
bios
contaminated
##ansub
mutton
kla
##phal
vh
soot
##ky
fink
gutte
##goodol
visitation
lipo
amphi
##bbie
##late
jero
##fu
profan
aggravati
##stellar
retainer
##prin
gash
marg
##derick
spme
nipp
##lution
recap
wook
##reason
##lvin
vegetarians
chord
lac
##nclusion
grinchy
splits
##hpw
hitchhik
apt
ensue
sizzle
defil
reput
dever
##laf
carlin
##boub
petro
##uys
oriente
breathes
##sounds
lana
##fuse
##four
verba
gravel
frail
embezzl
##might
seam
symptom
vaselin
lite
endors
disintegrat
disapprov
extras
facilitate
##books
##inished
recapture
shazz
garan
secon
cite
rowd
trenche
##nto
npt
saba
##pleasure
eno
##iel
##reach
##abor
xo
##aleh
afore
bertra
##fresh
##present
##chance
##asa
floater
peg
##newal
##ction
943
provos
##ahan
infam
scone
roi
##850
##took
filo
glenda
duse
pape
baffle
gh
##rum
##emic
##ioc
##ohn
##ods
tatsu
aut
##shimi
##squall
##michael
##drunk
##jones
##campus
##kennel
##teacher
defile
##xos
av
##pock
elm
distort
##emper
##living
unnecessar
##ghna
188
postur
##iqua
##tmost
showyou
##playing
peeled
margin
conjur
folder
##eches
##lf
##ei
sceptic
scrutin
##gable
somalia
##ristol
yachts
fabulo
garde
combust
miscarri
aggressor
clobber
exemplar
gandhi
guerilla
meticulous
muppet
thingamabob
##bsequ
bompensiero
bumblebee
nearsighted
filipino
nanobot
neophyte
propellant
schematic
tortoise
hurdle
discredit
vertig
deterrent
medallion
mackillop
dismount
stereotype
kahay
musketeer
hammock
sordid
paraph
stigmata
mahdi
quaint
caucus
keypad
pentagram
newsletter
pewter
ooooh
tombstone
armament
firebomb
arbor
deladi
##ncontro
coax
joust
##kiiier
inventive
veneer
mozza
crike
booga
salina
reenact
unrela
linden
papist
dumbshit
kjeld
communicator
discolo
handprint
feverish
unac
potts
##islavsk
progressive
rosk
bloomin
##fitting
gurgle
darwin
problematic
fern
unhook
##whatyou
##ither
##jenn
wring
illustrate
hahaha
introvert
##dle
campo
ceremonial
robotic
380
clinically
eisen
standoff
chanel
repeal
scali
entreat
##plex
##inoue
##music
impregnate
portable
carmel
victorian
dispers
zigg
dwar
##cleanup
hotline
patroniz
merge
##nsen
griffi
birch
barones
meetin
appen
##azine
penne
##izer
gait
johnnie
anvil
##incin
eile
##gra
418
decod
integrate
cremate
uhhh
harvester
cuda
lieb
##gno
##breaker
##lost
##eves
dumbass
##uggie
slurr
fluorescen
092
conceivabl
##vival
##dressed
arti
##grette
##sch
ishwar
hap
zapp
##buster
unstea
potful
wnn
chats
codependen
lambs
##aah
compa
##ruz
dank
visio
##truth
criticis
flips
##nba
##nadia
mccon
kah
##vised
misa
papi
cuse
ruble
binder
trini
pav
hopeyou
resonan
##iled
slink
shoplift
sentry
intrude
##imaginable
##roving
##sac
##gee
loba
brandi
##yden
slouch
wisma
sc
aga
recharge
militari
gramp
marginal
##ermi
negat
##blood
botan
mitt
##food
##cusa
##fast
audi
dents
##iamo
wino
##opened
322
##ssier
##dumbest
sari
##tabi
158
##rimba
fractur
bul
sche
idealist
ferr
lag
bleacher
##rette
negotia
afterthe
rulers
##artre
chuan
bard
dictators
##orek
##awk
whisk
##errier
##better
##move
griff
##grave
gras
##fly
trou
##leh
cruisin
##vertible
##conventional
##warrior
##trouble
##mentioned
##pressure
##luca
noew
##van
##without
##kk
##glow
recount
##wanna
##whom
hosted
starvin
conc
ostr
##marked
northeastern
anast
##shizu
##della
pummel
entomb
##six
esse
astrolog
illustr
##uffer
defenses
##monger
illuminate
kama
##junk
##alibu
##swing
##ime
drear
pottsylvania
##aire
##lsto
appar
anarch
environ
defibrillat
aerosol
bloodstain
camouflage
esoteric
extenuati
grkovic
inadequac
juventu
laundromat
merteuil
mulatto
prosthetic
quintuplet
sarcophag
translucen
bowdoin
microchip
sulfur
shortsighted
marjor
idolatr
girder
newlywed
##unbreakable
cohort
pascal
quirk
moonbeam
rothchild
pharm
##genomic
comparative
jesper
skyrocket
tantali
featherbed
stowaway
android
##llusion
droop
##ouac
relapse
croquette
cannabi
anachronist
birken
pozo
ingrate
peroxide
scrapbook
reconstruction
riverbank
stonewall
brawn
timid
##bourde
replication
undergrad
240
murat
raindrop
dmitr
greaseball
cothren
earphone
##tenb
mitchel
devious
hairpin
abundant
chillin
##arithm
goblin
mommie
anoint
##godown
stork
populat
##dame
##nata
wbo
physiological
watchdog
cheg
enforcer
hectare
##ikum
emphasize
swank
cristo
##penalize
nestled
gawk
overfeed
nessa
scumm
pew
pissant
##ncumbe
##uuu
tricker
##bl
ivanov
simulate
karim
prance
freckle
##extraterrestrial
betterthan
harlin
paradi
idealize
latent
turp
sebas
##feeling
##vine
bustin
upward
handgun
##short
chronicle
faithless
fess
peat
minefield
weightless
##eiser
amicabl
##hra
##fty
##omatic
palate
feller
outlast
selective
explorat
820
dehydrat
##united
dispenser
##pelled
soaring
latino
crackle
djust
tendon
magna
##kick
salom
rewire
##hol
108
##rmouth
chou
pondering
wham
##hooch
wildcat
unshave
videotap
scabb
##adin
##faux
bores
output
##fingerbang
##ition
tau
pushin
faii
aac
stirring
lush
##may
##tador
geolog
##rian
bali
##gin
pensa
comat
pero
domin
##balor
invoice
gainful
sarda
auge
##hobro
sweeper
##cero
##wake
rosali
canvass
beni
taen
##elli
##called
petr
##niles
lectur
##allow
139
whileyou
##ust
mul
##iwa
pesc
humphr
##delic
dislodge
##ullah
foggi
filmmak
##una
##oggi
##ugging
##olita
##urgh
dispense
##dra
sci
##cia
wid
joa
granad
##wait
measl
manning
##addock
##obin
rehabilitat
governing
##riding
regenerate
##xie
##faith
##abiding
##dress
belie
cus
veget
##isto
accumulat
prio
onward
atj
unforgivabl
grop
nacio
viny
swa
##ooch
revere
##search
reversi
##gawa
##hoe
##bunch
##sound
estel
mooch
saru
feist
gena
metropol
pau
itwill
##gon
deficien
scripts
##rell
##tions
embl
##speak
erupt
stra
##kohl
##usa
##familia
##everything
##nis
##desic
##excited
##struck
##yesterday
##spirit
##machine
cantones
##blower
##nock
##cation
rata
dolc
congratulat
540
whir
##untan
##ress
contrive
xer
respec
conjuga
##hili
##candy
tho
##sazi
452
optimist
sadang
insolenc
depict
##scrow
fric
##welco
edora
prelim
##estapo
avocado
irreversibl
mitsubishi
pedestal
quasar
tampon
mccarthy
plural
indestruct
misbehavior
scurry
vaccinat
cuckold
macchiat
overcrowd
pavlov
chloroform
swagger
borodin
delphini
encamp
wagstaff
polaroid
thoroughbred
meteorologist
metamorphos
yodelay
discourse
tambi
carnation
elusive
splendor
aloysi
unearth
circum
flapjack
crowbar
savour
expu
imprudent
raccoon
desist
enginestart
##irut
improvisation
teardrop
gratz
imposter
sculptor
legislati
listenin
##eduction
donahue
predicate
##sea
kibble
snowstorm
##polsk
uprising
observance
excom
pothead
cheekbone
roster
manatee
tbere
chute
gallop
innuendo
thrift
fellowship
uproar
##eiffel
komi
bracket
serenade
zebra
vowel
correspondent
vigilante
##hini
wildly
olympian
welder
clod
blasphemer
pollut
##jeeb
tuneless
##fo
narim
cad
biops
entail
329
##bill
##unct
##scendant
aimless
##elke
holier
grov
oreste
##pent
smashe
trev
##loth
cre
mais
berth
persimmon
confederat
##catee
##gg
##wah
gondo
##fection
bedevil
sprinkler
trucker
chet
anthem
##once
blott
asaku
shears
breathin
furthe
##percent
##hm
bru
##urst
##card
buenas
##nworth
133
naught
yak
##ray
nei
##ckham
##ule
pheno
crony
##nity
##thful
mur
peto
##ith
alma
##award
fizz
salv
gruel
##ione
negligenc
competence
pups
romanc
shah
transformer
abs
scuttl
goering
##ough
bianc
##nne
olivi
##ort
neg
homophobi
##nier
##cherie
delan
hoof
##liff
uc
##ddya
##agging
##hank
uchi
geh
##ijo
##ask
##eenie
##uppa
cav
##zane
kow
capitain
munk
hothead
##clear
entice
orner
##urant
##reading
cryo
##forget
##519
kilometer
ambien
boop
fondle
seams
maril
##anza
184
##aaa
cosmolog
minstrel
travi
##uble
bala
##patrick
##lette
##lanca
hustl
##iya
daff
##bik
##ludge
rin
##told
##ziu
ventilat
##afel
##zen
polls
quand
reduc
nocturn
##tit
spl
##chool
penh
tauri
##lana
gia
##cage
##excus
##fight
##wski
##roque
eff
redundan
##paca
ofjean
pent
curat
hacks
nutri
##tchi
##grass
quel
kleen
##cous
##abi
mov
meridi
reread
285
mitsu
##tus
##dryl
##cupin
malay
##castle
##ocrac
##tsie
##butt
##acknowledged
fiire
##change
##ilman
burr
lknow
##color
##ifi
prosecut
tiller
##trust
##trial
##ccio
##behind
##melano
##somebody
append
##hour
tlni
##tropic
##understand
recur
##odom
metra
##obbed
##dious
##apest
##jobs
huma
rung
##ukar
mutilate
prost
##ptic
trac
palp
kif
##cla
volk
##smile
##ghi
reluctan
##regg
abundan
jal
##ear
nucle
antagonist
antiseptic
cobweb
demidov
eskimo
frederiks
hyperventilat
pharisee
shmuck
sihanouk
smorgasbor
tourniquet
##slaghoople
apparition
cucumber
endorphin
ambrose
lemme
carpetbagg
depressuriz
slovenia
negligent
cannoli
capricorn
pivot
anaesthetic
rodgers
minoute
wisecrack
kovac
sibyl
biotech
chiffo
brasilia
embellishment
##rtija
anorexi
metabolism
kashm
slobber
gatekeeper
devout
brainiac
tangier
kneecap
unfriendl
anchov
shuck
##bjerg
kinder
bellhop
hammerhead
dimwit
quiver
chrono
katra
eaves
zelb
ambi
cinz
goldstein
seduc
foreclos
eberhard
##riar
chestnut
##tsac
puppeteer
twitter
propriet
telltale
caco
spitball
lynd
indescribabl
festering
scarring
colonist
cleat
##istas
languish
iceberg
##outs
frick
##sheridan
##igami
reprogram
xu
reprogramm
084
oas
finagled
lucian
ardent
escalate
kog
inhibitor
##ilis
##mc
synthesis
som
ural
unwin
##ordinates
ypur
reproduction
##hibition
##ndisclos
ahoo
##500
casil
sanj
332
plier
turi
sparkler
##gel
tachi
mantel
##101
fabriz
##hanoi
glu
assai
##choke
ump
nate
##poor
bale
bleat
ramb
##inthia
carte
soph
##holder
##rgens
haveyour
vou
witb
cari
carpent
##dam
##iike
fete
##nch
##derail
##wari
uto
barbad
moons
##product
##espace
##tload
##liberating
##ppi
meld
520
##attaya
drou
incorporate
gaspar
ghol
acro
enforc
##both
cont
ramone
##emerit
khal
ludv
##itia
withoutyou
exclud
vp
hernia
##gang
hellish
##roadrage
##lange
hitchhike
##lv
##fan
phono
gabb
##350
##fia
sherl
##idon
preco
ruse
##rtle
##angst
narcissis
muff
calc
##atum
kew
diss
sneez
##udo
realis
catare
##kel
hiroshi
articulati
rosar
##iiy
mobiliz
142
draper
##eve
##knows
lim
swans
buchar
##erence
coxs
##gard
##celli
uphold
kan
marsal
144
##ening
##youare
popper
vite
radiate
shank
##lum
##202
scari
derm
fanta
##herty
fille
hava
merril
implode
##gne
waltze
ras
##rna
asphyxia
morn
##spin
##daddy
##only
##sun
##erg
##hilo
afteryou
defac
uncontroll
##wali
cin
##nterior
381
##compromis
rampage
paqui
##bread
##pump
##feet
##shape
##zhen
crawler
crep
##jackson
##rage
##rish
reciproca
palat
##teller
##ruko
haru
worsen
##kron
##banker
##freshmen
##ected
escapee
##xed
##hakie
##pitou
demote
backstabb
hacki
terraform
##rches
##tano
##ordial
dangl
##aphrodite
abramov
alchemist
apricot
autobiograph
cataclysm
cataract
chippendale
compatriot
dilettant
echelon
intuitive
liturg
maccabe
malcontent
mcphee
montreuil
reacquire
transparenc
woodpecker
bequeath
indentation
muskrat
ogilv
battist
bifurcat
militant
scaffold
schindler
reawaken
buttermilk
detergent
pretension
ciggie
##cini
schiff
collage
brahm
festive
knud
bidder
zheng
scip
sweetmeat
ksc
java
disparit
zealot
##myop
yokel
superpower
uber
spi
sugimo
disruption
pincer
connell
##blo
lustre
socialite
yuzu
resistant
linguin
##auit
nub
dawdl
syrian
fjord
sergi
gormer
arrod
soundproof
martine
##ahala
rigor
##abbit
kiron
shaker
utopia
pasha
##fah
trollop
jocko
manse
gobbledy
checkpoint
papill
subside
##umino
gismo
hillbill
neutralise
shaman
##tamina
infantil
drought
990
qb
padding
gast
mugs
bullshitter
cloy
streetlight
outgrow
bide
##hot
sniffer
sutra
mancha
##sufficient
piazz
bagpipe
blowmy
characterise
##dling
##tomy
breech
##nant
squatt
yeow
squatter
##rsemen
authorise
hays
valli
commuter
##lls
unexplo
lovebird
decim
unimpress
plaid
porto
domingo
##gata
snipp
fascis
selfless
gargl
prosthes
bast
shorthand
fru
bronc
rationalize
cuppin
landscaper
##evening
uninvit
pondered
lancer
##whole
##eeeeee
##singin
casing
carabin
##high
stepney
accentuate
offto
arabia
perm
zet
layin
fixation
boui
##beneze
##knew
orthodox
##pressed
##akes
##cate
causeyou
westerner
##ibbit
##suit
jor
wilde
##herst
dunl
##ild
uca
minky
##nyp
homeboy
bucking
##izin
certif
##ants
snip
149
haif
grandad
enjoyin
iguess
##fitt
##awon
minstrels
##tka
kalin
impossi
beatin
##inct
safi
##thestreet
##anaka
lyn
##lios
##lou
planting
shorten
##lery
contemplate
##system
##anha
emp
##ifying
##awaki
##lda
hams
babb
##recht
##abash
dali
##dry
relativ
feli
crumm
steppe
##biz
##rsal
keepyour
warble
##tea
lare
glaz
lilli
##kos
averag
##rf
obliterate
##ffy
audit
spar
##dorf
aggr
##nai
##tail
hilar
##posed
maior
corp
##grieve
ruh
##izna
degrade
##telling
##rup
epo
##vost
occurr
##bing
jum
collid
##llard
##omo
thievin
##orry
##pec
anesta
compil
demi
##fies
##amak
familiariz
llget
brooke
##laying
zag
schi
frelled
fantasiz
kum
##dream
##rumb
##suction
##affiliate
##summer
##repeat
##chemical
##warp
hun
##opolis
##terate
llena
##small
rhod
shimm
##podg
##picture
##honor
wouldbe
##rest
subjected
arbitrat
##gist
##chiang
##five
nurture
jeer
##dough
fyi
devise
##amaze
synchronize
##asha
gible
##fora
bode
##clav
townsh
tonka
##song
##tina
##pray
##405
renovat
##mputation
chippi
asparagus
borokovski
caterpillar
celiba
condiment
constituent
crescendo
geriatric
heffernan
lesabre
orthopedic
propheci
safavid
traffiic
wheelbarrow
antagoniz
condescend
imbedd
pedicure
caliente
papilio
dastard
inthebigrock
ohiyo
pathogen
sensibilit
subcontract
augur
juggling
horizontal
insinuating
bedrosia
choudh
fritter
fairytale
ragnar
##smirch
google
refugi
whirlwind
berkshire
emmanuel
unfoul
unspeakabl
liquef
oracan
disown
moonshine
##chawa
ventriloquist
lakh
blockbuster
##nanov
pathological
steamroll
eriksen
landfill
quoc
trudg
sunspot
rogain
casab
picca
entren
phi
animator
junco
hershey
apostol
millander
enzyme
munchkin
teapot
omnipresen
flooz
logistical
##beth
placenta
ocho
bluebird
##llum
kimono
booger
algerian
##otov
namecard
##lah
cordial
vicarious
nutjob
apprais
pedophile
bulgarian
##nner
##cardo
dunf
convo
##nseam
skylight
camford
walkabout
spinster
poofter
unbound
weakling
sunnyside
maui
corneli
cush
rumba
##lnon
cellmate
odes
plannin
carpal
apache
councilor
##anek
##trane
##lashed
manfred
effi
pornographer
hassel
leans
cret
lentz
parasitic
soulmate
##iding
doctrine
##zog
irradiat
bleu
liet
##eration
##zzo
pygma
##eological
injuncti
##action
##ago
procreat
##turn
bagge
gaud
racquetba
##monos
scamp
photographic
##vik
##idle
eraser
##hower
##arkan
hunts
##eero
zapat
##sara
##upper
wrongful
grazia
##uppert
packin
decre
weepin
commun
swig
ov
##corps
pelt
##forthe
##ngs
kashan
denounc
##rred
##zot
thinog
plume
##af
jigg
##trap
##ometric
##tar
chell
reynald
##eria
krush
##ube
yke
spond
carta
##mad
##listic
##shma
##edward
getsome
##gilded
jah
##umption
##redman
lynching
##owed
##amo
##inable
##ebe
hypnotize
ghast
##blue
moistur
##potty
kazum
##taglia
##dine
ameri
undi
##ani
abso
vog
##pick
rapp
faggoty
terroris
juris
johanss
ishi
housework
fricke
##atomic
taff
ioved
amnio
snuggle
##finito
issa
wobbl
scall
##ctor
conti
##olke
hume
##oles
retest
hermit
mares
##discriminating
##riku
##oshii
411
kyo
espera
hobble
##quelch
totem
##uito
cog
##olga
550
illogic
messie
##keys
baste
fen
mert
##lak
kita
trig
nightsick
##hula
##limp
lian
##etary
##bazz
vines
aunty
##pne
##izia
specifi
acco
##giver
noever
issu
##proclivities
##usan
approv
deci
orjust
##hinky
dill
##tila
##aman
##nocker
adhere
bazoo
eliminati
##dash
rectif
##atti
noooo
commut
##productiv
chamo
cultivat
seeming
##adder
##lyla
##spread
##muff
##decision
##develop
##jersey
##effect
##lip
##acle
##shirt
aaarg
##undry
disturbs
##inen
scroung
##walker
##orrie
unatta
hinds
##goin
telecast
##kake
##answered
tribb
illuminat
##hide
tarp
##nip
advent
rhythmical
veg
stewards
maxim
##etold
##wimmer
geg
##account
pavi
deuter
quim
submissi
impuden
inertia
##akaza
transcend
affidavit
bourdin
centimetre
claustrophobi
corleone
corpuscle
ethiopia
gecko
horrendous
huguenot
insomnia
krelboyne
lavish
mikkel
sacrileg
skyscraper
bingleman
geisha
hierarch
exuberan
hypothermi
sequo
anteater
hydroelectric
monologue
consolidat
knpw
kabir
tbink
anemone
opiate
affluen
##didlast
bubba
vapour
raffael
##slovenly
thresh
cherub
quasi
synap
##anatha
bernstein
feign
hemorrhoid
##segregate
ricochet
compulsion
4000
luft
winslow
nyu
xiv
spatter
snug
dabble
##khov
meteorite
nixar
chowder
avance
dialog
handrail
flowerpot
sunstroke
spiel
ignoramus
systematic
boxcar
ballester
calamit
arousal
cauteriz
birh
##ugat
featur
##ordor
cask
guant
holster
garof
bleak
margit
sunflower
bankroll
frederic
hairnet
bentley
synch
emission
swindler
corre
eeny
hookup
##odell
##osene
rout
##tule
atleast
bushel
congregate
blackberry
successive
unzipp
foto
realization
##hadur
oceanograph
##shk
hali
panoram
##ythet
suckling
##wants
sadist
pushup
observator
##tator
abusi
##rion
##nek
cheong
esque
clubb
##iffu
##mount
##nam
turnover
##ddp
##vering
dominio
crapper
billboard
##immer
##hungr
blockhead
##423
transcribe
##arian
##pecia
fallout
gummi
fiish
##legs
##lets
cripe
##knife
##rva
bazoom
veggie
##compression
##skolni
##dar
##ntro
##licent
##yourass
snooz
platonic
##ows
chilli
migrat
##inov
johnston
##oslo
cras
##upon
kaza
##roughs
##cong
##illes
##cell
##ndrus
viewer
lron
rok
##dau
##njin
pegg
organizer
mouch
meddle
##ogly
##bet
##simus
982
unify
lineage
##iety
##ges
##jets
snivel
##teur
diverted
thorac
##fail
##ares
##host
parac
##itler
##inka
##corp
macna
##unning
245
##iddi
skim
fibula
algorithm
psy
retake
vai
recalibrate
puy
invisib
##pac
##anky
##ofway
##evian
##amba
toughen
##aude
seitz
danke
##iress
dreamin
##imon
beater
quint
libre
##ext
bm
##pw
zenn
419
fontane
##second
##aus
185
grading
148
nir
##cham
meetyou
sei
##olse
##iger
rotate
putyou
leen
aaaaaa
##spot
##pro
macau
##iku
bollock
##ole
##clusion
patholog
wheeler
kimi
##lding
guardians
contaminati
##1981
atoms
gonnaget
##ausen
##raah
##information
plo
##rrita
itchin
##asaur
##accid
delphi
##laam
pepi
ringer
coi
whets
lobes
kayak
lar
strok
##enton
dissipate
dictat
##fund
pasqu
880
##semin
##mr
##stoll
piddl
gemin
##question
torque
michi
##arned
intrac
##pour
execut
sinus
##toon
##allel
liquidate
eco
##erts
##galactic
##christian
##shibby
##video
##approach
##skeeper
##jordan
shuff
##lough
impregna
##examine
##bulb
gior
##bite
encompass
##effective
novocain
dlike
crump
nagasa
pel
enjo
##kata
##fy
arian
##vious
##twin
bakin
menn
incur
##len
chee
##ooty
##samu
##urty
##fin
quak
404
dilate
foreclosin
indonesia
##mposi
feminis
##hael
coffi
##njou
##aphorical
##ngbok
##itzens
desolat
imperfect
autonom
vacuumcleaner
citrine
daiquiri
egregious
frisbee
gargoyle
hieroglyph
incognit
krapivin
numerical
submersible
teaspoon
ravn
unspecifi
distaste
hindenburg
undeniabl
##gebr
intermedia
toujour
coalition
seductive
perturb
plausibl
cohesi
artifice
unrealistic
prizefighter
##tapioca
outweigh
impartial
corrod
biometric
scrump
##neuve
nasti
traumatize
irving
##serati
rowboat
cyclone
##amino
nugget
blech
##iolet
pecan
bonnet
speedboat
##painted
gansh
loder
pudg
ordinati
wilber
scept
turncoat
plunk
textile
benito
##estar
kitada
cubic
kuwait
piston
steff
##ollere
critten
dominican
eversince
reproach
##waffe
##pee
alleyway
nasda
tremor
adamant
jii
homeopath
##cloon
phalang
##dsomer
##atic
##rah
##briel
##literacy
saur
##abra
wlll
##logue
summari
##youever
figurehead
1940
enni
##ezque
##onfet
seaga
astrid
##neuf
neph
##mazu
##ilja
abomina
ecolog
##astille
bluh
ext
##words
migration
dawe
drawback
metaphysic
symmetrical
andbring
apprehension
haiti
##check
subvert
beggin
stave
##vu
indulg
wriggl
##treau
illuminati
##rpeople
gib
##ova
##hear
armag
overyour
241
hamper
##girls
qualta
##cross
##diot
goatee
carnal
puris
##lines
elation
compression
dilan
retina
##breath
chaka
poached
microbe
airbag
151
quar
##som
guille
nox
consi
##ttering
toni
goggle
laga
manta
hezma
##note
dike
linear
debilit
vladi
pragmati
##lva
alve
##yuji
playback
##cle
sociologic
##shev
##pc
jogger
longue
##iam
rotating
quitter
##monas
lfyou
##learn
##atz
jagge
##anyone
ophe
##iviti
##lhada
##tight
snowed
aston
##hhh
##445
cle
woodwork
recede
##kid
##chda
knockin
##akov
paca
sands
fli
##lant
nea
##dlock
nci
colonize
conscript
timo
##thefuck
##quita
gotti
jes
silvan
cid
hogg
sharpening
##cand
##naming
notgonna
pah
principals
##shock
llhave
183
##report
wobble
boyer
resid
##haku
regonna
##emoral
##mf
##hut
asta
hpu
relent
##ndi
radian
##friends
souffle
narca
mgonna
twee
##pulsive
rethink
##ately
grandes
##hardt
insha
##bones
sag
##brick
##oii
chriss
##ody
##wantto
##atian
##autre
##ouette
##mimi
barns
234
energize
demoraliz
mink
##pre
flint
gaine
##nged
nii
##kko
##bee
##ece
hiller
##exonerated
lapp
chel
lucid
semit
lolo
##litis
grumble
misogynist
sandman
##breed
##kja
ehr
croissan
morell
##surface
##gotto
estimat
##oamerican
fam
##brain
##loc
##agram
##morr
toru
##akar
shitface
##stole
thinkthat
##pittance
##hakur
##ampton
##tsu
ferrie
magi
##tric
inseminat
##enoch
moj
##eyla
##mobile
##aunt
##arism
##ptly
pist
penned
##inous
ofgod
cams
##vez
bosi
223
elk
sweeten
mingl
##exert
##scrub
##ambulance
##zord
##flash
##divorce
##geta
##jesse
##tome
pais
##shade
##icould
##nikov
##undress
##venne
##dangerous
runways
##nature
##entacle
##sulac
##akura
gerva
##imus
##trel
magnifie
##hish
burk
dv
kusa
##dged
##ulsa
##macho
##sheets
subsidi
##mizu
honkin
mytho
twinkl
eavesdropp
melb
hospit
landscap
flog
##rip
##tcho
##akuso
ficti
##sexual
synthesize
thoms
malic
fluctuat
##ost
##omagnetic
##scrut
antidepressant
chumbawamba
citrus
daffodil
desperado
deutsch
disembark
emanuel
guadal
homophobe
hormonal
hotchkiss
inexplicabl
llbesomewhere
neutrino
nutcracker
plakavoid
practitioner
simpati
stanislof
turbine
uninhabit
wreath
acclaim
defrost
dishonour
kiwi
samaritan
schacht
transmogrifi
upholster
misinterpret
monterrey
pertain
greyhound
misdemeanour
subliminal
acupunctur
blatant
corsica
venuti
kurahashi
epileptic
wharf
##newfangled
leuka
sweatshirt
configuration
creech
##vixen
rigbt
unsettl
pilate
##antino
satirist
saloon
vindicate
immolat
counterpart
felice
mathematician
gallego
wlnat
##utique
comput
crosswalk
stedman
clipper
schelling
borsch
satisfactor
pastime
danver
juror
stabbin
leila
##uket
oppressor
##cker
sander
syllab
speedo
molinar
eminent
zop
epitom
unavoidabl
hobbit
bellboy
1930
depot
betwixt
morisa
joyride
manifestation
chuu
chong
churchyard
haught
##rdic
rubble
yearnin
hypocri
##iji
##odora
etat
jaunt
unlocking
beckon
characterize
sobri
##scilla
blackhead
outburst
supersede
##cken
##terior
commandeer
lolly
telecaster
##uille
moonli
garter
##acia
habitu
lieu
rewriting
chronicler
serena
colby
floo
toro
##ricard
##urca
silke
##along
bison
##shop
advancement
pipp
misbehav
##amos
##lence
revise
nippo
intercepting
mesi
lude
patri
##ything
diz
situat
hairdo
gumm
##fing
##safe
fillet
tasteless
keii
flicker
darius
##inny
coincidental
mette
heretic
certifiabl
##nymit
##nghis
breakmy
##eltz
##undar
disfigur
spiteful
loco
upstart
##oules
##inson
##damn
barf
301
##oodles
fraze
##qu
tram
nicho
##yero
##alvil
ripen
##wara
##gota
font
##tln
twoyears
corral
##amago
spotti
##idol
zz
##ometer
arkad
obes
insigni
sodom
incorporat
crawls
939
##drum
kare
##jar
##weeb
spritz
##umber
##imbala
##sund
pronounc
nibbl
recipients
##nabil
panca
ev
##bls
resum
##lev
masturbator
##oplan
peni
##bahn
##abhorrent
##evel
##utero
bile
cecile
flourishe
##mea
patr
lask
afterwe
cour
##hone
##dden
##eline
salso
readout
forgetful
rho
##mitten
shul
signify
marcor
himml
##yousay
kerr
##iesta
torah
coff
##urico
lew
tint
##iologist
crat
##dol
##anger
##sses
lcould
##vati
archi
##nko
tanger
oli
##vic
jiha
##esch
##kg
##razar
jami
##tebbi
viga
ummm
##ndum
##429
##deck
##oni
embodi
##dedou
##mom
reem
##cupped
blemishe
bacal
##says
##az
kits
##woode
oji
##dric
##abernet
vora
unquestion
##lem
##dimensional
##fil
stately
confin
orde
quanti
jumpsuit
lor
doze
##flon
rebell
##alley
informati
##yran
anni
mps
##lias
zw
##mpton
##ban
pesk
peacekeep
##mot
##ouli
##rgy
##uddle
dyspe
hops
##wine
##enhei
oars
maruyam
##igh
stabilise
perceiv
hud
##gma
muras
guer
##naka
##aming
hark
orchestrate
##kpo
corroborate
##uer
155
spikes
jitter
##human
flats
nava
##arns
##seeing
##alle
occa
##berger
##lavor
marath
##ituate
lawful
bugle
alienate
##ethan
municipalit
forego
chattin
##icles
zab
##jimbo
##activation
##consistent
##blind
##quote
##support
##torch
##between
##squeak
##family
##rawn
##jolt
believin
##chair
##gli
##allthe
##hall
##blow
##class
##looney
impal
litt
##eaky
shejust
triflin
##feuil
profiter
##happy
tackl
franken
vyn
##cotton
disembowel
##nison
fondl
##gian
pj
##fighting
##dellin
tailgat
##rro
##bearing
##oor
##drone
cornwa
amphibi
##lacro
##scepti
##colla
scraw
legitima
##clamation
##ncarna
ludwig
butterfinger
discotheque
dostoyevsk
emigrate
ganpat
inquisitor
instigate
jouzkov
lubricant
magnolia
megalodon
patootie
piroshki
protagonist
rudiment
unsuccessful
scenoe
unfathom
agutter
cybernetic
dhanrajg
kabuki
nonexisten
rostov
eradicate
phyx
suppositor
wavelength
staunch
occupant
concise
chakra
motif
toboso
##alucia
dormitor
##preciate
terrell
deejay
proust
##llegra
convulsion
damsel
pompous
pickpocket
shoelace
preschool
vivant
smush
doodad
mobster
##sencran
escalator
vanguard
mousetrap
kibo
crustacean
dilation
gisel
bluebell
brisk
molar
##glyceri
caustic
##iglnt
##vp
huck
matild
perkin
prairie
nakh
##orato
euronda
poops
passageway
agni
ammun
croton
##moron
hummer
gumball
swerve
pottsylvanian
tomake
realign
bossa
pavil
custodian
bicker
sympathizer
##lephone
##chrome
integral
plutoni
heinie
storeroom
sahara
##ttore
kahl
ciel
partake
buttalkto
##stus
taxation
masque
ceaseless
##taka
##kilos
mandala
lneed
volumize
hidin
untangle
435
emasculat
##iola
electroly
##lique
##ross
515
uhuh
outsmart
##mesan
##running
590
##sack
##cones
##nogo
ziti
rollers
grandmum
clayman
voel
exhume
##empre
grins
toothless
cheerio
talon
##aaaaaaa
koku
punt
##rdog
wron
fernande
##june
barba
drunkard
aux
dropout
municipal
droplet
lyco
grinned
saut
plag
mir
##ifyou
onoly
lettin
irak
ciu
decimate
##ayern
topple
##surviving
hurr
##percut
humanist
darian
##obe
trix
##ciall
perma
##izuk
##handi
baffl
rhea
##lips
myfriend
leeds
replicat
fledg
vaun
alienat
vaporize
sepulchr
hibb
parachuted
##uor
lavator
drivel
hiker
fillin
brack
##azle
##988
verita
abhor
husse
##lanza
insid
uum
##unction
##dense
lockin
##linguistic
chr
contribut
vaporiz
renown
##usive
hazing
##rog
clu
spotter
##vir
##lam
cio
##raine
##ease
svend
steamer
strep
##ptitude
##trid
yamad
halos
tonin
##anay
lowri
iiiiiiiiiiiiiii
chanter
##ucco
nishi
plop
keepon
prow
##grad
accelerati
unwa
##eel
nano
ooz
faulty
imper
##ssu
##youknow
ribbi
gille
##rping
rif
kaminsk
cyst
usc
##ubic
##tition
##ittenberg
##jam
exhal
chay
paol
rask
##umbled
##illia
motherboard
ofanother
##planetar
##tall
lint
##rove
lov
whooo
medicat
liza
stewe
noeed
##urian
gise
##noce
dislocat
jamai
walkie
##yell
##citi
##eil
##rks
##jet
sawan
yamag
summar
##tentatio
kob
##mulca
squal
ugo
##hor
holyland
dais
evapor
annal
zuba
bodi
##akul
neglig
acclimate
pocketful
##sonic
cornu
pinkie
203
gritt
##caff
##jima
##oxie
##relli
##hog
verbo
hob
tryu
##mis
##follow
hayas
contrap
synchron
rearrang
vol
spinner
##uthor
##nga
##ondu
gulli
magda
##fit
##bos
luh
##nks
##lubber
flan
##melli
##poised
##manis
disloyal
##best
kris
##fc
##utto
chuk
nib
maric
ude
voltai
##ked
##accessib
birk
cri
yid
##uera
temperament
458
embol
cull
enhanc
##erus
reactivate
frogg
financ
compo
requi
nite
##shin
##oku
##eavy
401
##ographer
##adol
##993
annihilat
draggin
##slash
##promise
narra
##ittle
combines
chub
##pruden
##since
##udos
##plug
##harlem
##whizz
##built
##forever
##champ
##wrong
##hull
##beak
##stack
##bomber
stinker
raisi
##super
##block
##james
##lovin
##oza
clo
##wax
puh
naga
##camera
##listen
##kus
##center
##laced
raba
kickyour
##diving
##nibal
##arita
unsatisf
##klee
terras
##rfman
bookmak
muffle
##offee
##beard
bono
##ojak
dislocate
tarted
##onia
##quid
##hov
##immediately
unbeli
##conda
frien
excavat
##licate
##wyer
##uncharacteristic
appropriation
cadaver
carburettor
diffiicult
elevation
euphemism
grizzl
hephae
krampack
liberator
lodging
loudspeaker
millimetre
nazuna
paraplegic
punjab
receptacle
reprieve
revamp
squirm
supernova
unburden
##accrue
pianist
wreak
##spekt
capricious
scruff
kilogram
tiptoe
szech
charlatan
bloodsucker
dildo
subterrestrial
menacing
lampshade
alacr
##ayaro
corolla
instantaneous
substitution
hajime
supremacist
impart
phaed
slowpoke
##thafucka
jubil
baguette
##cursion
ganja
baltic
coddle
##zambi
clariss
purify
jilt
illustration
occurrence
goomar
pederast
shortchange
slew
libation
wildflower
inadvertently
bamba
kazoo
waft
foxhole
fawn
jolie
complicit
enthrall
synapse
##utive
deliberation
harmonious
##signment
handheld
loyalist
##besto
meltdown
bajo
duval
foothill
##obel
hayasak
flagship
##withal
shoal
reciev
crystalliz
##degree
erode
stabiliser
gwyn
zerb
perpetuate
shanty
##biza
dimin
##iac
qi
##leric
##eet
lndistinct
854
##hanti
vocation
eavesdropper
tika
##heart
##ipsc
tuc
aguil
gameplay
##quito
909
025
psychoanalyz
##icide
colt
vandalis
##ipedal
jerri
opportunist
eg
brac
cheva
##lras
kias
digby
##rattin
##rakeen
reyno
heckle
cowgirl
weimar
banknote
shib
##bridle
bestseller
##iachen
expo
##gay
markup
##rio
metaboli
mourner
masochist
kumar
framer
turnoff
##youguys
vebeen
respective
anatomical
bidi
##runs
##erok
montage
orator
##aika
##tobe
##ima
stopper
##ffe
strategiz
##heraz
squiggle
##lesser
oap
overcook
##vio
securit
432
erupting
censure
##inside
##cev
##backs
zon
153
pantan
509
##ompa
##otherap
##mous
tapestr
##mitigate
gw
iden
##quant
nin
##elo
dia
suds
blu
##gri
soju
cerebr
##mok
capri
##capade
##omsk
sull
channe
##vc
statistical
kup
##louse
##rope
vanishe
##drugad
gelatin
gouge
##ppk
saps
##seconds
audiences
##uuh
##940
##oltan
##ordered
##fuk
whatdoyou
woog
##hee
nugg
##oste
cycl
pinche
woeful
periodical
overlord
georg
alphan
vende
##dc
pamp
squealer
mott
borough
depresse
##ooster
##mean
##ldon
penta
biod
##219
##elodie
##hushi
poi
##rhos
dav
##nhouse
skillful
##turning
##laus
katsu
##dome
insure
##tix
bins
##frey
##veable
loca
##ebie
wheeze
canti
##rush
conven
##berman
##ounger
##comes
##athon
##sunshine
chanu
inlet
##past
##itface
##cef
estrange
942
pui
##copi
birg
##ava
##single
winch
kissin
##aquil
##ndrog
##ncture
##tant
excels
pred
##osh
##enzo
##buildings
##leg
menstruati
##swag
unhat
pes
monger
rector
##therworld
##zin
mope
cb
rama
##xy
##riddle
arra
autocra
energi
##gil
##ulaw
consig
sult
131
oftheir
secur
brands
conclud
##iberi
##rmin
mils
davi
mahar
##bro
leic
lce
flayed
##haveno
raml
stoic
chula
##vagn
##versity
##rill
##sense
subtlet
##fromthe
menha
safeguard
##youhave
530
recipient
paralyse
radioactiv
foun
maggi
##oday
oxy
linguist
541
##discipline
frie
reinvent
##bugs
bunge
kapo
vivisect
kajz
researched
nuk
spoils
293
##avy
538
butjust
##sugi
mugg
turbulen
teven
worr
##ebago
equalize
##arawi
amtrac
##dala
##kim
433
jus
aaaa
##terial
landscapin
##aggh
gitch
##zzie
zang
##bride
##cio
tonio
adde
tera
##raz
##coat
##brook
iearn
acquit
kuma
agrad
##ushy
##aphas
materialist
##muller
##automatic
##belief
##fault
##funny
insecurit
##totally
lhave
appall
tjump
##mac
scoob
##cce
glitterin
##rowne
324
##teeth
sheik
intros
##hewas
azo
fallo
##aves
##nisha
gelat
congrega
##july
##cheer
vat
leninis
glanc
avo
##dell
##revolutionar
vau
brim
##slaught
##eeming
nigeria
zei
monta
zeph
##ajara
confuci
rachmanin
##annulment
beautician
bloodthirst
bungalow
crevasse
disavow
discriminate
episcopal
epitaph
fetzer
geothermal
haemophilia
infomercial
jondrette
kiosk
konstantin
legislature
manicurist
mccullough
pestilence
pomegranate
precursor
resettlement
scarecrow
scramisaur
shmenkman
talmud
transfusion
unsophisticat
unwholesome
widdershin
sociopath
laudrup
multinational
polymorph
tribulation
spokesperson
isotope
ocular
ekland
thopter
vulva
zsj
turban
unrecogniz
envisage
pickaxe
thromb
hemlock
obstinate
atanik
precondition
lecter
tirade
citation
bigleman
hombre
hymen
pervade
inoculation
esqui
leapfrog
loathsome
stepsister
fiigure
sciacc
coincide
endearment
frijol
skimp
realtor
imperfection
##miiiion
wendt
insinuation
aloof
odour
slang
iranian
werckme
slosh
halito
denou
sandstorms
##ungodly
dividend
deceptive
sauvi
rollei
simm
discord
kappa
glimmer
##ainz
rapture
##iot
saperste
##omorphi
redesign
katz
##drink
unfound
##iops
reeboi
lobo
puffball
unsuit
undue
eyeglass
gator
bhol
ripple
##yimmortal
fayette
emblem
macaroon
visor
palestin
fiight
congratu
garish
##pensier
sift
infertil
##bala
embank
hyung
##emma
jj
algi
##structure
##rmation
siem
awak
outpatient
##empt
pelvi
##cks
pollinat
gawp
whjust
prunes
kiku
lacer
buor
joh
evel
ovulati
##houn
##lasher
unplugg
sonnet
zl
539
pyre
landmine
pigtail
fixture
institutional
reorient
outfield
##gotta
postmark
lando
1400
chass
fiv
secr
flatu
gaye
piace
sekin
howmany
toilette
##gghh
maul
##uum
##ope
hwan
lun
prattle
pandi
##misu
swims
sparing
##vant
##manage
fratr
orsomething
mechanica
taj
storyline
cascade
bartend
buttress
carouse
keat
ranting
kenn
pock
trespasse
##ioso
##ysid
##ndane
##mut
heath
##forme
voj
furnish
micha
lech
garnish
##same
dissipat
##815
##evic
thesunnyside
##apa
unname
wolver
frontline
##bil
decompose
fuku
infidel
conchi
grandstand
##ledo
acu
posi
octav
trachea
##ghwa
sacr
##appuccino
##veta
lv
##tron
ajar
kerri
letook
##tails
##db
examiner
##thinks
tull
##ather
##bags
##depend
fatass
hone
##drich
antic
skit
inaugurate
oiseau
##shita
##lfa
kamal
##mbra
anaemi
##fried
##meet
nichols
453
idi
##inks
##eberg
montei
jabba
moos
recuperat
jumble
##eflector
samba
##gelti
ahhhhhh
befall
##iving
motivat
covent
##renata
cham
sobek
nie
synchroniz
##hrill
botanist
wayans
##olde
##negotiate
##braca
tojean
##charge
##amano
accessoriz
##gear
silencer
hock
comprende
##igrin
anticipat
ez
burm
solon
##inion
rath
carbonat
perfe
salivat
##arvis
##cool
##xon
##punta
haile
widowed
##lyong
kari
crystalli
##gap
##month
edo
##rokaw
##kle
##landa
##olini
989
pall
##nail
alr
##buri
placebo
##uala
perishe
##catch
##volta
hamd
##mato
prang
##ivan
unw
desir
##ako
kumi
dias
schlo
##usedto
##ormat
hui
massag
##uskie
tremo
jour
commemorati
abdo
ippk
##odoro
putyour
sambo
##ripe
881
osb
phillip
##isit
congratulation
##lutely
##alata
slots
##meat
##ckwith
marin
##epp
gad
vermil
##rnoff
##agel
regress
stro
dooms
oden
formans
migrate
##icia
##perfect
breakin
##mometer
licens
##animate
pric
qua
##bre
##real
pilch
confidant
##traction
##trusion
francisca
882
##ylus
levi
##ungal
##afta
##rushin
perf
##yjack
stayin
mala
slavin
eccentricit
##alo
##normand
##dilla
grazi
##wheat
##jessica
##survivor
##interrupt
##beyond
##diver
##window
##hagen
##grow
##orama
wrest
##uncle
##value
809
##veston
##goddamn
##jungle
##tler
##isser
slipp
##restricted
##gook
deprav
##fork
##tsune
indiscreet
##aimed
##sake
avoids
polyg
##ffle
##return
##keepon
vette
##angular
flagg
##emotional
thousan
longb
dic
subtl
##nzel
sau
outdo
positiv
##mino
robi
##fur
stanisla
curio
tunisia
##icott
##aigne
##youth
##tje
kickbox
sacre
youguys
theatric
intersect
afro
buc
##slovakia
amalgam
barracuda
compadre
corrosive
despertar
detriment
enrique
gynecolog
leblanc
mediocrit
migrant
nematode
ordinance
pandemonium
seahorse
sesterti
tidbit
trinket
ulrik
diaph
intermingl
ostraciz
belligeren
paralegal
unlawful
muerto
bewilder
dddddd
foetus
behoove
##bottling
forklift
anthropologist
sacrifiice
aaagh
abbreviation
fuente
monotonous
souza
senorita
preempt
imaginative
tiddler
contraceptive
megaphone
riker
##egano
ritter
cryogenic
lepro
##sputin
##guita
filii
marlowe
mothball
chappa
##izan
unchang
shockwave
bedspread
##tzger
enhancement
ringleader
hacienda
unprov
##poei
habib
##rrem
perilous
commendat
impersonation
##dane
##ignale
reclus
quickening
lobbyist
chintz
pothole
mote
spru
zelln
raffle
petersburg
newsweek
kempe
##baba
epiderm
##tandang
krishna
##thatyou
recurr
554
garmen
paar
bourn
sulla
costantin
quoi
caveat
bandanna
pharmaco
##rkild
##kker
macab
israelite
gonad
malinger
constrain
mythical
504
overreach
grimm
lorraine
blin
inept
549
vassa
##piscop
abrasion
advert
yosh
##evant
##barna
cramm
burnout
stoppin
hurra
longshorem
uuh
pigsty
trimming
recant
alto
bookmaker
pounce
cache
##florentine
recheck
grassland
kats
##iggy
##lte
steers
##iske
pietr
589
injector
abahara
anarchist
krieg
servi
burkhar
brides
emboliz
clinker
hoard
implicate
jot
reneg
eura
boh
sneakin
scand
whywould
predate
##sul
transpir
edict
##akhma
##pacio
trippin
abre
##izzler
ducat
yii
252
banal
##odine
pao
##llest
jello
diverti
##tigation
symbolise
froth
##ife
mcc
slapper
919
##lookat
##code
##ove
termin
henriett
fuckir
resp
##emph
salsi
208
rbi
dui
##lmar
toshi
##zu
qual
ignit
##jamm
##gamo
##flaxen
alei
paso
steadi
##kiel
##hul
##zig
lupi
churchgo
##cum
lico
##toshi
misogyn
reviv
##abad
gooch
genet
teachin
walkway
shivers
juri
##robin
##ifty
043
realist
kasse
enquire
##rard
##itor
lawless
##anju
arma
##niff
##pse
##pela
narco
##gular
##eska
blushe
holies
llsend
##urette
##dren
##alicia
alu
solita
voraci
##auth
##abby
snott
visualize
booz
fiest
##ussed
##nanny
flattery
##lead
##daub
##dial
widower
desot
xv
##centric
declin
hilt
##arab
iller
lya
##oboda
thawe
dul
resonate
dips
ringin
##rikant
kne
##lude
jette
bui
keepin
##ysek
##ofyou
##eason
##ont
trickle
maniacal
humph
underst
##ug
lowery
novatr
##abok
comit
alarming
##mani
deterre
daze
##ndor
lux
##rsey
baldie
##horace
##planet
stubb
trounc
##goose
econ
nudi
##inta
##aggy
creeper
##liner
##nbeliever
292
##iru
592
boos
ris
mirr
smudg
##hei
tamar
molte
##uman
##pper
##sberg
batta
keite
281
libra
##urable
##935
##arkov
##nonymous
##und
somalian
cine
takeaway
##buss
conceiv
##seems
contrai
decode
timecod
ramu
##rago
exas
##zit
savo
##kipper
oxid
##puss
summ
transf
##arrgh
upsy
##rrison
boa
##tec
##uka
degenera
##lift
amass
procrastinat
koji
##abine
##ovic
##thus
##licht
##ndo
snooze
##amus
##isten
ub
rosi
##ntiff
imagi
899
evac
##bear
marci
ponc
##ckman
lumpy
##please
simus
##answer
baptis
dissent
villar
313
##squad
##burst
##figured
##judge
inthemornin
induct
baggie
##verted
##cially
##tl
musk
lsee
looser
consol
##alive
falu
natal
apo
vandal
##beau
serra
curd
##partisan
##hickey
##tribe
##feminist
##cellular
##committee
##control
##pull
##convene
##foam
##everyday
##floor
##guardia
##motive
##wild
##introduce
##market
##toga
##takin
peac
##baker
##finch
##whatever
impu
##cutter
##lose
##bao
##ppler
teletubb
##bucket
##hike
##salad
palaeo
defic
franti
##angler
oct
##boob
##km
##clerc
vejust
##plott
##genes
##fluffer
##bourg
395
borat
##stranger
tuss
##uano
##matic
##brandt
##kaya
##onto
dermot
scandinavia
##gits
litigara
##eared
voit
chronolog
alta
##known
##mel
kalabaw
ahhhh
##humba
disobedien
pachel
balkan
belushi
codicil
desensiti
egotistic
electrocution
eviscerate
inconsistenc
insurgent
nectar
nintendo
perennial
reprisal
svetlan
tablespoon
voluptuous
yabba
chagrin
fiorentin
schooner
correlate
disembodi
indigen
sssssss
##mtex
chirop
countenance
engulf
counterattack
gratuit
cheapskate
squib
vordred
biochemical
insecticide
spaniel
grimpen
pauper
pluri
bulimi
decrypt
dishevel
rhinestone
urqu
##ragm
hermetical
gizzard
dorcon
embarass
hedgerow
artisan
siphon
kismet
##debo
earplug
exterminator
heracli
swallowtail
harbin
epilep
mccorm
oriole
##hitsa
kitsch
##ulot
adhesi
insulate
crumpet
forehand
gorb
##relevance
comlock
stockholder
roddenber
##etamo
besieg
catalan
recoup
proprietor
clamour
taoist
padlock
bougainvillian
counterweight
##nowhere
mivo
christoffer
laceration
##fission
bantu
##ergent
lisp
##lfi
spills
##quipp
brutish
##mowe
##klis
communiqu
muffler
murk
##presti
hotplate
glum
##ccino
##couver
vibrator
prohibition
otaka
tralala
magnus
##adilla
deac
firefighter
italia
apu
butterball
orion
tiggerifi
unlov
xero
flatline
underdog
wantedto
cohere
stronghold
crease
paintball
##ombie
galina
subsidize
flabb
flit
remodel
340
searchlight
sadden
##hate
laug
nutritio
##loose
moocher
421
conservator
pola
rinog
522
lemn
unexplained
scarama
eyesore
##vot
harrowing
coii
princip
##vowed
##bond
##rthe
##301
futon
##dabba
pho
peeve
##hida
##zer
cornea
anecdote
synta
enjoin
##ourni
margoli
nassa
##erwin
##gans
##ntah
##entics
##phane
tweet
cadm
embar
lsaw
circulate
cancelin
effe
nuker
##address
surveyors
##rifling
sombre
fien
libb
hearth
recession
falsifi
monalis
##hellac
snobb
zimba
##simo
deteriorate
##rcs
blooms
##tonight
lineu
zla
nobler
vija
disrupter
##ogeli
debon
importun
crav
dingh
fisti
##phys
strew
oik
famer
##popping
##nmen
buildin
##diz
##ippo
pram
##formy
studyin
##adam
cray
redecorat
##nav
##cutt
##generator
##near
conferr
yokoh
##cener
##phonic
##gue
loafer
empori
resch
##okie
thanksfor
##iffle
cosa
intolerable
deficienc
mondo
uninterest
buddhis
##dural
pommer
michelin
inaugurati
karta
ofamerica
roxan
brys
##250
nefa
esper
##tpa
opa
##uffel
##ams
wastin
tracer
miserabl
##rrible
recycle
hatcher
sinceyou
##vie
jers
recreational
methodical
##full
tira
##izzy
##ndra
ammoni
##asser
##rgh
paramou
trumpeter
##iously
whett
##road
##hours
taki
kreme
##chy
##potted
##otti
crud
caball
##mitsu
shari
tutori
##ebbi
##asera
macaul
hijacking
obe
##stance
boul
##rnal
stup
##ichy
cleric
sati
##score
##affect
##ahide
belittle
bou
hund
provo
bront
##udh
##buckle
##mperial
inoki
##uttle
boyz
facto
timeline
humm
##enem
##elak
##estur
christens
breez
stuffers
aberrat
##wn
##icki
##ainan
gama
crasher
##esque
890
##welf
tangea
righ
esa
paus
##bai
080
cosim
hardtime
##ammer
marat
##orthy
cald
##named
##formation
##spice
##ourad
myfather
##ente
ringe
irrigati
rosari
##kuni
##ature
859
##haus
amat
napoli
##wipe
kindof
##trip
##fellas
##cula
##script
carno
##raff
##lein
appr
994
titra
lok
##wha
##pop
absolv
##rging
##miro
##emp
jede
josef
forgi
##raggle
edin
culpa
##urman
##cold
##murder
##egp
mello
##vaporized
##beza
##zern
##ofa
reintegrate
##nut
##kh
##stitution
hoote
##mai
##mity
kue
##vent
paradis
##strikes
rol
##thin
##smart
##ropped
pomp
##atchel
martiall
unprin
sidel
insufferabl
enrich
##uge
patho
##diah
anja
##yougo
insi
horak
heeeeee
##clad
##zill
elvi
##risk
##ggles
boq
agreat
fabricat
##kashi
genealogi
farid
##iate
##malis
envie
##iiiiiiiiiiiiiii
smog
diva
##unda
##tag
otb
##ollie
kaya
suki
##doyou
prams
quickie
##sobad
captivat
werewol
soulful
archa
lvan
tfind
##eyed
fornicatin
##hela
malika
cyran
##aru
##seem
lingo
##bbe
##malaya
##fine
licker
nativ
disfigure
##arion
##quino
##ergen
fibb
##ragon
##wort
##creating
##krieg
##sort
##sutra
##daughter
399
##nourish
##dispens
##sheriff
##straw
##judy
##launch
##wanda
##alert
##protective
##anymore
sj
vulgarit
##wonder
##rogan
##focus
##stolen
lamm
fiit
beneficiar
disba
##myheart
##pardon
baskin
##bait
contingenc
##tyro
##sauce
believabl
spaz
prun
montag
##needs
blab
rejuvenate
ishu
##iage
##kong
##penny
##potti
##loon
ludo
appal
##meteoro
gymnas
##gleng
##xygen
blak
consuel
squaw
hepat
eavesdrop
enthusiast
persia
flirtatio
##naked
##tulla
##scient
##lihood
acrobat
##prehensibl
mentitheyohh
##ignominious
alcopop
barbiturate
bartolome
cavanaugh
conjecture
drosophila
escargot
hindrance
hypochondria
legislator
masterchief
pectoral
pretense
psalm
repudiati
schnitzel
shaboink
sledgehammer
sockcucker
splurge
subjugate
tambourine
taxidermist
theologian
tranquilliser
trombone
voyeur
##pigrubynudnyland
##quisitive
disconcert
locomotive
plastimise
reaffirm
##ambiguous
##trompe
impertinent
irreparabl
ojyo
vacillat
hovel
##cillin
cloister
entomologist
svanstr
constabu
allotment
artemis
cpuid
incestuous
mahboub
barrister
bristle
portabell
khaki
bawd
microscope
unwitting
telegraph
templar
radiology
bonapart
laureate
misread
earlobe
zelmina
nepal
##filte
confection
aneury
perversio
epaulet
loompa
wrangl
benefactor
sibilan
jockstrap
vigour
forearm
bodybuild
vincenzo
supervolcano
follicle
truant
modulation
##brunswick
keystroke
gimmick
rancor
##route
tactless
jann
mirth
sudan
reassess
cauteris
croatian
pennant
serio
##robor
dieu
quotation
gremlin
##scence
standstill
jetlag
##nameis
alder
rectang
impossib
kolin
deportation
##tabo
reparation
afria
enchantment
##pensiero
gangbanger
soundtrack
zhong
puritan
falsehood
harmonie
stadler
wbere
haifa
stout
showboat
ogre
unroll
chugger
abalone
epicent
lackey
##draft
fiinished
taint
##tamine
elmo
smithson
assort
##mpute
zealous
##215
caricature
##wice
urinati
spf
##clock
picker
blip
##waves
busboy
plunger
##enberg
hansel
##jennif
snoot
##looks
##younger
mimick
##adja
mandible
rowland
hasbeen
laminat
unseal
unbe
pledg
constanc
##bearskin
annex
roundabout
##nitze
##grand
##alf
##rtin
ayuda
##lion
arling
versatil
##agle
carpe
teii
thicken
##closes
earthling
##aise
motu
bane
##veral
##north
##bby
pruden
eise
sniffii
trib
interlock
knobb
##east
satir
subse
romp
burl
elan
##gwu
##atican
worri
##alamu
berger
blea
paki
adela
bereave
sportsman
##erada
bombardi
cutout
salivate
##rug
coloniz
##chika
gusta
##rrim
cig
##ological
##hilla
itstarted
crackin
paralys
centi
happ
##bull
guii
##iuzz
quay
##pone
congest
hora
socializ
##412
##onmy
proto
duo
loch
nauseate
##cito
##jal
responds
##ulfat
scoog
011
##hiva
parkins
dunker
equi
incoherent
extremit
feisti
towered
##knowthatyou
schac
csd
farc
brookl
##husband
##club
##uralist
reverberate
##pn
##root
##airforce
##bble
##maiorest
##rier
##staffa
svens
##rloin
pasqua
christening
##ttles
inque
##bye
zoy
slanderi
keto
##akiba
##yards
dupp
##ssus
##vov
coba
marcia
secretion
aquil
##ribs
quandar
##ege
trots
imped
##eller
##opia
##kah
##bei
flue
##981
baz
tanka
ryg
restart
##later
bunsal
formulate
##draw
blowin
##righthere
provisional
##nah
499
253
arcan
##thinking
##river
avin
persona
learnin
##342
yamagi
irrigat
##mal
comforter
sakak
##chai
trai
enlarg
brail
##utton
##avyd
spazz
##makes
nex
##chino
##llio
##iga
##wynn
meena
##hiera
##foos
overturn
##ydell
nomine
##lake
vester
##azing
##uji
abu
afour
heip
kl
groano
verac
##llies
judea
fallin
frowning
##cream
hodg
roofies
##danna
##rden
##hich
sule
plak
##rung
gino
##ieve
ebb
##rib
##journey
bronto
lfhe
##gger
##oyce
copac
##ound
guan
##mbu
alamos
fantasis
##uncture
prot
##ggin
rancher
##unani
pharmacolog
883
##jami
##ple
##liver
##asek
kenz
##typercent
##932
##stad
canc
##lipsis
##pam
cioc
##nja
##cases
lub
damone
tonsil
workyour
##ermo
fiicti
##thank
bib
berks
##ardass
##thesis
##jun
##cue
##rze
faust
##location
celsi
##aylor
chuc
gabi
##rought
##log
##grain
yel
##jin
byway
swanson
taka
bobbin
##bin
##opical
frag
##osita
rui
##tsuki
tiff
jobless
bram
riso
##shiya
242
hydra
fangul
clerks
##doch
banni
##posito
gek
geil
pyon
##troopie
romancin
##pad
bip
##laugh
##faggy
restructur
##cino
iknew
##elz
##544
kle
##umbo
msorry
##uses
toku
##nuptial
garc
##crof
##calcul
##chromosome
##district
##brashear
##student
##anybody
##grew
##smoker
##golden
##anxious
##ekh
terrac
##jimmy
outwit
##midst
##against
##erodd
##selfish
##stripe
subrip
uv
whist
##dryer
##meter
##baii
storytell
##moon
thermos
##azzi
##quest
##anner
absur
coli
strum
154
##opovic
##janell
fina
##mose
##andem
corpor
cocksuck
##seki
boilin
groovin
swelterin
##modulate
danni
##chemic
cun
extort
symmetr
discu
##lbaf
##ulgence
##ationalchampions
inebriat
siegenbo
biliskner
abstain
affiliation
bamboozle
carbohydrate
carcinoma
cardassian
dandelion
discrepanc
edouard
expenditure
irreplaceabl
jocelyn
malagrena
mammoth
mitochondria
paediatric
pulverize
redefine
saboteur
southpaw
vagabond
zucch
bioengineer
muenster
pancrea
stiletto
dissident
dilute
disparaging
seneca
bouloir
locust
fodder
mallomar
pesticide
smirk
gelulaisd
unmask
cistern
latrine
exult
kenarb
peripheral
pignerol
rimshot
osmos
morticia
persil
subsist
orpheu
bellissim
expedien
tassel
paragon
educator
madras
chirk
bolsh
insistent
typif
vadim
junip
tryto
autonomous
desolation
lauder
missjane
macadam
linoe
surmis
tarrant
snapshot
##recracker
contributor
crackerjack
impropriet
torrent
generic
fuii
prohibitive
suffocation
rosco
##santo
jurgen
protege
prognos
##timeto
exertion
##mologist
unsightl
gorgon
gersh
weddin
stalinist
sapstronger
##vlp
gerard
##zov
freelancer
apparel
leaflet
rasp
milkshake
thomson
goofball
kingpin
hecto
nametag
yasuhi
bevel
eurondan
eliza
skulk
rakhi
jaime
deliri
##anamo
schweine
gratia
hypoth
##lker
saudi
uneven
chilean
seraphi
ruffle
driftin
rehydrate
##suade
sacrifi
##etrograd
keren
##okot
pantalet
brent
nuffin
##lmro
overact
salk
varnish
equip
firewall
phob
##genetic
rejuvenat
eckle
papier
urp
splend
engh
shimmer
jezz
##razzle
clarifie
regal
brainwave
maltese
388
##snowwhite
lifeboat
otter
sailin
pacif
wlth
nostra
##zyk
##randi
weiler
barrie
flail
primo
##puede
wiii
selm
##moko
francois
##oulet
331
vacat
fuckino
modulat
egomaniac
##fart
##tax
##wata
##dran
lira
295
morpher
tstop
##jurg
whathappened
scrounge
rino
##typical
novocaine
lnitiat
##ulin
alkali
##lary
congr
##shua
easel
##lmaz
cockam
##wasn
##eesh
eeeeeeee
flickering
012
##uqi
booklet
##knock
##jovial
##geria
##coherent
carjack
##bwe
ignoram
favorit
thrower
upgrad
dilling
township
##xis
palo
eventualit
blackball
##moments
##trying
##rtel
##apologetic
##makesure
##onnage
##hez
tolerat
convers
maranh
ladd
##ident
bettin
##bench
teamster
pupa
##cated
##esda
indiscipline
noyi
forsome
infer
##riot
reiterate
bohemia
beheading
decap
##cket
shino
##mat
##fear
esto
##gives
##uil
ruf
##bshit
hearse
fiift
redial
domingue
musc
ajournalist
rop
##charged
##iggers
spire
##theway
##phthal
##ngah
##ardi
boozer
adher
pied
##bm
enclose
jolin
defensively
ghee
gooseb
homie
##221
parable
##fever
##zab
##llino
lig
##lob
tumbl
##ooky
truckin
##epu
##ican
twantto
##sue
##ecome
cns
kahu
ela
abuser
azum
miscalculate
kurd
##witt
##1251
##aben
burgl
zad
eug
niche
spinners
corone
guzzl
##ocation
##ezuk
exc
##doe
bridg
##feline
##adia
##peration
kristin
jak
matchmak
##elman
##fix
##spray
tourn
##dical
##canon
tyranni
howabout
##unken
crabb
##worry
donner
##pal
stude
##vig
podg
dara
##peck
schoolmate
trapp
##osci
spoiler
##ouquet
assassinat
bundl
schmooz
##gile
crof
endear
bois
181
tasti
##ollet
thrashing
##fun
reattach
##foil
##tav
mania
##tsuka
malm
##dai
revo
enlarge
##bring
nao
##likeyou
richness
kune
##lligan
aggravate
vita
cuor
bik
##321
adoring
##ilien
chaz
exce
footballer
##haru
##spend
##histor
##rius
galaxi
##hav
##illa
##rous
tarde
##udi
posit
burgh
ensur
##passan
eik
gue
lob
##detto
peculiarit
020
dyn
raim
incinerate
starg
belive
gov
##nap
##emel
##happen
##nigger
##serve
##ension
obscur
anima
gotyour
aba
235
preache
##eces
##atula
karam
##izab
##muzu
##zan
kasha
##goingto
083
jimi
vocalize
pne
loonie
##imo
takana
indignit
hernan
##ibur
##tig
##wings
ofyear
ott
##talou
bertie
##ete
##abasta
##saur
##aj
##issue
##uez
ravin
##sten
amb
##micker
cuca
##545
shii
##martie
truc
##amie
tael
theywant
buyin
##onyour
mimic
##ihua
##ahead
##neverknow
##tson
##achi
chickles
tiggeris
##ogg
##drin
baza
orwhat
##erby
##eena
##shoes
wretche
diog
##seas
##finish
##avant
##substantiate
borderlin
##arium
relocat
##franc
browbeat
##entry
reveren
##oscope
defii
traver
##hese
harro
luo
karo
homos
rhu
##335
plung
##gout
##phobia
nausea
nonviolen
##phic
##reader
anges
##round
##apprehension
##drive
##pipe
reminisc
##marksman
##qualifie
##evaluate
##llaba
##parallel
##distorted
##pearl
##christmas
##angels
##square
##gilmore
##sorrow
##ransom
##junior
##prison
##wig
##animal
##greg
##chiefs
##birthday
##joking
##symmetrical
objectiv
##ruff
##talent
##nobody
##fb
##rabbit
##polish
##throw
entrap
unexplain
##hammer
pranc
##style
repell
##shawn
##brian
##garment
prosc
regina
##flesh
##vangelis
##jole
scr
serv
meister
posses
##afar
flexi
nuff
##nanony
##ormed
impro
alfons
blangi
thatjack
watc
matzo
pucch
psychiatr
convuls
fract
supremac
##tortionist
djordje
snowplough
pedantic
##ouuuuuuuuuu
acrylic
adjective
biochemist
carburetor
catalunya
divulge
expanse
hoarse
intermittent
miniaturize
photosynthesis
psychoanalys
questionnaire
racehorse
shakespearin
tranquillizer
uninhibited
vindictive
clenden
diligent
encroach
tycoon
calibre
cognitive
moslem
neuter
paratrooper
recombin
clumsi
ordinari
steadfast
glaring
doktor
mitsuishi
concoct
phosphor
misfit
whupping
innkeeper
ecosystem
repellent
perfid
primrose
thunderrumbl
beanstalk
unbalance
idyll
impetu
dreadlock
blec
intensify
litigator
prinz
freebie
##requisite
epicure
sabbatical
pacifist
##plosion
shovell
knave
unlikeliest
unciviliz
ascensi
profess
ectin
bulg
bigotry
grimace
underhanded
##ungent
apprenticeship
verve
fetter
tablecloth
anselm
pendul
horrifi
edmont
mormon
argentinean
variant
##makeme
gitan
economist
intonation
unmatch
corpus
##uia
sanguine
gravi
seniorchief
certo
grung
##outofhere
cribb
crit
agp
unrul
##keita
brainstorm
ramblin
jeune
milestone
volker
annoyance
katana
domi
disruptor
anythin
933
pixie
922
lickin
repercussion
mosaic
petti
##hu
kleptomania
tachy
combustible
orquest
nitely
duckie
catechi
grownup
##bind
behaviorism
##retti
##stake
jiggly
octan
howareyou
csl
perishable
##motic
miaow
elio
superl
cyb
##destin
##andby
matth
##eglin
longhorn
##havebeen
299
ipve
warlock
lncrease
##rade
##temperat
##elapse
##amist
colomb
##eca
nostrad
rims
satanist
##learning
532
entangle
bap
sniffin
hillside
##kshe
cheez
cockney
##bom
worryabout
teletubby
##barb
vim
miho
freakish
cajol
sauc
coffer
pummell
toomuch
030
cicle
errr
##iiing
ques
##everwanted
##sale
affirm
majo
toga
knacker
mangal
gowns
lunge
jarl
##shouting
##ferme
##anni
sacrist
brett
darvo
pumpin
##rdo
triangulate
##erbo
##iselle
##415
tralk
##hr
##auber
ciean
##terminating
schoolbook
decelerati
##nsati
jef
raver
##org
##sexy
ifonly
regine
deviate
##fool
honeybun
ergo
nath
banishe
##lde
##weird
##lr
bedrid
##butter
tyreek
aik
confidante
assad
winslet
champi
guri
scorpio
ode
tranquill
gable
##ater
##eeva
wendi
##ulius
gravest
lwas
##enka
jiggle
##invention
saveyour
lotof
##vard
equit
brib
##metric
##capul
##mpassion
##moment
##tc
shou
ofstar
##lung
##hova
dermat
mcclea
gawd
chauvinis
deter
ricket
##shelf
##fulfill
##team
conne
bette
##string
##tosee
lamar
##orium
pinot
##whupped
myonly
jacobin
233
##vvi
##erything
anthr
lillie
rotar
##utio
##pers
possessiv
##ueno
##allest
reintegrat
gilpatric
##ooga
##lomo
chronicl
wom
rogn
##omina
tofind
hypno
##cene
safeguards
remiss
##vice
dorks
habla
magnetis
##highway
interns
minami
captivate
avid
agora
kope
dweller
lotter
raga
##gati
##urner
steriliz
##fice
crepe
##ulator
##viv
##rodden
hoc
estre
headwater
oflooking
manische
frieda
justification
nightsuit
pec
ogle
anatol
##rail
guaya
litigat
chia
inga
jambo
##beer
##uff
##oach
##kob
causeway
aristo
fant
simu
fertilize
aahh
sisi
budg
##nley
##zez
##433
##zade
deconstructivis
##willbe
sash
slouche
manhole
##cartes
townie
surrealist
##viii
##gut
siz
arr
##ascar
##eek
##aguir
##anako
##ramat
tsuna
lessen
##rule
##upp
##rabia
##cover
##gla
##pensive
##notes
pressuris
##piace
##rimes
##rogator
harangu
crim
whiner
mino
waka
expe
##apart
sieg
primer
faw
##boom
fois
##andpa
##itsu
##551
##sickness
thebest
##deline
838
spre
maha
brecke
arou
takeyour
##winds
frontin
torturer
##oursoul
##toward
##mir
##thorities
earner
dubb
##stra
##imos
induc
chaperon
##minate
##ifanyone
stillsuit
##bonne
##evoi
##urkey
##niches
squiggl
frett
##huh
sundr
535
trop
##fill
##cray
narum
##jen
##guess
pira
reina
##aglio
##poke
therefor
##ardines
reverberat
thos
##huse
yuri
venom
sterilize
##ikash
##cars
counsell
##brai
##aqui
launcher
##brushed
dissen
##llera
##oids
##obbled
toulo
preside
##unta
##yoko
dabo
schla
##onor
audibl
843
egoist
demean
##mplicated
##itall
fellatio
##inbo
##via
##service
alfre
monaste
giuli
##tham
sapphi
fratern
puri
##uriko
distressing
congesti
##rover
##tip
impressionist
keun
sega
##different
##bud
343
enterpris
##erv
navi
##eating
fiori
##ssette
##esti
diaz
##ezing
tangle
##sail
##rtram
wro
##dill
##mbled
##oftime
nagan
terrorize
##fancy
##nalisa
##nteresting
##stitute
doctrin
struttin
refect
enabl
ventur
lthought
##experience
culminat
##pme
obi
10000
dilla
educat
##brush
##abia
strugglin
prospero
##cooch
procreati
pou
##pause
##angeli
##bestseller
neuros
##racial
##science
##brighten
##announcer
##confirmed
##patrol
##shovel
##threw
##police
##expect
##respect
##julie
##whistle
##expensive
##shack
##steak
##assurance
##chattering
##mutation
##york
##quiet
##meetyou
##comeback
##colby
##pathway
##enti
##scorpi
pak
##flag
##boyz
##ofthis
##routine
huss
##credit
yugoslav
##office
stent
##everyone
encod
##jerry
##hund
propa
rubbin
##arton
euh
gabbin
##bleu
manch
##grip
antif
##zum
simpl
##fina
vigilant
surg
##jr
##natal
symbio
##soft
##forgive
shir
##company
interviewer
amplifie
benevolen
##lusk
firefight
##erald
erasia
neurolog
##isabeth
##terranean
babubhai
mikhail
##ebub
##neurotransmitter
##uuuuuuuuuuuuuu
aardvark
bharathi
disarmament
ebonic
erroneous
escapist
guevara
hematoma
incisor
indiscriminate
infusion
mitzvah
obscenit
peccadillo
picciridd
pirouette
rattlesnake
repugnan
scrooge
sonafabitch
splutter
taarak
transistor
tretomlec
troubadour
undecided
unwieldy
utensil
varanas
yugoserbia
chickpea
impoverish
martooni
sojka
mohammad
physiotherap
fiifteen
girdle
phoenician
gaucho
balsam
bernad
boondock
honogar
etamble
unobt
zigzag
carnegie
billiard
sensuous
congregant
##ursig
omicronian
tamil
infringe
antelope
barnacle
ctioner
derriere
sodomite
##tttt
glitz
numeral
rhomb
crossbow
swoon
##ncidence
exterminating
testimoni
wierd
##mpum
shogun
disciplinarian
yanagi
galante
shuffleboard
mystify
summarise
mainzer
##uncie
basal
##eje
defib
grift
flowerbed
underachiever
exude
##meant
shareholder
theplacewhere
##gesic
unseem
gouve
shetland
locksmith
sledge
wrp
##nchable
##veille
computation
shosh
flamb
slush
yourpet
##mofil
##reponderan
foolhard
rafferty
snaggle
verver
writin
impla
##rfr
prussian
rehash
serape
browse
##terminator
fatuous
##organ
mjusta
inducement
commodore
darklighter
cpu
peacemaker
##amco
matchstick
unsancti
drab
wiseguy
##scano
athenian
##ismol
nigerian
femme
##cipher
mrbm
puck
jerkoff
cib
sabina
pocketbook
vind
agonize
repentance
##azelto
losange
##iolin
viscou
miyo
papaya
rummage
##shall
handover
muja
frock
rastafarian
##trade
filament
otis
goldsmith
wittle
coppo
kapi
vogel
consideryour
##curred
sunburn
orican
knockoff
jazzercis
perco
eleni
tireless
carsten
rapin
misde
everseen
##enteen
racont
alexandro
lfound
##ourass
paedophile
##yearbook
flopper
##cavall
depressive
##iecz
plantier
nightstand
snubb
satyr
ordn
kui
##ardab
candombl
publicist
##moda
yeast
##writing
rustin
ravan
cowering
##dgie
##ppel
disintegrati
doctorate
unque
aaahh
##tissi
eich
wherefore
turpen
auctione
socio
nuptial
##oven
gerhard
##etsuro
##stupid
ginz
tsuru
hoid
treetops
disjoin
##mela
fornicat
shada
ancester
catalogu
leek
modernism
##ramen
bungl
##onist
scoffi
##mama
##ovo
##odjo
differen
##toma
mcf
##orbitalinsertion
manuei
##didyou
yoz
mollus
##shii
##ribble
hahn
##erofl
wingin
505
##allowed
bolognes
stylistic
matin
fullof
nembut
##livit
##rag
boii
submariner
biddie
##inque
murman
choc
##kuy
unhur
##2000
sonata
materialize
gigg
mcken
recounting
##arcsi
##forthis
##loin
014
vii
tef
weaving
019
prodd
##dzia
avow
##thanks
##rocky
offish
##ozo
##acklin
overstat
cookin
bridget
##yrac
501
##tellme
##quad
##ilip
absurdit
##eeuw
squigg
blotch
##gram
slender
naivet
zah
fitzen
abydo
ofhers
underdo
iooked
divina
rousse
##months
feldm
promo
babel
revolutionise
##foryour
cvi
khali
##thereis
mog
##adi
massar
ajourney
nadi
coagulate
punctur
##eiji
hurtyou
##ulev
unti
##artino
##sullie
rafter
##tried
ef
bleeck
degenerat
##arland
carpa
##walking
##uuuh
##ancia
##eath
diddle
##anguis
##nfield
##ughing
smudge
originat
pourri
feta
##521
##verton
vamoos
lala
##nez
unquestionabl
##giveyou
##ahi
acc
jangl
desp
##yfriends
agghh
##theworld
acr
puncher
insur
resure
hypoxi
perc
##jera
cler
jij
ebr
comme
##lope
##cam
##chang
##zh
throwin
theysay
orderto
sami
chemo
##ddist
##stmont
##tolerance
##mmy
##trim
##fugees
##whatwe
expulsi
##andthe
##rough
##idic
cen
sait
##parts
##lades
antonell
##adine
reflector
gambo
##lhad
quarrell
mountie
brasil
sidon
frp
##quan
##mymom
##ffic
wou
menstrua
strom
##brakemen
##calier
jaggi
frizz
485
rosell
wln
bogie
ensnare
##elfin
sep
fluor
##saying
##ool
##hib
##cque
smite
delar
##ovan
##kit
ismail
##enunciat
expuls
nunc
warder
revitaliz
narrate
gratifi
##434
trem
remake
borin
gatherer
##extra
##liph
##heim
##rabhu
##tellyou
euros
nez
imaginat
##yougot
irregularit
438
synerg
manga
##bic
impresse
##gain
virtuos
##rings
shinjuk
##oj
##oureyes
##tche
doubter
##imming
##vision
trea
##walls
thewhole
kirill
##cab
commoner
occi
##omeh
##rectory
##rudi
##stood
##convert
##letto
##yourhead
##close
persisten
usedto
##fasto
surfac
photocop
hikin
##couldn
impersonate
glo
fontanel
minimize
roofie
##vac
afl
##ega
##tracted
blacken
dicta
##rber
sardin
##makeyou
##ingbat
##alleluia
unintention
meteorolog
affl
##mash
garb
##eemed
##mick
samoa
kwi
fento
##migration
##ptimo
integ
##cuk
##ppen
050
magnific
##verse
sleepers
grange
##luster
patrici
##teach
335
##oneliness
pasa
##logical
graf
wooh
modu
##fat
##iba
##production
arcs
unab
##orized
##ication
naturalist
sultana
brea
##409
##dock
##receding
yourmother
##started
##thefirst
##usso
cya
evidenc
##lysee
yamaz
pointin
##banc
arranger
##knowhow
sava
##agra
##journal
##admissi
##shaft
##continent
##kapi
##inhibitor
##babble
##kazuhi
##doubt
##sympath
##directly
##murph
##politic
##energy
##thousand
##silver
##whether
##country
##equal
##jazz
##doctor
##purple
##poison
##decide
##wallet
##noff
##everybody
##packet
##crown
##muffin
##grace
##golf
##askyou
##uzz
##puff
##yourlife
##tease
mamor
510
slinkin
##gonnaget
##favor
yoshik
##herself
##zero
##bark
##finally
lorrain
arbitra
achin
burle
##itle
propel
##fighter
##takeit
##mik
##sena
##fonte
magnifi
mentat
##niece
shoul
adrenalin
##assum
sunni
muta
##oyant
ull
##yourname
phalan
iookin
verte
##scared
##jek
##cando
apprehensi
##pposite
salwa
millennia
##nish
euthan
embellish
##erybody
scientolog
##bayashi
##ndrescu
frapp
krzys
abakenezer
idiosyncra
orangutan
##opoulo
acquiesce
bezukhov
catacomb
citadel
discontent
dissatisf
exacerbate
ghanshyam
humidifier
insurrection
intubation
kaufman
malagueta
marmoset
mcnugget
montenegr
nonconformi
offiicial
ornithop
paparazzi
parapsycholog
posthumous
procedural
rhododendron
schwarzeneg
solzhenitsyn
stumblebum
superimpos
talaxian
tattletal
toadstool
borkowsk
circumvent
embalm
pretence
geyser
halfwit
leotard
pundit
reprobate
thessaloni
trabaj
aragorn
assyrian
dungaree
fiilm
treadmill
valpara
nitpick
perforate
tampa
lkra
nuzzle
galleon
undeserv
vaudevill
##rrgghh
jackalope
gearshift
zilch
irbm
kurihara
sagitta
convocation
bucktooth
##tronome
decapitati
dispel
mismatch
deluge
undisturb
landmass
especial
proctologist
brulee
platonov
prerequisite
balzac
##ingerbre
geranium
biack
honeycomb
falsify
posterior
snakebite
traumatise
conscien
chihu
intermin
wristwatch
defamat
douchebag
gastro
##aluation
unutter
henj
bootleg
hasselhof
##rocious
##farewell
incorr
preposition
##umentar
intrusi
aviator
matzoh
##horshack
mythic
zagat
hetero
exemption
separatist
sprawl
deplor
strategist
lachr
differentiate
niggard
existent
vassal
baird
kastr
##pital
flava
galvanize
##surmount
minnow
cavitation
captor
livelihood
mechaniz
##yfus
doucet
chickette
lamour
kobi
oblique
collude
marionette
virtuoso
scrawl
steeple
condemnation
rampart
krys
jerzy
ojal
servin
untrust
infarc
sapling
waive
descendent
pince
sauer
##nigan
civv
rab
lecher
krisp
variance
cheep
cashew
imperson
irritan
bachelorette
waik
##supposedto
geneticist
##atisse
logistic
denisov
weekday
##aboutyou
taser
kmr
purported
##nyl
janissar
##efim
##rien
clima
##violence
fallac
russel
##angelo
##thisis
debauch
##worrie
##aboo
delouse
prote
slidin
##haveyou
##seid
immuniz
##olkon
lugan
jigger
##ogram
agua
wilk
taji
##egress
stiffen
##demeanour
cookbook
##cett
jinni
chara
##indoor
impermanen
##edition
##pair
##ophone
trawler
mahim
prong
##thetime
##lovers
galley
##igma
shunn
duckin
gobbled
quelqu
offcer
hackle
yut
byte
clar
buries
piccol
##omori
ranj
##early
bolton
solidifie
ej
tarka
##withthe
##reyougo
wetland
##asp
parabe
##rz
thepresident
##speaking
##shouldn
paralysi
becaus
garg
boogyin
pressuriz
bube
##azi
##crossed
falke
##awn
zord
##hira
##qua
##girlfriends
##muth
##locker
mita
ifsomeone
##etter
centr
silva
himseif
hideod
##ahhh
##shine
##visit
##boundto
hyperactiv
joz
##exos
##journalist
aaaaaaaaaaaa
scrubber
##machiavellian
##hote
prez
tatte
##smoke
##wantyou
wynd
aarh
##phasi
bellan
divis
##mental
##elma
##stilts
soci
##cor
##summation
zyg
vehicul
shewas
puer
##lance
##fied
##prop
joule
##raised
charo
##vento
flyby
rampag
##ape
##quite
018
##eigh
adorn
tabar
##ictori
smyth
##pane
cels
fons
##tiansha
whoope
studious
groped
weston
impale
carro
crois
landlad
nema
##fre
sabe
bustle
##edeck
##hta
yakovle
##lado
nakam
##turni
##also
##cci
##areyou
##corder
bellag
sprit
##econstruction
redundanc
##umbers
##venile
fior
tearful
pende
##petite
riveted
##ueva
ofblood
chiller
perni
##tzsche
unnerv
duchesse
xx
barrette
pirat
pacifi
fujik
##rode
desic
stroller
llkeep
##radar
##lhave
##gues
##media
farra
sou
tosser
385
appointe
replant
barg
##ngland
##ayton
pik
alm
##blat
theywon
vicent
jou
##theball
cuc
##addle
stri
##namo
revolutionize
##thenext
##eeka
##pink
sitar
##audie
revitalize
spinn
##ulch
weiss
deplete
##documents
qian
unwrap
##vul
##racken
##yaz
##yousee
ballin
##ortal
##avin
gink
##altered
543
eart
klee
tbing
toreport
saha
##ortiz
kabu
##lesen
midori
##veau
caffe
quieten
##oko
vond
herder
##literate
##wasbornand
tornadoe
aeg
##spiration
##dong
##storia
molester
##pern
spick
##horizo
zete
gage
stupif
##flight
moisturize
##cally
hono
##operative
ester
brie
schmooze
zem
basti
mok
##llow
##sert
brewski
croquet
proportional
##bh
##mullah
##espondent
##prid
lubricate
chol
libe
##tified
roue
##jau
##label
##west
mobil
propelle
##ogue
partisans
bonit
##fir
##utely
filet
##endez
##thehighway
##faced
attribut
naka
twang
whoopi
unbeliev
##getyour
##rrr
ignor
solider
mcg
##ntercom
##sitive
ryd
##aci
soundless
fren
##hero
ket
##pecial
brau
subdivis
salvag
##imping
aida
##holt
##ocratic
addle
##ikaki
##cional
nya
incr
schm
filip
##means
##sufferably
calva
##gora
##mobilise
mazo
interactiv
gorg
tete
##tuna
##weep
nnn
##weapons
##genial
##lender
begn
incidental
palan
##bangs
kha
dermatolog
##bp
##reconcil
##wave
minu
##sinthe
##girlfriend
flax
##cv
capsize
arkadia
leib
##ferty
##maso
jerko
##prove
naz
##youget
##mun
##intelligence
gli
##vided
##arcelo
##ometimes
alia
cower
##armac
buena
##notic
##given
yoke
personaliz
094
justifie
concord
mikan
machiavelli
chichi
feeb
mlll
hyp
sanitar
esen
satak
faur
##akub
fasci
nord
##tale
cov
##soldiers
transcrib
##members
pompe
sanctu
##noble
criminalist
bung
##army
labelle
bial
##demir
##butol
universi
jif
##program
##ifthe
gibb
##tenant
denigrat
interfe
prolif
##nanci
##fuel
##vej
##jang
braggin
monet
volum
ryun
##share
hibernat
##ercedes
##misty
##iatrist
##treat
acceler
drei
malin
##cart
##ogum
yourfather
##throb
##ncarnation
eliz
##adulterate
##ivit
##wejust
##conscious
##wlth
##aspir
##protein
##fruit
##hazard
##accurate
##fellow
##jewish
##romantic
##involved
##register
##above
##interview
##straight
##guilt
##ofgod
##gift
##pursue
##detour
##sharp
##deput
##sample
##wag
##unim
##hiroh
astound
##alarm
##pox
##gather
##loft
retilin
subtit
##tooth
##tsushi
##crash
##assar
##stocking
capacit
##stuck
##vette
##jinni
##bender
##barney
##lever
leach
persevere
insinu
harrow
hypothetica
##purse
##jap
##bube
##quick
##exact
guile
##freeze
veri
##ebony
impass
##sympto
girlfrien
engin
methyl
approximat
contend
paralyze
coq
##amra
heeeee
##fisher
kimmi
sunshin
##preach
##endoes
##wayne
##ierge
subjectiv
recidivis
vesuvi
mafios
freelance
scrip
##ntang
prussia
dalmatia
chevro
##cloud
##ikan
##fdet
##ausalit
##leanor
##scarves
##seeit
unconscio
wrig
holst
##ollocks
##asuku
##lieft
hippocrat
snub
##ibrator
##dehyd
##oflat
dissociati
##irreverent
basemenot
bolshevik
caboclo
capybara
connotation
corinthian
cosmopolitan
doppelganger
encontra
endeavour
euroreptar
freemason
gimlet
grammatical
hallucinogen
macdougal
malfatto
mycenae
olfactor
parmigian
prophesie
reestablish
rohypno
stipulate
tabernacle
tussaud
bricklayer
prudish
arounod
exsanguinat
hermaphrodite
jiggiy
mosasaur
omnipoten
percolate
scintilla
buchiach
despatch
discrete
frigidaire
sciatic
teetotal
tricorder
airstrip
elicit
annull
expedite
flagrant
trocad
##rpsichor
cippolin
flannel
glyco
lithograph
pomeran
spoilsport
abdicate
drainpipe
klick
letharg
handicraft
scrum
minnelli
concem
recalculate
cartilag
slipfighter
rationalization
gonzale
interlope
bystander
nightsider
neurologist
riikk
breastfeed
malark
shinichir
ennobl
antipast
jakob
trigono
disprove
braveheart
brotber
ofopportunit
strausberg
tangent
subtitel
##ilometers
trotsky
defiant
unoder
##ejus
##mopoli
stigma
militaris
subculture
sandalwood
exxon
herakli
##oscopic
##opf
ghana
haggle
reminiscence
ashram
confound
diapie
pinci
hypoten
##wantsto
electrode
pocono
sportscast
bhana
hairbrush
##gnero
windscreen
##derma
ystem
hanuk
sequin
##andaround
##laudet
nonchalant
null
nastiness
moisturis
matsushi
anglo
##ynjo
repressuriz
poetess
krak
##otsky
showmethe
vassil
whippersnapper
saivu
yakamo
foodstuff
slimmy
##luka
earthworm
foxworth
leci
earache
##ofher
##rhade
##bharat
##mposition
vocalist
##inevere
naib
nicoia
guaj
krog
violinist
hanog
guilden
immobilize
paternal
inversely
yokota
impudent
passiv
##acqua
##ahal
mizuh
trampin
##omite
dissection
##magica
biood
camino
scamper
dahome
rift
knockingat
vater
quic
cogent
##tration
jowl
germinate
##ovik
lasio
hirok
sophist
##stiii
##efu
stren
perseid
##iiiii
oxen
barrera
lmmortal
juji
0300
tyke
zagre
neverlose
1099
campground
bosnian
##954
propagate
negra
moyer
overcoat
ldea
guang
motorist
fayet
amazin
##ritani
##pitation
judgemental
spaziv
lfeel
ultima
##courge
##europa
amabi
mallard
recta
##richard
nair
boggle
lesion
moroccan
paradoxical
oscillat
numberthree
conjugate
capita
##awkin
stropp
##abie
perspire
condor
##ahua
roastin
woop
hilltown
##environmentalist
midland
unstrap
dredge
##ourown
##tely
himmel
##ssential
automaton
izum
##aggle
ourposition
##aaaagh
backstreet
gya
##rlsso
##fune
disorganiz
torme
plz
woul
lacerat
##lida
nanc
##nfred
ethere
##esias
brel
vicepresiden
bosh
##rrilla
grati
quantif
mahal
##ommen
gluta
zat
basing
blindside
##itious
jonc
backlight
asserti
##agree
##bow
crudit
kishi
##rriff
##uncey
##ifl
dray
resurect
ureth
yasm
hoose
##riju
underestimat
agitati
cosine
##dulation
##forgetabout
enou
yellin
crete
plasti
##nsboro
##elbas
##akuma
chortle
sconce
reinstat
##itum
marbur
enslav
moola
moria
misrepresent
##fudge
valenc
titter
251
configur
impractica
seance
restaura
##orient
skateboarder
##jit
##actor
betterget
##acity
maestr
rememberwhat
walton
aaaaah
unco
##aroo
##otchy
##pond
wpr
##zola
##itland
plugging
##mic
trebl
##happens
zech
dufus
##andry
iliad
##nov
siler
[...]
